#version: 0.2
ì Ŀ
í ķ
ë ĭ
ì Ĺ
ì ŀ
ê ³
ì ł
ê °
ë Ĭ
ì Ħ
ì §
ëĭ ¤</w>
ëĬ Ķ</w>
ì ķ
ìĿ ´
ì ĭ
ê ²
ìĿ Ħ</w>
ë ¡
ê ¸
ë §
ì ľ
ë ı
ë Ĥ
íķ ĺ
ë °
ì Ĥ
t h
ìĿ ´</w>
ìĿ ĺ</w>
ë ¥
ë ĵ
ì ļ
ê µ
ê³ ł</w>
ì ĸ
ìĹ Ĳ</w>
ë¡ ľ</w>
ë ¦
ì§ Ģ
ë ¶
ë ³
ìĿ Ģ</w>
ì ĺ
ë¥ ¼</w>
ì ĥ
ì Ī
ë Į
Ī ëĭ¤</w>
â Ģ
ì Ľ
ê¸ °
ìĤ ¬
ê ·
i n
ì Ĭ
ë ¬
í ĸ
ìĹ Ĳ
ê° Ģ</w>
ë ©
ëĮ Ģ
íķ ľ</w>
ë ª
ë ł
í Ļ
ìľ ¼
ìĭ ľ
th e</w>
ìĦ ľ</w>
a n
í ĺ
ë Ŀ
ê° Ģ
ì ²
ìŀ Ĳ
ì Ĩ
ëĭ ¤
ë¦ ¬
ë Ĳ
ìł ķ
ëı Ħ</w>
ìķ Ħ
ë į
ì £
e r
ì Ļ
ë ²
ìĸ ´
ìł Ħ
ëĵ ¤
ìĿ ¸
ìľ¼ ë¡ľ</w>
ë³ ´
r e
ì ¹
ë¶ Ģ
ë ħ
ê ±
ì °
ì ¤
ì ¡
ì§ Ģ</w>
ìĥ ģ
ìĪ ĺ
íķ ľ
ê· ¸
ëĿ ¼
ë ŀ
ë ¯
ë ¹
ìĬ ¤
ìŀ Ī
ë Ł
ì£ ¼
t i
e n
í ĥ
a r
ê ´
ì ¶
ìŀ ¥
ëĤ ĺ
íķ ´</w>
ìł ľ
ê² Į</w>
o n
í ļ
e d</w>
íķ ´
ìĽ Ĳ
í Ĭ
ëı Ħ
in g</w>
ìĹĲ ìĦľ</w>
o u
í Į
ê³ µ
o r
íĸ Īëĭ¤</w>
ìĦ ľ
t o</w>
o n</w>
e r</w>
ê³ ¼</w>
ìĿ ¼
ê² ĥ
ìĦ ±
í Ĩ
í ı
ìľ Ħ
ìł ģ
ê² ½
êµ Ń
an d</w>
ë¡ ľ
êµ ¬
í Ķ
ê¸ °</w>
ê³ ł
o f</w>
a l
ìĨ Į
ê ¹
s t
ëı Ļ
ìĿ ¸</w>
ë¹ Ħ
íķĺ ëĬĶ</w>
ìĭ ł
ìĿ ĺ
i n</w>
ì¡ °
i t
ë§ Į</w>
ê´ Ģ
ë¬ ¸
ë§ Ī
ìĪ ĺ</w>
ë© ´</w>
ìľ ł
ë¬ ´
e s</w>
ìĺ ¤
ã ħ
ëĲ ĺ
ëª ¨
ìĿ´ ëĭ¤</w>
ë Ħ
a t</w>
a t
íĻ Ķ
ëĤ ĺ</w>
í Ħ
ì¤ ĳ
ìĻ Ģ</w>
i s</w>
ìĹ ¬
ê³ Ħ
ìĦ ł
ë© °</w>
ë§ Į
âĢ Ļ</w>
ê° ľ
r o
ìļ °
ê± °
ë Ķ
ìĹ °
ìĹ ħ
ëĤ ´
íļ Į
ë¯ ¸
íķĺ ê³ł</w>
ìŀ Īëĭ¤</w>
ìĥ Ŀ
ì§ Ħ
ìĿ ¼</w>
ìĦ ¸
íķ ł</w>
íĨ µ
í Ľ
ë° ©
í ŀ
ì ¢
ìļ ©
í ģ
ì¹ ĺ
ì ¦
a s</w>
a c
i c
ìĺ ģ
ëª ħ
ìŀ ¬
o r</w>
ìĸ ´</w>
ë° ľ
ëĭ ¨
ìĭ ¤
ìķ Ī
ë £
ì ´
íĸ ī
i l
a n</w>
ë¶ Ħ
e l
ë ķ
íĬ ¸
âĢ ľ</w>
ìĤ °
ìĹ Ĩ
ëĬ Ķ
ë ĳ
ãħ ĭ
êµ Ĳ
ìŀ Ĳ</w>
ëĵ ±
ëŁ ¬
ëĭ ¹
íķ Ļ
í İ
a s
âĢ Ŀ</w>
o m
ê³ ¼
ëĵ ľ
ë§ Ĳ
íķľ ëĭ¤</w>
ìĭ ľ</w>
a l</w>
ëħ Ħ</w>
i s
e c
ê¸ Ī
e s
ë© ´
w h
ëĭ Ī
ì² ´
ìķ Ĭ
ìŀ ĳ
ì ½
ëį °</w>
ë° Ķ
e n</w>
ìŀ ħ
ê° Ĳ
ìĹ Ń
ê ¶
í ĳ
íĸ Ī
ë¦ ¬</w>
th at</w>
ì° ¨
ë° ĺ
ìļ Ķ
ê² °
ë¬ ¼
í Ĺ
ëł ¤
ìĹ Īëĭ¤</w>
i t</w>
íĺ Ħ
ì µ
ãħĭ ãħĭ
ë Ĩ
ë¯ ¼
ì¶ ľ
ê° Ħ
ëĿ ¼</w>
ê° ķ
í Ĵ
ìŀ ¥</w>
l y</w>
a m
v e</w>
ì ±
ì§Ģ ë§Į</w>
ë¥ ´
o l
ìĽ Ĳ</w>
âĢ ĺ</w>
ìµ ľ
ìĺ Ī
íĥ Ģ
ìŀĪ ëĬĶ</w>
ìł ľ</w>
ê¹ Į
ìĬ ¤</w>
ë§ ¤
u s
ìķ ¼</w>
u r
ti on</w>
p l
ëĭ¤ ëĬĶ</w>
í Ĥ
ëł ¥
ìĭ ¬
ìĭ Ŀ
íı ¬
h a
ìķ Ħ</w>
ìļ Ķ</w>
ìĦ ¤
ëĲ ľ</w>
íĦ °</w>
ìĸ ĳ
ìĿ´ ëĿ¼
s i
Â ·</w>
ëĵ ±</w>
íŀ Ī</w>
ê± ´
ëĮ Ģ</w>
ë° °
l i
ìļ ´
r i
ìł Ģ
u n
ëħ ¸
íĶ Ħ
c h
ë ¨
ê° ģ
ìł Ĳ
í ħ
ìĿ Į
ë¶ Ī
ëķ Į
. .</w>
f or</w>
íĳ ľ
ìĹ Ī
ë° Ľ
ëĤ ¨
ëį ĺ</w>
ì§ ģ
ìĤ ¬</w>
ëł Ī
en t</w>
a d
ì¶ Ķ
íĮ Į
n o
ì² Ń
ìł ģ</w>
ìĽ Ķ</w>
l e
í Ŀ
íĺ ¸
ìł Ħ</w>
l o
ìŀ Ħ
ëĭ¤ ê³ł</w>
ìĨ į
ëĭ ¬
th e
ìķ ĺ
íĻ ķ
ì² ĺ
êµ Ń</w>
d e
ê· ¸</w>
ëĭ Īëĭ¤</w>
ê° Ļ
ëĶ °
íķ ¨
ëħ Ħ
a b
ë ¸
íķ ©
ë² ķ
íĶ ¼
ìĤ¬ ëŀ
a g
íĦ °
ì ¸
ì½ Ķ
í Ī
d i
í ĭ
íĬ ¹
ê¶ Į
ëĵ¤ ìĿ´</w>
ê° Ħ</w>
ê¹Į ì§Ģ</w>
t s</w>
ìĹĲ ê²Į</w>
ìĥ ģ</w>
ë Ī
n e
ë ģ
ë ĺ
ìķ ¼
ë³ ¸
íģ ¬
ì¦ Ŀ
ë² Ħ
ë©´ ìĦľ</w>
ìłģ ìĿ¸</w>
c on
s e
ì§Ģ ëĤ
ëŀ ĺ
íĽ Ħ</w>
ê² ©
ëĬ ¥
w it
b e
ľ ëĭ¤</w>
íĮ Ĳ
p ro
s h
ì »
íĪ ¬
ìĹĲ ìĦľ
ì¹ ´
íĽ Ħ
ìĻ ¸
ìĹ ¬</w>
ìĺ Ģ
íĬ ¸</w>
ì Ķ
ì ħ
ì¢ ħ
ìĹĲ ëĬĶ</w>
íķĺ ê²Į</w>
ì¤ Ģ
ìĬ µ
íĻ ľ
a y</w>
s u
ìĺ ¬
v er
íı ī
ë ĸ
ë¶Ģ íĦ°</w>
ë§ İ
wit h</w>
ì§ ĳ
t r
l e</w>
c om
b u
ëĶ Ķ
ëª ©
p o
ì§ Ħ</w>
íĥ ľ
e m
er s</w>
ìłģ ìľ¼ë¡ľ</w>
íĻ ĺ
er e</w>
ë¶ Ģ</w>
ëį Ķ
a i
ê¸ ī
Ķ ëĭ¤</w>
ëĲ ľëĭ¤</w>
ë³ µ
ê² Į
c e</w>
ëĵ ľ</w>
ê² ł
ì ¼
íĨ ł
ëĮĢ íķľ</w>
ëĳ Ĳ
g h
ë ĥ
ëĬĶ ëį°</w>
ìķ Į
ì´ Ī
ìĬ ¹
ëį °
ì² ľ
íĺ ķ
ë¥ ¸</w>
w as</w>
ìĹ ´
ar e</w>
ìķ ½
ìķ Ī</w>
ìĸ ¸
íĴ Ī
íļ Į</w>
ìļ ´</w>
ë° ı</w>
e x
ëĲ Ĳ
ìĤ¬ëŀ Į
ëĵ¤ ìĿĢ</w>
íĤ ¤
ë³ Ģ
a p
ìĦ ±</w>
êµ ¬</w>
ê· ¼
ë© Ķ
ê´ ĳ
a tion</w>
ëĤ ´</w>
b e</w>
ìĦ ł</w>
m o
ê »
ìł ķ</w>
ìļ ¸
ë ´
ê¹ Ģ
a r</w>
y o
v i
íĸ ¥
ë° ķ
ëĭ Ī</w>
s t</w>
êµ °
ëĵ¤ ìĿĺ</w>
ìĦ Ŀ
ì¤ ĳ</w>
íĻ Ķ</w>
ti on
ìļ °</w>
s p
ëķĮ ë¬¸
ëĭ ´
ëĦ Ī
íķ Ń
ou n
ìĿ Ģ
ê² ĥ</w>
ì° ¸
yo u</w>
ê²ĥ ìľ¼ë¡ľ</w>
ì£ ¼</w>
th is</w>
f or
f i
ou t</w>
ëĭ ¹</w>
ëª »
ì¢ ĭ
ë£ ¨
íİ ¸
h e</w>
ë¡ Ŀ</w>
ìľ ¡
ìĤ ´
ìĪ ł
ëį Ķ</w>
ìŀ ¬</w>
ëĳ Ĳ</w>
ìĹ ħ</w>
ëı ħ
íĺ ĳ
ê² Ģ
ì± ħ
l d</w>
a k
ìľĦ íķ´</w>
íķ Ħ
ë² Ī
ìķĦ ëĭĪ
íķĺ ì§Ģ</w>
b y</w>
ìķĺ ëĭ¤</w>
u l
o o
ë£ Į
ì§ Ī
ìĽ Ķ
ìł Ī
ê· ľ
on e</w>
at e</w>
ìĸ µ
ë° Ŀ
ëĤ ł</w>
ìĿ´ëĿ¼ ê³ł</w>
f f
ìĺĢ ëĭ¤</w>
ëĲĺ ëĬĶ</w>
ã Ģ
ìĪ ľ
ìķ ŀ
íĻ ©
p er
íķĺ ëĭ¤</w>
ëª ħ</w>
ëı Į
ë² Ī</w>
ë§ Ŀ
a y
ëĵ ł</w>
t er</w>
p re
ha ve</w>
ê²ĥ ìĿ´ëĭ¤</w>
f ro
it y</w>
ë§Ĳ íĸĪëĭ¤</w>
ë¶ ģ
s e</w>
íķľ êµŃ
ê·¸ ëŁ¬
ê³ Ħ</w>
ìĥ Ī
ãħĭãħĭ ãħĭãħĭ
fro m</w>
ë³ ĳ
ë³ Ħ
' s</w>
ì° ¨</w>
ë§ ŀ
íĨµ íķ´</w>
c o
ëķ Į</w>
q u
al l</w>
ì ·
ì° ½
ì¶ ķ
t er
ìĤ °</w>
ìĻ Ģ
w or
ëĨ Ĵ
bu t</w>
w e</w>
d o
ì¡ Į
ëĦ ¤
íĭ °
ìĹĲìĦľ ëĬĶ</w>
íķĺ ë©´</w>
ëĲĲ ëĭ¤</w>
no t</w>
t o
íĹ ĺ
ë¸ Į
ì¹ ĺ</w>
ëĿ¼ ê³ł</w>
ë³´ ëĭ¤</w>
ê¸ Ī</w>
th er</w>
ë Ĵ
ê¸° ë¥¼</w>
i m
w e
p e
ìŀĲ ëĬĶ</w>
ëĵ ¤</w>
t ed</w>
ë¨ ¸
ëĲ ł</w>
c i
íķĺ ê¸°</w>
ê° ľ</w>
íķĺ ìĹ¬</w>
ou ld</w>
ë¦¬ ê³ł</w>
ë¦¬ ëĬĶ</w>
t h</w>
íķ ł
ê» ĺ</w>
ìľ¼ ë¡ľ
s o</w>
ou r</w>
ê²ĥ ìĿĢ</w>
ê°Ļ ìĿĢ</w>
ìļ ©</w>
íħ Į
ëĪ Ħ
ê°Ģ ëĬ¥
ëł ¹
ìĤ¬ ìĹħ
ìĥĿ ê°ģ
. "</w>
ì ³
ëł ¨
ì§ĢëĤ ľ</w>
ìĹĲ ëıĦ</w>
ìĨ Ĳ
ìķ ł
ìľ¼ ë©°</w>
r a
ëĵ¤ ìĸ´
c h</w>
ì· ¨
h o
ì ĵ
ë°Ŀ íĺ
d s</w>
íĶ Į
ëŁ °</w>
ëĵ¤ ìĿĦ</w>
ëı Ļ</w>
ìĶ ¨
ìĨ ¡
ìŀĲ ìĭł
ã ģ
ëŁ ¬</w>
ì§Ģ ëĬĶ</w>
ì´ Ŀ
ë ī
ìĽ Į
the y</w>
ë¹ Ħ</w>
v er</w>
m e</w>
íķĺ ë©°</w>
ê²ĥ ìĿ´</w>
ëĭ ¨</w>
ì² ´</w>
h i
ìĤ ¼
íķĺ ì§Ģë§Į</w>
ìĹ Ń</w>
gh t</w>
íĮ ¨
ëĺ Ĳ
il l</w>
ìĨ Į</w>
e t</w>
c l
ì¶ ©
ëĮĢ ë¡ľ</w>
ëĿ¼ ëĬĶ</w>
ë¦ °</w>
h is</w>
ìķ ħ
ê´Ģ ê³Ħ
ìĿ´ ëĤĺ</w>
p ar
íķ¨ ê»ĺ</w>
ëĺ Ĳ</w>
ê± ´</w>
ì º
ìķĦ ìĿ´
u m
ìŀ¥ ìĿĢ</w>
g o
íĥ Ŀ
al ly</w>
ëĭ¤ ë¥¸</w>
ìĭ ł</w>
ìľ Ħ</w>
íİ ĺ
ì± Ħ
ëł ¤</w>
íļ į
m e
or e</w>
ë° ±
ëıĦ ë¡Ŀ</w>
ì§ĢëĤ ľ
ë¡ Ŀ
ì¡ ±
ê¸° ìĹħ
â ĸ
h as</w>
ì¡ °</w>
íĺ ķ</w>
ëī ´
ëĬ ĺ
ë°Ŀíĺ Ķëĭ¤</w>
ëĬ Ĳ
ê²ĥ ìĿĦ</w>
ëł ĩ
ë¡ ł
ë¦ °
ì§Ģ ìĹŃ
ë¦¬ ë¥¼</w>
ê· ¹
ê¹ Į</w>
ë¬¸ ìłľ
) ,</w>
ìĬµ ëĭĪëĭ¤</w>
ëķĮë¬¸ ìĹĲ</w>
ë¨ ¹
ë¦ Ħ
ìł ĳ
ëŁ ¼</w>
ìĻ Ħ
ì Ł
b o
ai d</w>
ë¦ ½
íŀ Ī
ìĺ ¨
ìĭ Ŀ</w>
ì° °
p or
ë¬ ´</w>
ìĿ´ ëĬĶ</w>
ëŁ ī
íļ ¨
ê¸ Ģ
í ľ
ê² ¬
tion s</w>
ëł ¥</w>
ìĽ Ģ
ê¸° ëıĦ</w>
ê± °</w>
ë¯ ¸</w>
ìĨ į</w>
ë§ ī
ìĿ ĳ
ìľĦ íķľ</w>
ì¡ ´
ìĤ¬ ë¥¼</w>
ê³ ³
in g
ìĿ Į</w>
ìĸ´ ëĸ
ê± ¸
d u
íķ´ ìĦľ</w>
ìŀ ¡
ë² ł
íķ´ ìķ¼</w>
âĢ ¦</w>
ìĿ Ħ
ìľĦ ìĽĲ
ë² Ķ
g r
íĶĦ ë¡ľ
ìĤ¬ ìļ©
st r
o p
ì§Ģ ìĽĲ
ìŀ¥ ìĿĦ</w>
ìĭľ ìŀĳ
d ing</w>
ëĤ ł
d e</w>
ë¥ ĺ
ëĤ ľ</w>
ìłķ ë¶Ģ
ìł Ĳ</w>
ëĨ į
ì» ¤
ëŀ Ģ
ì² ł
ë ľ
i r</w>
ìĤ¬ íļĮ
ëĵ± ìĿĦ</w>
s aid</w>
ê´ Ģ</w>
ë¬ ¸</w>
w ill</w>
¸ ëĭ¤</w>
a f
ë² Į
ë¡ ł</w>
ì ī
êµĲ ìľ¡
ì¹ ľ
ì° ¾
ê¶ Į</w>
ëĮĢ íĳľ
m an
ëĮĢ íķ´</w>
íķĦ ìļĶ
íĸ ī</w>
ëĤĺ ëĬĶ</w>
ê°Ģ ìŀ¥</w>
ìĸ ¼
a in
s om
pl e</w>
ì¡Į ëĭ¤</w>
ê¸° ìĹĲ</w>
ëĪ Ī
t ing</w>
ëĶ° ëĿ¼</w>
ë ¿
t e
ì¹ ¨
ëĦ ĺ
ìĹĨ ëĬĶ</w>
ê° ģ</w>
h e
m ore</w>
ìŀĲ ê°Ģ</w>
íĹ Ī
ìĿ µ
ê·¸ ëĬĶ</w>
ë¶ Ħ</w>
ìĿ´ íĽĦ</w>
ë² ķ</w>
ëłĪ ìĿ´
m ent</w>
íı Ń
ì¸ ¡
ëĲĺ ê³ł</w>
ìĦ ¸</w>
ë§ Ī</w>
ë³ ¸</w>
y e
p u
a d</w>
ì¼ Ģ
ìĭľ ê°Ħ
e v
ëŀ ĺ</w>
ìĺ ¨</w>
c an</w>
f e
ì§Ģ ë¥¼</w>
ìķ ½</w>
the ir</w>
ê²½ ìļ°</w>
ëĭ¤ ë©´</w>
g i
ì ¿
ì²ĺ ëŁ¼</w>
ê¸ ¸
ë¦¬ ê°Ģ</w>
ëł¥ ìĿĦ</w>
ì į
ëĤ ľ
es s</w>
ìĿ´ëĿ¼ ëĬĶ</w>
es t</w>
k e</w>
ìĿ´ ìĹĪëĭ¤</w>
ìĿ´ ë²Ī</w>
ìĵ °
g h</w>
ìĿ´ ê³ł</w>
ë¦ ¼
am e</w>
ê· ¼</w>
ur e</w>
ìĦ± ìĿĦ</w>
êµ Ĳ</w>
ìĹĨ ëĭ¤</w>
íŀ ĺ
a u
m ar
í į
ag e</w>
ëĿ ½
ì¦ Ī
ì§Ħ íĸī
ìŁ ģ
ëĨ ĵ
ou r
ìĦ ¼
ã Ĩ
ëĮĢ íĨµ
wh o</w>
ìĹ° êµ¬
re c
ìľ ¨
ìĦľ ëĬĶ</w>
ìĿ´ ë¥¼</w>
ëħ Ģ
g e</w>
ë§İ ìĿĢ</w>
ì¤ Ħ
ìł Ģ</w>
ic h</w>
ëħ ¼
íĥ Ħ
w n</w>
ìĥģ íĻ©
u p</w>
ê° Ŀ
ê² ¨
ê±° ëĤĺ</w>
ê¸° ê°Ģ</w>
en t
ë¹ ł
ê°Ģ ëĬĶ</w>
ì ª
ìĥģ ê¸°</w>
ëĦ ¤</w>
íģ ¬</w>
íķĺ ëĤĺ
ê ¼
ì§Ģ ê³ł</w>
ê·¸ ë¦¬ê³ł</w>
ëŀ ľ
ti c
ì§ Ī</w>
ì° ©
i f</w>
ab out</w>
ë° Ģ
ê·¸ëŁ¬ ëĤĺ</w>
ê· Ģ
ëĭ ¬</w>
ë¸ Ķ
as t</w>
ê ¾
ãħ ĭ</w>
ë¬ ¼</w>
íķĺ ë©´ìĦľ</w>
íı ¬</w>
l a
ìļ ¸</w>
ìĭ ¶
d ay</w>
ìŀĪ ìĹĪëĭ¤</w>
us t</w>
íĺ ¼
ìĺ¤ ëĬĶ</w>
íĿ ¬
ê³Ħ íļį
m in
ëĭ¤ ìĭľ</w>
ì¢ ħ</w>
an t</w>
ìĤ¬ ìĿ´
ìĹĨ ìĿ´</w>
th ere</w>
ìŀ ĺ</w>
it s</w>
ê²ł ëĭ¤</w>
d er</w>
ê³ ¨
k s</w>
ìĿ´ ëĤł</w>
íĬ¹ íŀĪ</w>
u s</w>
ëĬĶ ëĭ¤</w>
ëıĻ ìķĪ</w>
ë³ ´</w>
r e</w>
ìĭ ¤</w>
íģ °</w>
us e</w>
at ed</w>
ëŁ °
ìĽĲ ìĿĦ</w>
ìĬ¤ íĬ¸
ê²½ ìłľ
wh ich</w>
ìĥģ ìĿĦ</w>
ëł ¨</w>
ëŀ Ģ</w>
ìĤ¬ ëĬĶ</w>
ic e</w>
ìĿ´ ìĸ´
ìľ¼ ë©´</w>
ìłķ ìĿĦ</w>
ëĭ¤ ê°Ģ</w>
t y</w>
íĴ Ī</w>
ìĭľ ìŀ¥
w ere</w>
íģ ´
ac k</w>
ha d</w>
íĺ ¸</w>
ëĵ Ŀ
ë§ Ĳ</w>
ìĦľ ìļ¸
ëĭ µ
ìŀ Ħ</w>
ãĨ į
ì£ ½
. ..</w>
ìĥ ī
ë° ĺ</w>
b l
ìķ ¡
o ther</w>
en ce</w>
wh at</w>
m i
ëģ Ŀ
íİ ¸</w>
ab le</w>
re d</w>
ëı ¼</w>
ìĥ Ŀ</w>
ë¬¸ íĻĶ
ìŀĪ ìĹĪ
ì¤ Ģ</w>
ìľ µ
en ts</w>
íĪ¬ ìŀĲ
ê¸ ī</w>
d ed</w>
ìĤ¬ ìĭ¤
ìĦ± ìĿ´</w>
ëª¨ ëĳĲ</w>
ëª¨ ëĵł</w>
ê¸° ìĪł
ê¸° ë¡ľ</w>
ëĤ ¬
no w</w>
ìĹ Ħ
êµ °</w>
ak e</w>
d is
con t
s er
wh en</w>
ëĲĺ ìĸ´</w>
in e</w>
ìĦ ¤</w>
ì§ĢëĤľ íķ´</w>
ê° Ī
ì ĩ
ì² ľ</w>
ìĿ´ ìĸ´</w>
w i
íį ¼
w ould</w>
. âĢĿ</w>
ê° ĸ
ìĺ ¤</w>
m on
c re
ë¥´ ë©´</w>
ë Ń
ìĸ µ</w>
ar d</w>
d er
ëĭ¤ ìĸĳ
ne w</w>
ê·¸ ëłĩ
ìķĦëĭĪ ëĿ¼</w>
íĥ Ī
ë° ľ</w>
be en</w>
ìłķ ëıĦ
ì§ ķ
g u
a v
ìĦľ ë¹Ħ
g e
ìĦ¤ ëªħ
ì§ ģ</w>
ìĿ´ ìļ©
ìĦ¸ ê³Ħ
ê¸° ë¡Ŀ
ìķĦ ëĭ
ê¸° ëĬĶ</w>
k ing</w>
ìĻ ķ
ê²½ ìļ°
el y</w>
t u
ëĮĢíĨµ ëł¹
ìŀĲ ìĿĺ</w>
ëª¨ ìĬµ
ëĿ¼ ìĿ´
ë¡ľ ìļ´</w>
ìĺĪ ìłķ
s o
p ol
ìĹĲìĦľ ëıĦ</w>
ëĵ¤ ìĹĲê²Į</w>
ìļ° ë¦¬
ê°ľ ë°ľ
íĮ Ģ
ë¡ Ģ
r u
b i
ìĿ´ ìĹĲ</w>
ëĺĲ íķľ</w>
ëĤĺ íĥĢ
êµŃ ë¯¼
ìł ¸</w>
f in
ëĮĢ ìĥģ
ti ve</w>
ou gh</w>
g re
ti me</w>
ë´ ī
ìĤ¬ ê°Ģ</w>
ì£¼ ëĬĶ</w>
ëª °
li ke</w>
ìĺ ģ</w>
ëĲĺ ìĹĪëĭ¤</w>
ay s</w>
íĻĶ ë¥¼</w>
íĻ į
b ec
p r
ë§İ ìĿ´</w>
ìŀ ĺ
íķ Ļ</w>
ëĴ ¤
ìº Ĳ
ë¨ ¼
íĳ ľ</w>
ìĭľ ìĬ¤
e l</w>
íĥ Ģ</w>
n o</w>
ìĿ´ ëŁ°</w>
âĢ ¦
â Ĺ
com m
ìĤ° ìĹħ
ìĪĺ ëĬĶ</w>
ê·¸ ëŀ
on g</w>
ìļ´ ìĺģ
íĸĪ ëįĺ</w>
ë³ ¼</w>
al l
ì¶ ľ</w>
t e</w>
oun d</w>
ìĭľ ê°Ħ</w>
in ter
ëĶ° ë¥´ë©´</w>
ìĻ Ķëĭ¤</w>
ê´Ģ ëł¨</w>
ë¡ ¯
el l</w>
ëĭ ĺ
íĺĦ ìŀ¬</w>
ìĿ´ ìĥģ</w>
ìĿĺ ìĽĲ
ã Ĥ
i c</w>
ë£ Į</w>
ë° ĸ
fi r
íĺ ģ
ë¶ Ļ
k e
ìłķ ë³´
ë§Į íģ
ê ¿
ìĸ´ ìĦľ</w>
ê·¸ ëŀĺ
ar y</w>
al so</w>
m y</w>
ìł ¸
a in</w>
ìľ¼ ëĤĺ</w>
pe o
ì§Ģ ìĹŃ</w>
ìĽ ĥ
íķĻ ìĥĿ
d o</w>
ìµľ ê·¼</w>
ê¸Ī ìľµ
íĻľ ëıĻ
peo ple</w>
ë³´ ê³ł</w>
ë§Į ëĵ¤
ar s</w>
ìĬ¤ íĥĢ
ëł ¸ëĭ¤</w>
ìłĲ ìĿĦ</w>
it e</w>
êµŃ ê°Ģ
ë¦¬ ìķĦ</w>
ìĹ ¼
ìŀ ł
ê¸Ī ì§Ģ</w>
a m</w>
íıī ê°Ģ
ìĬ¤ ë¥¼</w>
ë¯ ¼</w>
ëŀ ĳ
ë¯¸ êµŃ</w>
i es</w>
st e
ê² ½</w>
ëĭ¤ìĸĳ íķľ</w>
ìĪĺ ê°Ģ</w>
ì¸ ł
f ac
ìłľ ê³µ
s ec
ë¶Ģ ë¶Ħ
ìħ ĺ
ìĹ °</w>
t w
an s</w>
ìłĦ ë¬¸
ë¯¼ ì£¼
ìŀ¬ ë°°
n i
íĴ į
h er</w>
ìĿ´ ìĹĪ
j o
ì½Ķ ë¡ľ
ou s</w>
íı Ĳ
th ing</w>
íı¬ íķ¨
ìŀ¥ ìĿ´</w>
c oun
ë¯¸ êµŃ
¨ ìĸ´
ëŁ ½
ëª ¨</w>
re n
o ff
ë¥ ł
s c
y our</w>
ê²½ ê¸°
ëĵ± ìĿĺ</w>
âĢ Ķ</w>
ìĿ´ ë©°</w>
ìļ° ë¦¬</w>
ë³´ ë©´</w>
ê´Ģê³Ħ ìŀĲëĬĶ</w>
ìĺ¬ íķ´</w>
ìŀĪ ìĸ´</w>
ìĬ ¬
ê² ©</w>
som e</w>
w s</w>
th an</w>
ìĿ´ ìķ¼
íĶ Ħ</w>
. .
ì´ Ŀ</w>
ìŀĲìĭł ìĿĺ</w>
ìŀĲ ë¥¼</w>
ë§Ī ìĿĮ
j ust</w>
at t
ï ¼
ì´ Ī</w>
ëĮĢ íķĻ
ol d</w>
íķľ ëĭ¤ëĬĶ</w>
íķ ĺ</w>
ëĤ´ ìļ©
ì§ ¸</w>
il e</w>
ëªħ ìĿ´</w>
w ay</w>
ìłĢ ìŀĳ
p h
ëıĮ ìķĦ
b r
íľ ´
ê¸ ´</w>
ìłĦ ìĹĲ</w>
ê¸ ¸</w>
ìŀĪ ëĭ¤ëĬĶ</w>
ë°ľ ìĥĿ
f u
ìĿ´ ìĥģ
ì² Ń</w>
ìłķ ì¹ĺ
ì¦ Ī</w>
ë° ķ</w>
ìĭľ íĤ¤
b er</w>
ë§Įíģ ¼</w>
ver y</w>
ì¿ ł
ìŀ¬ë°° íı¬</w>
ëĤ´ ê°Ģ</w>
p s</w>
ëĴ ¤</w>
ìłĦ ìŀ¬</w>
ê¸° ëĮĢ
sh o
ì° ¬
ìĿ´ ëŁ¬
ì¶Ķ ì§Ħ
ë¬´ ëĭ¨
íĽĦ ë³´
ìĻ Ķ
s el
pre s
ì¤ĳ ìļĶ
ìķĬ ê³ł</w>
ëģ ¼
ê³ ¡
ì°¸ ìĹ¬
ìĤ¬ëŀ ĳ
ì¦Ŀ ê°Ģ
ëŁ ī</w>
ê´Ģ ë¦¬
ëĦĪ ë¬´</w>
ã İ
as e</w>
ì¤ĳ êµŃ
ìĿ¸ ëĭ¤</w>
il l
ê¶Į ìŀĲ</w>
an d
ã ĥ
ìķ ķ
ê²ĥ ëıĦ</w>
ëį ķ
êµ ´
ìª ½
ë°Ķ ë¡ľ</w>
íĸĪ ê³ł</w>
ëĲĺ ìĹĪ
al i
sh e</w>
ec t</w>
í ĩ
ê¾ ¸
ë³ Ħ</w>
ëĸ ł
es s
ìĹ Ķ
an ce</w>
êµŃ ëĤ´</w>
an y</w>
ëĵ¤ ê³¼</w>
ê²½ ì°°
ìĹŃ ìĭľ</w>
ê°Ļ ìĿ´</w>
s y
ë¬´ëĭ¨ ìłĦìŀ¬</w>
ê²° ìłķ
n a
ëŀ Į
af ter</w>
g et</w>
ìľ ł</w>
ëª ¸
en ti
ìķĪ ìłĦ
ìłķ ì±ħ
ëł¥ ìĿ´</w>
ë° ©</w>
ìłĢìŀĳ ê¶ĮìŀĲ</w>
i r
in to</w>
es e</w>
ê´Ģ ëł¨
du c
ëĤ ¨</w>
ìĿ¼ ë³¸
ìĦ Ŀ</w>
ìĸ´ ìļĶ</w>
íĻķ ìĿ¸
c e
ìĤ¬ ìĿĺ</w>
ìŀĪ ìĿĦ</w>
ìĭ ¸
ê²° ê³¼
ëĭĪ ê¹Į</w>
ì¢ĭ ìĿĢ</w>
ìĥĪ ë¡ľìļ´</w>
ìĿ´ ìľł
ìĿĺ ë¥¼</w>
on s</w>
ìĭ ¬</w>
íĻĺ ê²½
or y</w>
k ed</w>
ëķĮë¬¸ ìĿ´ëĭ¤</w>
l l</w>
ëĵ± ìĿ´</w>
mo st</w>
ëıĦ ë¥¼</w>
ì¹ĺ ë¥¼</w>
st s</w>
ìĽĲ ìĿĺ</w>
ìĦľ ìļ¸</w>
ìŀħ ëĭĪëĭ¤</w>
ìĭľ ì¦
m a
ê³µ ê²©
fir st</w>
ìķ Ļ
ê°Ģ ìļ´
ìĪ Ļ
ing s</w>
ìħ ĺ</w>
the m</w>
ì² «</w>
ìĿ¸ ìĿ´</w>
d ec
ì½Ķë¡ľ ëĤĺ</w>
ìĸ´ëĸ ¤</w>
ìĭĿ ìĿĦ</w>
ë² ¤
ìĥĿ íĻľ
ìĭľ ëĬĶ</w>
) .</w>
ëģ Į
ê³ µ</w>
ìĸ´ ëł¤
ê ½
ëĿ¼ ëıĦ</w>
ëĵ ¯</w>
ì Į
ìł ĳ</w>
ìĪ ł</w>
ìľĦ ë¥¼</w>
íĺ ¹
íķĻ êµĲ
p p
m il
ëĲĺ ì§Ģ</w>
for m
íĴ Ģ
ìĤ¼ ìĦ±
ìķĬ ìĿĢ</w>
c ol
ë¿ Ĳ
s k
ëªħ ìĿĦ</w>
ì³ Ĳ
c or
oo d</w>
s ti
g en
íķľ íİ¸</w>
ìĦľ ëıĦ</w>
ëĭ¹ ìĭľ</w>
ìĭľ ìŀ¥</w>
ê¸° ê´Ģ
ìŀĪ ëıĦë¡Ŀ</w>
ëĥ Ĳ</w>
' t</w>
ìĪĺ ì¤Ģ
ìķĮ ëł¤
ëĤ¬ ëĭ¤</w>
ëıĦ ìĭľ
t ur
tion al</w>
ë°ľ íĳľ
ë°© ìĨ¡
ì¤ Ħ</w>
âĢ ĵ</w>
íļ¨ ê³¼
ìĿ¸ ìĿĺ</w>
ì§Ģ ê°Ģ</w>
ì¤ĳ êµŃ</w>
ì§Ģ ê¸Ī
íĿ ¥
ëĨ Ģ
ê·¸ ë£
ì½ ĺ
íĨ µ</w>
ìłľ íĴĪ
at es</w>
a tions</w>
ìĸµ ìĽĲ</w>
d es
ëĤ ®
ëªħ ìĿĺ</w>
ëı Ī
íĺĦ ëĮĢ
ëĸ ¨ìĸ´
ìĹ Ķ</w>
ho w</w>
o ver</w>
ìĸ »
ìĹĲ ê²Į
íĩ ´
íĸĪ ëĭ¤ê³ł</w>
ê¹ Ģ</w>
ëĺĲ ëĬĶ</w>
íĶ¼ íķ´
lo o
u e</w>
íĶĦë¡ľ ê·¸ëŀ
ìĶ¨ ëĬĶ</w>
ì§Ģ ëıĦ</w>
en d</w>
ìĻ ¸</w>
a use</w>
íļĮ ë¥¼</w>
ìľ ¤
íĮĲ ë§¤
ê° Ī</w>
ë° Ķ</w>
o c
ëħ Ĳ
ëĵľ ëĬĶ</w>
ìĿĺ ë¯¸
êµ¬ ìĦ±
ì³ Ĳ</w>
ë³´ ìĹ¬
ìĬ Ī
íķ µ
- -
ì¡° ìĤ¬
ë§Ī ëł¨
tw o</w>
on ly</w>
m an</w>
ë£ ¨</w>
ìĭľ ìĹĲ</w>
íķ© ëĭĪëĭ¤</w>
f f</w>
ì§Ģ ë°©
ëĮĢ ë¥¼</w>
ìĸ ĳ</w>
ìĺ ¬</w>
ìĿ¸ íĦ°
íķ ©</w>
ad e</w>
ìĿ´ ì§Ģ</w>
ê³¼ ìłķ
ë¶Ģ ëĬĶ</w>
íĽ Ī
ìķ Ķ
ëį ĺ
ê°Ģìļ´ ëį°</w>
ê¸° ìĹħ</w>
ìļ ±</w>
al s</w>
ìĺģ íĸ¥
is t</w>
po s
ye ar</w>
ìĥģ íĥľ
ìĤ¬ ìĹħ</w>
âĸ ³</w>
ëĵ ł
re e</w>
or s</w>
ac e</w>
cl u
ìĪĺ ë¥¼</w>
ë¬¼ ë¡ł</w>
ëĨĴ ìĿĢ</w>
ìŀĪ ê³ł</w>
ë³´ ìĿ¸ëĭ¤</w>
ê¸ ´
i g
ìĭľ ë¯¼
ê·¸ ìĿĺ</w>
ì§ ĳ</w>
ê·¸ ëŁ°</w>
ê° ĳ
an g
ìĺĪìłķ ìĿ´ëĭ¤</w>
ìĿ´ëĿ¼ ë©°</w>
ìī ½
ìĽĲ ìĿ´</w>
ê°Ģ ì§Ģ</w>
ëī´ ìĬ¤</w>
ìĪĺ ëıĦ</w>
, âĢĿ</w>
ë¦ ´</w>
íĻ Ī
ìĦ± ê³µ
ë¸ Į</w>
ëĤĺ ëĿ¼
e d
ìĸ´ëĸ »
ì¸ µ
ì¤ĳ ìĭ¬
íĮ Ķ
ìķĬ ìķĺëĭ¤</w>
ìĬ¤ ëĬĶ</w>
íķĻ êµĲ</w>
ëıĦ ê°Ģ</w>
íķľ ëĭ¤ê³ł</w>
ë°ĸ ìĹĲ</w>
ìŀĲ ëıĻ
ê°Ģ ê²©
n ing</w>
ì½Ķ ë¦¬ìķĦ</w>
ê²½ ìŁģ
ëľ »
ëĳ ĺ
íĻľ ìļ©
íĸĪ ì§Ģë§Į</w>
% )</w>
ê°ķ ì¡°
ìŀ ħ</w>
ìļ ķ
ì¤Ģ ë¹Ħ
ëł ¹</w>
ê·ľ ëª¨
si on</w>
v es</w>
ì¡ ´</w>
ìį ¨</w>
ë°Ľ ìĿĢ</w>
ìĦ¸ ê³Ħ</w>
íĭ Ģ
ë¥ ¸
ãħĭãħĭãħĭãħĭ ãħĭãħĭãħĭãħĭ
ìĺ¤ íĽĦ</w>
ìĬ ¹</w>
ì£ Ħ
ìŀ ĳ</w>
íķ´ ëıĦ</w>
ë°© ë²ķ
? "</w>
ìĭľìĬ¤ íħ
v ed</w>
f l
ë§ ¤</w>
ìłľ ë¡ľ</w>
íķĺ ìĺĢëĭ¤</w>
íķ´ ìĦľëĬĶ</w>
ëĬĶ ì§Ģ</w>
ìłĦ ë§Ŀ
ê±° ëŀĺ
ìĥĿ ìĤ°
o b
ì§ģ ìłĳ</w>
ê°Ĳ ëıħ
ì» ¨
s s</w>
ìĭľ ì¼
ëį° ìĿ´
ì§Ħ ëĭ¤</w>
ìĿ´ ë¦Ħ
ë¥´ ëĬĶ</w>
íķľ êµŃ</w>
be t
v ing</w>
êµŃ ìłľ
ì§ ľ</w>
ìĿ´ ë¯¸</w>
íĺ ľ
ë² Į</w>
ì¹ĺ ëĬĶ</w>
ì³ ¤
ëĳĲ ê³ł</w>
ê³µ ê°ľ
ti es</w>
ìĨĮ ë¹Ħ
ë Ľ
íĺ Ħ</w>
ëŀ µ
íĹ ¤
ë¶Ģ ë¥¼</w>
ê¸° ì¤Ģ
re s</w>
ë°ľ ìłĦ
ë ·
ë°Ľ ê³ł</w>
c ould</w>
s on</w>
th ese</w>
ìĦł ìĿĦ</w>
ti m
ìķĬ ëĬĶ</w>
ìķĬ ìķĺ
ë¶Ħ ìĦĿ
ì£¼ ìŀ¥
ìĿ¼ ìĿĦ</w>
ê´Ģ ìĭ¬
ê·¸ ëŁ°
com p
th o
m u
ë¦ Ń
ìĹ ĩ
ìĦ± ìŀ¥
ìļĶ êµ¬
ev en</w>
ìĿĢ íĸī
v e
ìµľ ê³ł
ì´ ī
ë³ ¼
ì§Ģ ìłģ
ë§Į ìĹĲ</w>
a il
ìŀĲ ë¦¬
ìļ´ ëıĻ
ê± ¸</w>
b le</w>
ëĤĺ ìĺ¤
ãħĭ ãħĭ</w>
ë¬¼ ìĿĦ</w>
ìĹħ ì²´
ë¬¸ ìĿĦ</w>
íĥ ģ
ìĿ¼ ë³¸</w>
bec ause</w>
u c
íĹ Į
ìķĪ ìĿĦ</w>
ìĽ Į</w>
ìĿ´ ëłĩ
íĬ¹ ë³Ħ
ìĿ¸ ìĿĦ</w>
ìĽĲ ìĿĢ</w>
as s
íĬ¸ ë¥¼</w>
ë§ Ľ
íķ Ń</w>
ì¢ Į
ìĿ´ ëĿ¼</w>
wh ere</w>
d on</w>
ìŀĲ ì²´
ê²° êµŃ</w>
ëĭ¤ ìĿĮ
Ģ ë¡ľ</w>
lo c
ìĿ¼ ìĿ´</w>
ëĵľ ëŁ¬
i on</w>
ê° ķ</w>
ìĦł ê±°
ë¶ ģ</w>
ì£¼ ë¯¼
ti c</w>
ë§Į ìĽĲ</w>
pl ay
ìĸ´ëĸ» ê²Į</w>
ìĥģ ëĮĢ
h el
ìķĦ ë¬´
íĨµ ìĭł
âĸ ²</w>
in t
som e
ìĿ¸ ê°Ħ
ìĶ ¨</w>
ë ¤
ìĤ¬ ê±´
f r
ì ģ
ìĽĲ ìľ¼ë¡ľ</w>
ì¦ Ĳ
ëĽ °
ëł ¸
ìĦł ìĪĺ
ëŀ Ĳ
ìĥģ ìĬ¹
âĢ Ļ
ë§ ¡
f t</w>
su p
ac h</w>
man y</w>
ë¦¬ ìĬ¤
b er
ëŁ ¼
m s</w>
n ed</w>
íĮ Ĳ</w>
b ack</w>
d ent</w>
ëĥ Ĳ
ëįĶ ìļ±</w>
ë° °</w>
ëĵ ¯
ê²½ ê¸°</w>
ê²Į ìŀĦ
Â ©</w>
ì°¾ ìķĦ
ê·¸ ëħĢ
ì¹ ľ</w>
ë¥ ĺ</w>
ìĿ¸ ìĿĢ</w>
ëħ¸ ëıĻ
ìĿ´ ë©Ķ
ëĦ Ĳ
t t
ìĺĪ ìĥģ
ìī ¬
ê³ł ê°Ŀ
ìŀĪ ëĭ¤ê³ł</w>
ìĻ ľ</w>
ìĿ´ ê°Ģ</w>
ì¢ĭ ìķĦ
ìĽĲ ìĹĲ</w>
ê¹ ¨
â Ĩ
em ent</w>
ì§Ģ ìĨį
ìĪ ¨
ì± ħ</w>
st u
ì½ Ķ</w>
ìĭľ ìĦ¤
ë§Ĳ ìĿĦ</w>
ë³´ ëĬĶ</w>
ê¸Ī ìĿĦ</w>
b el
ìŀĲ ìľł
t ri
p ri
ëĭ¤ ë§Į</w>
ìĿ¸ ëį°</w>
hi m</w>
ëĲĺ ë©´</w>
am er
wor k</w>
ëĶ° ëĿ¼
íħ Ĳ
en c
ìµľ ëĮĢ</w>
ëĬ Ĳ</w>
ìŀĪ ìľ¼ë©°</w>
ë§ Īëĭ¤</w>
íķĺ ëł¤
ëĬ ĺ</w>
íļĮ ìĿĺ
íĭ °</w>
lo w
ìłģ ìļ©
ê´ ´
c ri
th en</w>
ëıĦ ë¡ľ</w>
ê°ķ íĻĶ
c ar
ic al</w>
ìľĦ ìĹĲ</w>
íķĺ ê²ł
ì± Ħ</w>
sh i
ì¸ µ</w>
wh ile</w>
m is
st ar
ìĹ¬ ëŁ¬</w>
ì£¼ ìĿĺ
ëĮĢ ë¹Ħ</w>
íĮ ¬
ì¡´ ìŀ¬
ë¦° ëĭ¤</w>
ye ars</w>
ê¶ ģ
ëĥ Īëĭ¤</w>
v o
ëĲ ľ
ìĦł íĥĿ
ìľł ì§Ģ
ë¡ľ ëĬĶ</w>
ì¢ Ģ</w>
ì£¼ ìĿĺ</w>
° ëĭ¤</w>
ëĵ± ìŀ¥
ëĵ¤ ëıĦ</w>
ê°Ģ ì§Ģ
ìĬ¤ ê°Ģ</w>
ìĿ´ë©Ķ ìĿ¼</w>
ì²ĺ ìĿĮ
ìŀĲ ê¸°</w>
c u
ëĬ ¥</w>
in k</w>
íģ¬ ê²Į</w>
sp ec
ëĵ± ìĹĲ</w>
ëĶ° ë¥¸</w>
ìĥģ íĴĪ
ìķĦ ë²Ħ
íķĺ ëĬĶëį°</w>
ìŀ¥ ìĿĺ</w>
ì¤ĳ ìķĻ
ê³¼ ìĿĺ</w>
êµ¬ ì¡°
íıī ê·
ê¸Ģ ë¡ľ
íľ ĺ
ë² ½
ì§Ħ ì§ľ</w>
at ing</w>
íĹ ĺ</w>
a re
ìĺģ íĻĶ
s ch
p i
ë§ ī</w>
ê°Ģ ì¡±
ìĭľì¦ Į</w>
th r
ë³´ ê³ł
, "</w>
s ur
ë¶Ģ ìĤ°
c an
ê º
ì§ ľ
ë§¤ ìļ°</w>
w ell</w>
ë§ ģ
ìĿ´ëŁ¬ íķľ</w>
ìĬ¤ ìĿĺ</w>
ìĸ´ ëĬĲ</w>
ì ı
ì§Ģ ìĽĲ</w>
m ake</w>
ìłĦ íŀĪ</w>
ë§Ī ì§Ģ
ic i
ë¯ Ģë¡ľ</w>
ìłľ ë¥¼</w>
ìłľ ê°Ģ</w>
c r
ìĦ¸ ë¥¼</w>
ìĹŃ íķł
ëŀ ĳ</w>
por t</w>
ë°Ķ ìĿ´
ìĽ ¨
íĤ ¤</w>
ìķĦ ëĭĪëĭ¤</w>
ë ®
t ly</w>
ê±´ ê°ķ
ë¡ Ń
ìĸ´ ìķ¼</w>
ìĿĮ ìĿĦ</w>
ë´ Ĳ
ê³Ħíļį ìĿ´ëĭ¤</w>
us ed</w>
ìĿ´ëłĩ ê²Į</w>
íİĺ ìĿ´
ê´Ģ ê´ĳ
ê²° ê³¼</w>
ìĦ¤ëªħ íĸĪëĭ¤</w>
ìĿ´ íķ´
ëĶ Ķ</w>
ìĿ¸ ìłķ
ê°Ĳ ìĿĦ</w>
ìķĦëĭ Į</w>
ì¼Ģ ìĿ´
ë¹ ¨
ë¸Į ëŀľ
vi e
ëľ ¨
ìłķ ë¶Ģ</w>
ìķĦ íĮĮ
ì¦ Ŀ</w>
ìŀ Ķ
ëĵ¤ ìĸ´</w>
íĺ Ĳ
ìĿ´ ëŀĢ</w>
íķĺ ê²łëĭ¤</w>
ë°Ľ ìķĦ
d y</w>
ê±´ ìĦ¤
g o</w>
wor ld</w>
ìĿ¼ ë¶ĢíĦ°</w>
ì£¼ ìļĶ</w>
ê²½ ìĺģ
íĮ Į</w>
b as
íĺ Ģ</w>
ì¸ ł</w>
ìĽĢ ìĿĦ</w>
ìĨ Ķ
ìĤ¬ëŀĮ ìĿ´</w>
ì£ ł</w>
ch ar
ìĬ¤ ë§Ī
ìĹ¬ ìĦ±
m ay</w>
íĻ ĺ</w>
d re
v el
ì¶Ķ ê°Ģ
ë¦ Ħ</w>
ìĩ ¼
ìĨ ¡</w>
ëĭ¨ ì²´
m at
ë¬´ ìĹĩ
st ate</w>
ëıĦ ëĬĶ</w>
ëĮĢ íķľ
for e</w>
ìĸ´ ëĤĺ
un i
c ur
ëĦ £
ê² ¼
ìľ¼ë¡ľ ëĬĶ</w>
ëł Į
ê±° ìĿĺ</w>
ì±ħ ìŀĦ
ri ght</w>
. ]</w>
ê° Ĳ</w>
ìķĦ ìĭľ
t ure</w>
ê³µ ëıĻ
oo k</w>
se e</w>
s en
ìĽ ł
ìŀĳ íĴĪ
íĳ ¸
ëĵľ ë¥¼</w>
be ing</w>
l ast</w>
ìĥģ ëĭ¹
ìŀ¥ ìĹĲìĦľ</w>
ë´ ¤
ëĥ ¥</w>
ìłķ ëıĦ</w>
p e</w>
ëª¨ ëį
po in
tho se</w>
íĶĦ ë¦¬
s ol
ë°© ìĭĿ
ìĭľ íĤ
ìĿ¼ ë°ĺ
ìľ ¡</w>
ê¸° ëĬ¥
we e
ìłģ ìĿ´</w>
el l
ìĦ¸ ìļĶ</w>
ìłĦ ìĿĦ</w>
go ver
ë¹Ħ ë¡¯
ë¡ľ ë¶ĢíĦ°</w>
v is
ì¹ ´</w>
d d
om e</w>
ëĮĢ ìĿĺ</w>
ìŀĪ ì§Ģë§Į</w>
ë¹ Į
ãħ ł
íħ Ķ
i z
ìĺ ¥
ìĿ¼ ë¶Ģ</w>
ë ļ
ëª¨ìĬµ ìĿĦ</w>
en g
ë¯¸ ëŀĺ
ê°ģ ê°ģ</w>
ìĬ¤ íĬ¸</w>
ìĶ ©</w>
ìĺģ ìĹħ
ìŀĲ ìĹ°
ìĭ Ń
lo w</w>
w ar
m em
ëĬĲ ëĤ
at er</w>
di ff
p a
ëĤĺ ê°Ģ
in clu
ìĹ ĺ
ìłķ íķľ</w>
íĶĦë¡ľê·¸ëŀ ¨
ì§Ģ ìĹĲ</w>
ê³Ħ ìķ½
ìĻ¸ êµŃ
ê³µ ê°Ĳ
ëĤ´ ëĬĶ</w>
ë²Ī ì§¸</w>
ìĥ Ī</w>
íķ´ ëĭ¹</w>
ë¶ģ íķľ
íİ ¼
w r
ìĿ´ ìłľ</w>
ë¶Ħ ìķ¼
. <</w>
ìĭ¤ ìĭľ
e ar
so ci
ìĹĲ ìĦł</w>
ë¤ Ħ
ìŀĪ ìĸ´ìĦľ</w>
ê±° ë¦¬
ì¡ ±</w>
íĿ Ĳ
ìĿ¼ ê¹Įì§Ģ</w>
st er</w>
ìĿ´ ë£¨
amer ic
sel f</w>
ëĤ ©
íķĺ ê±°ëĤĺ</w>
ê³¼ íķĻ
gover n
ëĮĢ ìĹĲ</w>
ê¶Į ìĿĦ</w>
íĮĲ ëĭ¨
ë°Ľ ìķĺëĭ¤</w>
ìĦ¼ íĦ°
ë¨¸ ëĭĪ
ìŀĪ ê²Į</w>
íķ ¨</w>
ê° Ķëĭ¤</w>
j u
ê°Ļ ëĭ¤</w>
ë¨¼ ìłĢ</w>
ìķĬ ëĬĶëĭ¤</w>
íĮ Ģ</w>
ê·¸ëŀĺ ìĦľ</w>
íĨ ł</w>
ë£Į ë¥¼</w>
ì¹ľ êµ¬
b s</w>
ac k
t ec
ê´Ģ íķľ</w>
ëł µ
ìĤ¬ ìĹĲ</w>
wi th
íķĺ ëĤĺ</w>
ì§ ĵ
h ere</w>
ëª ĩ</w>
i d
si g
ìĺ¤ ìłĦ</w>
ì¤ĳ ìĹĲ</w>
ì§Ģ ìĿĺ</w>
it ed</w>
ìĹĨ ìĹĪëĭ¤</w>
ìłķ ìĭł
ìĤ¬ ê³ł
in v
ëª »</w>
ê°Ģ ì§Ģê³ł</w>
ëĮĢ êµ¬
ì£¼ íĥĿ
ê²½ íĹĺ
íĸī ìłķ
ëª© íĳľ
ëĤ ¸</w>
ê¸° ê°Ħ
íķĺ ìŀĲ</w>
ëĿ¼ ë©°</w>
p en
re ad
ëĮĢìĥģ ìľ¼ë¡ľ</w>
mu ch</w>
íķĺ ëĬĶ
c er
ë³´ íĹĺ
ìĿĺ ê²¬
ak ing</w>
y ing</w>
ì§Ģ ê¸Ī</w>
êµŃ ëĤ´
ìĥģ ìĿ´</w>
ë©Ķ ìĿ´
ê³ł ëł¤
ìķŀ ìĦľ</w>
ê¸° ì¤Ģ</w>
ìĿ´ ì§Ģë§Į</w>
íķ´ ê²°
ë§Į ëĵ¤ìĸ´
ì° į
ìĤ ¶
ìķĪ ìĹĲ</w>
ëĵľ ëĿ¼
ëĭ¤ ìĿĮ</w>
ìĺ¬ ëĿ¼
ìł Ī</w>
ìĹĲ ëĦĪ
ëı ¼
ìĬ ¨</w>
ê¿ Ī
be fore</w>
íķ´ ì£¼
ìĬ¤ ë¡ľ</w>
ê·¸ëłĩ ê²Į</w>
íļĮ ìĿĺ</w>
ê¸° ê°Ħ</w>
ìłľ ìŀĳ
ìłĦ ëŀµ
ëħ ¸</w>
ãĢ Į</w>
ìĿ¸ ì§Ģ</w>
ìĦľ ë¥¼</w>
íĶ ¼</w>
ë¹ Ī
ë§ ¥
ê³Ħ ìĨį</w>
ë¶Ģ ê°Ģ</w>
ìĿ´ ìĻĢ</w>
íĶĮ ëłĪìĿ´
e i
ìŀ¥ ê´Ģ
ì ©
por t
íķĺ ëįĺ</w>
ê°Ģ ë¥¼</w>
ìĿ´ ë²Ī
ëĵ± ìľ¼ë¡ľ</w>
ìĿ¸ íķ´</w>
ê· ľ</w>
ìļ° ëł¤
b ro
ë³´ íĺ¸
g g
ê¸° ì¡´</w>
íĻķ ë³´
an c
do wn</w>
ìľ ¨</w>
ìŀĲ ë¡ľ</w>
ë³Ģ íĻĶ
ëĵ £
% ,</w>
íĥ ķ
ê³µ ê¸ī
â ĳ
ë¡ Ģ</w>
@ (</w>
ë°© ë¬¸
ê°ľ ìĦł
ìĦ¤ ì¹ĺ
íķĦìļĶ íķľ</w>
ìŀĲ ëĵ¤ìĿ´</w>
ë ĩ
íĺ Ī
c ap
ìłĦ íĸĪëĭ¤</w>
ser v
íĥ Ŀ</w>
ìĻĢ ìĿĺ</w>
f e</w>
íļĮ ëĬĶ</w>
ë¹ Ľ
tr y</w>
go ing</w>
ac h
ìŀĪ ëĬĶëį°</w>
ê¸Ģë¡ľ ë²Į</w>
t v</w>
ë¹Ħ íķ´</w>
_ _
su b
ê°ľ ìĿĺ</w>
ou s
ìħ Ķ
ìłĲ ìĿ´</w>
g ame</w>
ë§ŀ ì¶
ëĭ ĺ</w>
íļĮ ê°Ģ</w>
ê¸° ìĿĺ</w>
g y</w>
ë¥ ´</w>
f ol
ì¹ Ń
k now</w>
ìĹħ ë¬´
íķ ĳ
íĻķ ëĮĢ
c our
ìĸ ĺ
êµĲ íĨµ
ä ¸
t a
ê°Ĳ ìĤ¬
ëĤ´ ëł¤
ê¸° ë³¸
h ar
su ch</w>
ìĦľë¹Ħ ìĬ¤</w>
ë² Ħ</w>
ìĪĺ ìĿĺ</w>
ìĤ¬ ë¬´
ì¤Ģ ëĭ¤</w>
ë¦ ½</w>
ì°¨ ì§Ģ
ëĮĢ íĳľ</w>
ìĭł ì²Ń
ìĸ´ ëıĦ</w>
ìĺ¨ ëĭ¤</w>
an s
ê° Ķ
ëħ¸ ëł¥
ì° °</w>
si de</w>
ìĭ ±
ë® ¤
íĿ Ķ
is h
ìĦ¼ íĦ°</w>
ê²Ģ ì°°
íĺĦ ìĭ¤
ìĹ¬ ê¸°
ëħ ¹
thr ough</w>
ì¡° ì§ģ
ìĥ ī</w>
ìłķ ìĥģ
íı¬ ìĿ¸
fu l</w>
ìŀ¥ ìĹĲ</w>
ê°Ĳ ìĨĮ
u m</w>
st ed</w>
ëĭ¨ ê³Ħ
êµŃ ìĿĺ</w>
ol o
ìº ł
ìĿ´ ë¤Ħ
ìĪĺ ìĿµ
íİ Ģ
pl e
ìŀĪ ëįĺ</w>
ìķĦ ì§ģ</w>
ac t</w>
ëĤ Ļ
íķĺ ëıĦë¡Ŀ</w>
m ade</w>
ê·¸ëŁ° ëį°</w>
ìĸ¸ ë¡ł</w>
ë¶Ģ ëĭ´
ìĦł ìłķ
i e
sh ould</w>
ê°ľ ë°ľ</w>
ìĭľ íĸī
f un
ë¥´ ê²Į</w>
ë°Ľ ìĿĦ</w>
ëĶĶ ìŀĲ
ìĿ´ ê¸°</w>
as on</w>
ë¯ ¿
th ink</w>
ê³µ ê°Ħ
ìºĲ ë¦Ń
ê³ł ëĬĶ</w>
ê·¸ ëĥ¥</w>
ë°Ľ ëĬĶ</w>
ìľĦ ì¹ĺ
íķĺ ìĺĢ
f o
ê°ķì¡° íĸĪëĭ¤</w>
w er</w>
ìłķ ìĿ´</w>
íĮ ħ
ìĽĲ ìĹĲìĦľ</w>
ìĿ´ ëıĻ
íĸĪ ëĭ¤ëĬĶ</w>
ëŃ Ĳ
ë¦ ¼</w>
í Ģ
s m
ì³¤ ëĭ¤</w>
ìķ Į</w>
in ce</w>
p t</w>
ë ¢
ëĪĦ êµ¬
íķĺ ê¸°ë¡ľ</w>
ìĤ´ ìķĦ
ëı ħ</w>
íĦ ´
ì£¼ ë¡ľ</w>
ë ½
ìłķëıĦ ë¡ľ</w>
ì² ł</w>
ì¡° ìĦł
ë³ µ</w>
an ge</w>
ì¹ ¼
ìķŀ ìľ¼ë¡ľ</w>
l ed</w>
ìĬ¤ íı¬
ì§Ģ ëĤĺ
ëħĦ ìĹĲ</w>
ìĨĮ ë¦¬
is h</w>
ìĿĺ íķ´</w>
ìĸ¼ êµ´
ì°¨ ë¥¼</w>
t re
íĳľ íĺĦ
ì¹ Ļ
ìłķ ë§Ĳ</w>
ëıĦ ìĿĺ</w>
sti ll</w>
ìĭľìĬ¤íħ ľ
ë³´ ëĭĪ</w>
ë³ ĳ</w>
ì§ĢëĤľ ëĭ¬</w>
ìĨĮ ë¥¼</w>
ê¹ Ĭ
g ood</w>
ë§ ¨
ìª ½</w>
ì§ĳ ì¤ĳ
l g
n s</w>
d ur
ëĭ ¥
n or
d ic
ì» ´
ìĿĺ ë£Į
ê°ľ ìĿ¸
ë§ ¹
ë¥ ł</w>
ìĤ¬ ìĻĢ</w>
pre si
ìĹħ ìĿĦ</w>
ëĨĵ ê³ł</w>
ëĮĢ ê°Ģ</w>
il y</w>
ou t
ëª ©</w>
c le
b re
ìłĦ êµŃ</w>
l ine</w>
ìĿ´ ìĿµ
ìľĦ íĹĺ
íķŃ ê³µ
' ,</w>
ìĺ¤ ëĬĺ
ìĿĢ íĸī</w>
o ff</w>
ë² ¨
i a</w>
ëĭ ´</w>
íĥ ľ</w>
ìłĦ ì²´</w>
êµĲ ìľ¡</w>
ì¶Ķ ê°Ģ</w>
um p</w>
ìĸ´ ëłµ
pro b
ìĿ¸ ì²ľ
ìŀĲ ìĻĢ</w>
l in
ê´ĳ ì£¼
íıīê· ł</w>
d n</w>
com e</w>
ìĦľ ë¡ľ</w>
f ul
di d</w>
ë©´ ìĦľëıĦ</w>
le g
ag ain
ìĬ¤ íĨł
ì¹ĺ ê³ł</w>
ìłĲ ìĹĲìĦľ</w>
again st</w>
íķĺ ê¸°ëıĦ</w>
is e</w>
ê» ĺ
ëĦ Ī</w>
ë¬¸ìłľ ê°Ģ</w>
ëħĦ ê°Ħ</w>
ìłģ ìĿĦ</w>
ìŀ ĩ
ê³µ ê³µ
ë¶Ģ ìĹĲ</w>
ì½ ľ
i d</w>
ë°Ķ ëŀĮ
ìĭľ ë¦¬
ê· ¹</w>
ê·¸ ê°Ģ</w>
it t
ë²ł ìĿ´
íĻķ ì§Ħ
íĸĪ ëĬĶëį°</w>
âĨ Ĵ</w>
ìĬ¤ ëŁ¬
ìĥģ ìĿĺ</w>
l ess</w>
ìĹ´ ë¦°</w>
ìłľ ëĮĢë¡ľ</w>
ìĬ¤ íĤ
ë¶Ģ ì¡±
na tional</w>
ë¶Ħ ìľĦ
êº ¼
ìĹĨ ìĹĪ
on d</w>
ëĮĢíĳľ ëĬĶ</w>
t or</w>
ë§¤ ì¶ľ
t ake</w>
ìłĦ ì²´
ê²½ ìłľ</w>
ì¼ ľ
ì¤ĳìļĶ íķľ</w>
ë¹Ħ êµĲ
ëª¨ëį ¸
ìľ¼ ëĭĪ</w>
c all
íĻ ©</w>
ì£¼ ê³ł</w>
ì¢ħ íķ©
ë¿ Ĳ</w>
ê°ĢëĬ¥ íķľ</w>
ê°Ģ ê¹Į
ìłľ ìĭľ
ìĿ ½
ë³´ ìĺĢëĭ¤</w>
ìľĦìĽĲ íļĮ</w>
ì² Ļ
govern ment</w>
gr ou
ëĲĺ ë©´ìĦľ</w>
ti v
ë¹Ħ íĮĲ
ë¶Ģ ëª¨
ì¦ ī</w>
íĺĦ ìŀ¬
ìĤ¬ ì§Ħ
ëĮĢ ìĿĳ
ë°Ľ ìķĦ</w>
th er
ëĤ´ ê³ł</w>
ëĭ¬ ëŁ¬
d r
ëª ¬
íĨµ íķ©
f er
ë¥´ ê³ł</w>
íĮ ħ</w>
ê¸° ìŀĲ
ëĬĺ ìĸ´
ê· ł
ìĦ± ê³¼</w>
c en
st ory</w>
ìĸ¼ ë§Ī
ê°ľ ë¥¼</w>
gen er
pro duc
ë³´ ëĭ¤ëĬĶ</w>
ìĿ¸ ê°Ģ</w>
ìĿ¸íĦ° ëĦ
ê°ĢëĬ¥ ìĦ±ìĿ´</w>
ëĦ¤ ìļĶ</w>
ìļ° ë¦¬ëĬĶ</w>
ìķĪ ìłķ
ìĬ¤ íĦ°
pu bl
n um
ë³µ ì§Ģ
ë¡ľ ìĦľ</w>
ver s
ìĸ´ ë¦°
íĺĳ ëł¥
li on</w>
ìĺĪ ìĤ°
ë¶Ģ ëıĻ
ìĺģíĸ¥ ìĿĦ</w>
íĿ ¡
ãĢ į</w>
ê°ľ ìµľ
ì¡ ¸
ê²Į ìŀĦ</w>
ì» ¬
ëįĶ ëĿ¼ëıĦ</w>
ëĭ¬ ëŁ¬</w>
w ant</w>
ë°© íĸ¥
ì¤ĳ ìĨĮ
ìĤ¬ìĹħ ìĿĦ</w>
ìĬ¤ë§Ī íĬ¸
f ri
ìĺ Ī</w>
w in
íķĺ ìĿ´
l and</w>
we en</w>
il ity</w>
ì¡° ìĤ¬</w>
ë³Ħ ë¡ľ</w>
k no
ic k</w>
ìłľ ìĻ¸
íĸī ë³µ
ë¹Ħ ë¥¼</w>
t al
ìĤ ´</w>
ìķ ī
íļĮ ìĹĲìĦľ</w>
ëĵ Ŀ</w>
ìĿ´ ìŀĲ</w>
ì¤ĳ ìĿ´ëĭ¤</w>
ë§ Ŀ</w>
u p
ìķĮ ê³ł</w>
c c
re sp
w om
ê°ĸ ê³ł</w>
diff er
as s</w>
ìŀĲìĭł ìĿ´</w>
ê¸° ìĪł</w>
ìķĬ ìĿĦ</w>
ì¶ ķ</w>
ë°ĺ ë©´</w>
ë¶Ģ ìĿĺ</w>
c lo
íĸ ¥</w>
ìľ¼ë¡ľ ìį¨</w>
ëį §
ê°Ģ ê°Ģ</w>
l ar
ìĿ¼ ìĹĲ</w>
ëıĻ ìĭľìĹĲ</w>
ì£¼ ìĿ¸
un der
íļ į</w>
ìĸ´ ëĶĶ
ë°ľ ê²¬
s ays</w>
an n
ê³Ħ ë¥¼</w>
ê² ¨</w>
ë¹Ħ ìĬ
ìĽĢ ì§ģ
de f
ì² ĺ</w>
ìĺĪ ìĪł
ëķĮ ëĬĶ</w>
ë ±
ìŀĲ ëĵ¤ìĿĺ</w>
ìĿ´ íĽĦ
an t
me di
ë¦¬ ê·¸</w>
ãĢ İ</w>
bet ween</w>
íĸĪ ìľ¼ë©°</w>
ëĭ¹ ìĭł
d el
íı °
ê·¸ë£ ¹
th ree</w>
ìĹŃíķł ìĿĦ</w>
bu il
ê³ ¡</w>
ì§Ģ ì§Ģ</w>
ë »
ã Ħ
ì²ĺ ë¦¬
ëŁī ìĿĦ</w>
ì¶ľ ìĭľ
ìĪĺ ìļĶ
ìĹ° ê²°
ëŀĲ ëĭ¤</w>
ê·¸ë£ ¹</w>
v en</w>
ê³¼ìłķ ìĹĲìĦľ</w>
ê³µê°Ĳ ìĸ¸ë¡ł</w>
ìĬ¤ ëŁ½
ê°Ħ ìĿĺ</w>
ë¹ĦìĬ ·
ë¬ ĺ
ìłķë¶Ģ ê°Ģ</w>
di rec
tic al</w>
re g
ë¡¯ ëį°
pl o
f am
íĸī ëıĻ
ìĿ´ ë²¤
ì§ ¸
ìĬ¤ íģ¬
ë¬¼ ìĿ´</w>
te am</w>
ë© Ģ
s ame</w>
ìĿĮ ìķħ
ìľ¼ë¡ľ ëıĦ</w>
an y
ìļ° ëĬĶ</w>
ë² Ĺ
ëª» íķľ</w>
ìĤ¬ ìĭ¤</w>
dur ing</w>
ar i
íĻľ ìĦ±
ìĦ ¬
ìĥģ ìĹĲ</w>
ëĶ°ëĿ¼ ìĦľ</w>
ì¤ĳ ìĿ¸</w>
ì² ¨
ìĤ¬ëŀĮ ëĵ¤ìĿ´</w>
ëħĦ ë¶ĢíĦ°</w>
ìĤ¬ëŀĮ ìĿĢ</w>
ìĿĺìĽĲ ìĿĢ</w>
f il
ë¢ °
ìħ ¨
ë¦¬ ìķĦ
ìĹĲê²Į ëĬĶ</w>
ì§Ģ ë¡ľ</w>
t y
re qu
íı ´
ê·¸ ëĮĢë¡ľ</w>
ìłľ ê¸°
per i
p ul
ëĦ Ĳ</w>
ê¸¸ ìĿĦ</w>
ëĭ¬ ë¦¬</w>
c am
b li
bo th</w>
st re
c a
íķĺ ëĿ½
ìĹ¬ íĸī
s ince</w>
ë§Ī ìĿ´
íķĺ ëĭ¤ëĬĶ</w>
ëĿ ½</w>
ëıĦ ìŀħ
ê² °</w>
ì²ĺ ìĿĮ</w>
ê½ ĥ
ìĿ ĳ</w>
ìķĬ ëĭ¤</w>
su l
íĺķ íĥľ
íĬ¹ ì§ķ
íĶĦ ëŀĳ
íĬ¸ ëĬĶ</w>
ì¹ĺ ê°Ģ</w>
ìĿ¼ ìĸ´
ëĲĺ ë©°</w>
ìĽĢ ìĿ´</w>
ì°¸ ìĦĿ
íķĺ ê³ł
el ec
s ay</w>
ìĭľ ìĦ¤</w>
par t</w>
ar ound</w>
t ers</w>
e p
ìķĦ ìĦľ</w>
ìī½ ê²Į</w>
ìĪĺ ì¶ľ
ìĶ¨ ê°Ģ</w>
ì²Ń ìĨĮ
êµ¬ ë¥¼</w>
ìŀ¬ íĮĲ
ì§Ģ ê¸ī
ë¹ ¼
l ong</w>
ãħ İ
íı °</w>
ì±ħ ìĿĦ</w>
ëķ ħ
st er
ì ¯
íĻ Ģ
ìŀĪ ìĬµëĭĪëĭ¤</w>
ë¶Ģ ë¶Ħ</w>
ìķ ¡</w>
ê³µ ìĹ°
íķ´ ìĻ¸
íĺģ ìĭł
ê³µ ë¬´
th ough</w>
ë§İ ëĭ¤</w>
ì ¥
t on</w>
se t</w>
ìĿĦ ê¹Į</w>
íĬ ľ
ìŀ¥ ìķł
l es</w>
íķŃ ìĹĲ</w>
íĸĪ ìĿĦ</w>
ìĺ¤ ëĬĺ</w>
tr ump</w>
ëį§ ë¶Ļ
ìŀĳ ìĿĢ</w>
ê°Ģ ì§Ħ</w>
h ou
ëĮĢ ìĭł</w>
ê³ ¤
ìłĦ ìŀĲ
ì¶© ë¶Ħ
ìĹ ´</w>
ê³¼ ëĬĶ</w>
ìĭľê°Ħ ìĿ´</w>
íĻľëıĻ ìĿĦ</w>
ê·ľ ëª¨</w>
ê°ģ ì¢ħ</w>
ìĿ¼ ìĿĢ</w>
ë Ģ
íŀ Į</w>
íħĮ ìĿ´
ë³´ ìĿ´
. [</w>
ha pp
ê² ģ
ìŀĪ ê¸°</w>
ê°ĢëĬ¥ íķĺëĭ¤</w>
ai l</w>
e ver
ne ed</w>
ìĽ ħ
íŀĪ ëł¤</w>
t en
ìłľ ëĬĶ</w>
ëĮĢ ëĬĶ</w>
de vel
ì¡° ìĦ±
li fe</w>
sp e
ìĪĺ ëıĦ
íļĮ ìĹĲ</w>
re ally</w>
ìĺ¤ íŀĪëł¤</w>
ê°Ĳ ìĹ¼
e y</w>
ê°ľ ìĽĶ</w>
ìĤ¬ëŀ Į</w>
n er</w>
ëĬ ¦
an ts</w>
íĿ ¬</w>
am es</w>
ìĺģ íĻĶ</w>
e p</w>
ê² ª
ì§ Ĳ
íĥ ĳ
ê¸° ëĭ¤
ìĭľ ì²Ń
ëĭ¤ ëĭĪ
ìĪĺ ë¡Ŀ</w>
ìĤ¬ ë¡Ģ
ë¹Ħ ìļ©
ãħĭãħĭ ãħĭ</w>
ì§Ģ ì§Ģ
ìĤ¬ ë¡ľ</w>
â Ī
ìĦ Ń
st ing</w>
ëĵ¤ ìĹĲ</w>
pu bli
ex p
ë¡ľ ë¥¼</w>
pol i
ë¬ »
ìŀĲ ëĵ¤ìĿĢ</w>
íļĮ ìĤ¬</w>
ëŀ «
b us
ëĦĺ ìĸ´
ê´Ģ ë¦¬</w>
ëĥ ī
ê° Ŀ</w>
ìłĦ êµŃ
publi c</w>
v en
on g
ëĽ° ìĸ´
ì§Ģ ëıĦ
ìľĦ ëĬĶ</w>
íĺķ ìĦ±
v al
g a
ìłķë¶Ģ ëĬĶ</w>
e f
ìŀĦ ìĿĦ</w>
ë°ĺ ìĺģ
ë¶Ħ ê¸°</w>
ë°Ľ ìķĺ
ì¹ĺ ë£Į
f ic
is m</w>
r y</w>
ìĤ¬ íļĮ</w>
ìĭľ ê°Ģ</w>
tim es</w>
an other</w>
ë§Ī ìĿĦ
ìłľ íķľ
c ity</w>
ìĹĲìĦľ ìĿĺ</w>
se ar
ëıĦ ìĭľ</w>
o wn</w>
o ver
ê¸° íļį
ìŀ¥ ê³¼</w>
ìľĦ ë¡ľ</w>
w ays</w>
si ve</w>
ë¦¬ ì§Ģ</w>
ì¤ĳìĭ¬ ìľ¼ë¡ľ</w>
êµ¬ ì¶ķ
d at
ìĨį ìĹĲ</w>
ìĻ ľ
in d</w>
ë§ ģ</w>
íĻĶ ê°Ģ</w>
ë¬¸ìłľ ë¥¼</w>
íĦ ¸
ê¸° ìĸµ
ë¦¬ ìĿĺ</w>
Ģ ëĭ¤</w>
-- --
ë¥ ¸ëĭ¤</w>
f a
ëĮĢ ìłĦ
íħ Į</w>
ëĤĺ ëĪ
' (</w>
ëģ Ħ
ì´ Į
ëł ī
su m
ë° ¤
íĥ Ĳ
ìĤ¬ ëĿ¼
ëĤ ¼</w>
ìłķ íĻķ
) '</w>
ë°Ķ ëĢ
e ff
ìĨĮ ëĵĿ
íĬ¸ ëŁ¼
ë¿Ĳ ë§Į</w>
ìĤ¬ìĭ¤ ìĿĦ</w>
ê³Ħ ìĨį
ì¶ľ ìĹ°
shi p</w>
ìĦ °ëĭ¤</w>
ëł¤ ê³ł</w>
ever y
ëŁī ìĿ´</w>
ìĸ´ ë¥¼</w>
ac c
ë² Ķ</w>
m us
ìĭ¤ ìłľ</w>
ì² «
íĿ ĺ
ê¸° ë°ĺ
íĨµ íķľ</w>
ì°¸ ê°Ģ
íļĮ ë³µ
ëŁ¬ ìĭľ
ìłķë¶Ģ ìĿĺ</w>
ì§ģ ìĽĲ
s ed</w>
ãħ ł</w>
ìĸ¸ ê¸ī
ìĹŃ ìĤ¬
ë§Į íķľ</w>
t v
ëĤ´ ëħĦ</w>
ìŀ ĥ
ìį ¨
ìĤ° ìĹħ</w>
ê±° ë¦¬</w>
ìł Ĭ
ë°ĺ ìĿĳ
s a
ìłģ ê·¹
cont in
ìĺ¬ íķ´
ëĤĺíĥĢ ëĤ¬ëĭ¤</w>
ë¦¬ ìĹĲ</w>
ou ght</w>
ìļ° ë¦¬ê°Ģ</w>
ìļĶ ì²Ń
in di
presi dent</w>
ìĸ¸ ë¡ł
ë°° ìļ°
pl ay</w>
ëªħ ìľ¼ë¡ľ</w>
as h
ìĹħ ê³Ħ
ìĿ´ ìķ¼</w>
ê³ł ìļ©
vie w</w>
ìłĦ ëĭ¬
le ad
ëª¨ ë¥´
ê°Ģ ê³ł</w>
h um
! !
ìĨĮ ê°ľ
ìĭľíĤ¤ ëĬĶ</w>
ìĦľ ìĿĺ</w>
ì½Ķ ìĬ¤
ne x
íĥĢ ìĿ´
ëª» íķĺê³ł</w>
oo l</w>
un der</w>
e u
w ard</w>
ë§Į ëĤĺ
ëĮĢ ë¶Ģë¶Ħ
b ri
str uc
ìĺģ ìĥģ</w>
h ol
íĬ¸ ê°Ģ</w>
ëĿ¼ ìĿ¸</w>
b ar
ëĭ¤ ë©°</w>
ëĤĺ ìĺ¨ëĭ¤</w>
p er</w>
ê° Ĵ
ag es</w>
ap pe
ch il
i al</w>
ìµľ ì´Ī
ë§Īì§Ģ ë§ī</w>
ste m</w>
íķ´ ìķ¼
is su
ì¶ ĺ
ëĮĢ íļĮ</w>
ê·¸ ëıĻìķĪ</w>
ìĥ ¤
ìŀĲ ë¦¬</w>
ëħ Ģ</w>
ìłĦ ê¸°
ëªħ ìĿĢ</w>
c ent</w>
ê·¸ ë¦¬
hi gh</w>
ëħ¼ ìĿĺ
ëĤĺ ëĿ¼</w>
ëį§ë¶Ļ ìĺĢëĭ¤</w>
ìłĦ íĻĺ
ì¹´ ëĵľ
íŀĺ ìĿĦ</w>
ìĿ¸ íķľ</w>
ê¸° ê´Ģ</w>
s ha
íĥ Ħ</w>
íķ´ ëĭ¹
ì¡° íķ©
ìĭľê°Ħ ìĿĦ</w>
us ing</w>
ë© ¤
íĻĺ ê²½</w>
ì¹ ł</w>
ê³ł ë¥¼</w>
ì£¼ ëª©
ec ted</w>
g ro
ë° ¥
ìłľ íĴĪ</w>
ad i
ìĪĺ ìĤ¬
ìĦ± ìĹĲ</w>
ìłĦ íĺĢ</w>
st ri
ìĦ± ê³¼
ìĪĺ íĸī
íĿ¬ ë§Ŀ
ê¸ Ģ</w>
ëĵ± ë¡Ŀ
ìķĮ ìķĦ
â Ķ
êµ¬ ì²´
ëŁ ½</w>
ê¼ ¬
! "</w>
ìŁ ģ</w>
ìĤ¬ ë§Ŀ
ë³´ ìĿ´ëĬĶ</w>
ìłķë³´ ë¥¼</w>
ì¤ ¬
ìķ½ ìĿĦ</w>
to o</w>
d es</w>
âĢ Ŀ
m or
t ting</w>
ë§Į ëĵł</w>
ë¡Ń ê²Į</w>
ìĺ¬ ë¦¼
ìļ° ìĦł</w>
li m
ì¹´ ëĵľ</w>
ëĦ ĵ
í ĵ
ëĮĢ íķĻ</w>
ìµľ ê³ł</w>
ëĤĺ ëıĦ</w>
e very</w>
l an
devel op
si m
ìĿ´ ëĵ¤ìĿĢ</w>
ëĮĢíĨµëł¹ ìĿĢ</w>
in cre
ëĭ¹ ìĿĢ</w>
ë°Ķ ëĿ¼
íĿ ĳ
ìłĲ ìĿĢ</w>
ìŀħ ìŀ¥
po si
ìĺģ ìĥģ
ëģ Ĭ
ìĹ¬ ìłĦíŀĪ</w>
pl ace</w>
ëĭ¨ ì§Ģ</w>
ê²¼ ëĭ¤</w>
ëĭ¨ ìĿĦ</w>
ìĦł ìĥĿ
cont ro
ìĨį ìĹĲìĦľ</w>
ìĤ¬íļĮ ìłģ</w>
ì²Ń ìĻĢ
ê¼ ½
t old</w>
ê³Ħ íļį</w>
en d
ëįĶ ë¶Ī
min i
íķĺ ëĭ¤ê³ł</w>
ë°© ì¹¨
íİ ´
ë· °
ìĦ± ìĿĢ</w>
ëł Ī</w>
ê·¼ ëį°</w>
s ure</w>
ì¢ĭ ëĭ¤</w>
ìŀĪ ëĬĶ
e ach</w>
ìĭľ íĹĺ
ìľ¼ë¡ľ ë¶ĢíĦ°</w>
ë¦ ´
ìĿ´ ìłĦ
re por
sy stem</w>
íķ´ ìĻ¸</w>
ë¬¸ ìłľ</w>
ìĭĿ ìĿ´</w>
íĶ ½
íĪ¬ ìŀĲ</w>
b est</w>
ìķĬ ìķĦ</w>
ëĩ Į
ëĵ¤ ê³ł</w>
ë³´ ìľł
z e</w>
ìĤ¬ ê±´</w>
con si
ìĸ´ëł¤ ìļ´</w>
ìĬ¤ íĦ°</w>
ëĮĢíĨµ ëł¹</w>
w ing</w>
b an
ëħ¼ ëŀĢ
nex t</w>
ìŀĲ ìĤ°
on om
al e</w>
ìħ Ģ
r is
ìłľ ì£¼
ë° ±</w>
ëĭ¨ ê³Ħ</w>
ì¸¡ ìĿĢ</w>
ìłĦ íĨµ
ê± ±
ì¡° ê±´
t es</w>
ê¸°ë¡Ŀ íĸĪëĭ¤</w>
h n
ìĿĺ ìĽĲ</w>
ì¦Ŀ ê¶Į
ì§Ħ ì¶ľ
ìĸ ¸</w>
íĮ ¨</w>
íĮĮ ìķħ
ëĪĦ ë¦¬
re le
ëĬ¥ ëł¥
ê°Ģ ìŀħ
ê°ķ ëł¥
b ook</w>
ê²© ìĿĦ</w>
some thing</w>
íĺĳ ìĿĺ
íĻķ ìĭ¤
ìł Ŀ
ëĳ Ķ</w>
ëĮĢ íķ´ìĦľëĬĶ</w>
s ci
ëª» íĸĪëĭ¤</w>
pro vi
ìŀĲ ì¹ĺ
ìłĦ ìŁģ
ë§Ĳ ìĿ´</w>
ìľĦ ê°Ģ</w>
ëĤĺ ìĿ´
resp on
st or
ìĹĨ ìĸ´</w>
ì´ ¬
w a
ë§Į ìĿĺ</w>
ìĤ¼ìĦ± ìłĦ
ìĦľë¹Ħ ìĬ¤ë¥¼</w>
ê±° ìķ¼</w>
íļĮ ìĤ¬
ë§Ĳ ë¡ľ</w>
ê³ ³</w>
ìķĦ ì£¼</w>
w at
ë¬´ ìĬ¨</w>
ìĿ´ ë©´</w>
ìĪĺ ë°ĸìĹĲ</w>
b c</w>
ê°Ģ ìł¸
ë¹Ħ ê°Ģ</w>
ìļ° ìĪĺ
% ),</w>
ì²´ íĹĺ
ìŀĲ ë¦¬ë¥¼</w>
b or
pol ice</w>
poin t</w>
al ity</w>
íĦ° ë¥¼</w>
ì²´ ìľ¡
e ver</w>
p ic
ê²Ģ íĨł
le t</w>
ëĤĺ ìĺ¨</w>
ìķĮëł¤ ì¡Įëĭ¤</w>
ëĿ¼ ë©´</w>
ê·¼ ë¡ľ
ìłķ ìĹĲ</w>
ëª¨ ëĳĲ
gh ts</w>
ìĿ µ</w>
wh y</w>
ê°Ħ ëĭ¤</w>
ak es</w>
ì° ®
to p</w>
th ings</w>
ëıĦ ìĹĲ</w>
ìĤ¬ ê³ł</w>
ìłĦë¬¸ ê°Ģ
d ri
ê²½ìļ° ê°Ģ</w>
comm un
ìĸ¼ë§Ī ëĤĺ</w>
ë¯¼ì£¼ ëĭ¹</w>
ìĿ´ë£¨ ìĸ´
íķľ ëĭ¤ë©´</w>
ìĭ¬ ìĿĦ</w>
ì¹ ¨</w>
â ĵ
f t
cur ren
ìĿ´ ë¯¸
ê³³ ìĹĲ</w>
ìłľ ì¡°
p ai
íĺĲ ìĿĺ
ëŁ Ń
e t
ë³ Ģ</w>
lo t</w>
ìĬ µ</w>
ìĭľìŀĳ íĸĪëĭ¤</w>
ê°Ģ ìĦľ</w>
ëħ¸ ëŀĺ
for m</w>
ëĤ ľëĭ¤</w>
ì¹ ł
ac cor
ìŀ¥ ìľ¼ë¡ľ</w>
íķ¨ ìĿĦ</w>
ìľł ëŁ½
ne ver</w>
êµ¬ ê°Ģ</w>
ìłģ ìĿĢ</w>
ë¶Ģ ìĤ°</w>
ëĵľ ìĿĺ</w>
ë§Ī ì°¬
ìĿ¼ ë°ĺ</w>
ëĿ¼ ìļ´
ë§Įëĵ¤ ìĸ´</w>
ìµ ľ</w>
j ect</w>
ìľ¼ë¡ľ ìĦľ</w>
ìĹ¬ ìķ¼</w>
ìĿ¸ ìĤ¬
ëª© ìĨĮ
p at
êµ¬ ë§¤
ìĪ ľ</w>
se ason</w>
ê³µ ìĭĿ</w>
ìľ¨ ìĿ´</w>
ì½ĺ íħĲ
st o
íĸ¥ íĽĦ</w>
ic es</w>
s our
b ur
ìļ° ìĬ¹
ìķ ¨
ëĺ ĳ
read y</w>
f ound</w>
ëģĮ ìĸ´
l ing</w>
ìĦ¸ ê°Ģ</w>
ti s
ëªħ íķľ</w>
ìĺ ·
ìĻ ķ</w>
g ra
co m</w>
ê²ĥ ìĹĲ</w>
ë³Ģ íĺ¸
ëĤĺ ë¬´
ê²° íĺ¼
ìĤ¬ íķŃ
ëĵ¤ ìĹĪëĭ¤</w>
ìŀĳ ìĹħ
hi gh
ê¸°ìĹħ ìĿĺ</w>
ëĭ´ ëĭ¹
m ain
ë²ķ ìĿĦ</w>
hou se</w>
íķĺ ë£¨
ë¶Ģ íĦ°
t or
pu t</w>
p ho
íĸĪ ìľ¼ëĤĺ</w>
íĽĪ ëł¨
ë¶Ħ ìĿ´</w>
en s</w>
ne ws</w>
ê²ł ëĭ¤ëĬĶ</w>
âĢĻ ,</w>
ê¸° ìĻĢ</w>
ìĿ¼ ìľ¼
ìģ ĺ
ëĶ ©
do es</w>
ìĹĦ ë§Ī
ìłĦ íĪ¬
âĢ¦ âĢ¦
ê³ł ëĵ±
ëĤĺ ë¥¼</w>
âĵ Ĵ</w>
âĪ ¼</w>
g an
fe w</w>
ëĶ ¸
ìĩ Ħ
ar ly</w>
ëĤĺ ìĻĶëĭ¤</w>
ë¬´ ë¦¬
ìĭ¤ ìłľë¡ľ</w>
ë§Į ìĿĦ</w>
ch ange</w>
íı¬ìĿ¸ íĬ¸</w>
ì¦ ī
ê¼ Ń</w>
ê³ł ë¯¼
íķĺ ë£¨</w>
íĵ ¨
he al
h er
ëĨĴ ìķĦ
ë½ ĳ
ëĤĺ ìĺ¤ëĬĶ</w>
st ates</w>
ìĭľ ìĿĺ</w>
a k</w>
íĻķ ìĤ°
íĬ¸ ìĿĺ</w>
ëıĪ ìĿĦ</w>
grou p</w>
ìĹŃ ìĿĦ</w>
si ble</w>
b ers</w>
c ha
gre at</w>
ëĭ¹ ìĿ´</w>
ë³´ ê±´
êµŃ íļĮ</w>
ëĤĺ ìĿĺ</w>
s ou
vi r
h ome</w>
ìĺ ®
ë¶Ħ ìĿĦ</w>
ë§Į ìĽĲ
ho we
ë³¸ ê²©
ë¶Ī êµ¬
howe ver</w>
ê²ĥ ìĿ´ëĿ¼ê³ł</w>
ì¡° ê¸Ī</w>
ëĵľ ê°Ģ</w>
ê¸° ëħĲ
ìķĦ ëĬĶ</w>
íķĻ ìĥĿ</w>
st an
ì£¼ ë³Ģ
ìłľ ì¶ľ
ê°Ĳ ìĿ´</w>
ê³µ ìĤ¬</w>
ì§Ģ ì¼ľ
ìĿ´ íķĺ</w>
ìķĦíĮĮ íĬ¸</w>
ìķĦ ë¦Ħ
ìĸµ ìĽĲìĿĦ</w>
ìĽł ëĭ¤</w>
with out</w>
ìĬ¤ ìĻĢ</w>
k i
ì° Į
k o
ìĿ¸ ë¬¼
ëĲĺ ê¸°</w>
ìĹħ ì²´</w>
ë© ĺ
ê°Ģ ìĿĺ</w>
íĸī ìĤ¬
loo k</w>
ë¬¸ íĻĶ</w>
ìŀ ĸ
st at
ëĬĲëĤ Į
r ic
ãİ ¡</w>
ìŀĲëıĻ ì°¨</w>
sho w</w>
ìĸ´ ë¨¸ëĭĪ
ìĭĿ ìľ¼ë¡ľ</w>
ì¡° ìłķ
ê³ ¤</w>
ìĦ¸ ëĮĢ</w>
íĶĦë¡ľ ìłĿ
i de
ìĹ¬ ëŁ¬
ìļ´ ìĺģ</w>
ê³ł ëıĦ</w>
ê´ ĳ</w>
ìĹĲ ìĿ´
ëĮĢíķľ ë¯¼
ìĺĢ ëįĺ</w>
tr ans
ìĭľ ë¥¼</w>
qu es
ë© ¸
ê³ §</w>
ê°ľ ìłķ
or t</w>
be g
mi ght</w>
ë¬¸ íķĻ
ëĭ¹ ìĿĺ</w>
ìĿ¸ ê³¼</w>
ìķĦ ëĭĪ</w>
ë§Į ìĿ´</w>
c as
ìŀĲ ìĹĲ</w>
ìĿ´ ëĵ¤</w>
accor ding</w>
ê´Ģìĭ¬ ìĿĦ</w>
in form
ë°© ìĨ¡</w>
ap pro
il i
êµ° ìĿĢ</w>
ëįĶ ëĭĪ</w>
ë³ĳ ìĽĲ</w>
ë¶Ħ ìĸĳ
ê·¸ ë¦¼
ìĪĺ ìŀħ
po wer</w>
ì²Ń ëħĦ
ê°Ħ ìĹĲ</w>
ëĤ´ìļ© ìĿĦ</w>
ëĭ¤ ë¥´
ìŀĲ ìĹĲê²Į</w>
ìĤ Ń
ëĭ¹ ìĹ°
ìķĦ ìļĶ</w>
l itt
ìŀĳ ìļ©
ãħ İ</w>
ìĿ´ìķ¼ ê¸°
ìŀĲ ìĦ¸
ì ¾
ìłķ ë³´</w>
ëĭ¹ íķľ</w>
ìľĦ ìĿĺ</w>
ìĬ¤ ìĬ¤ë¡ľ</w>
f re
ec onom
ëĶĶ ì§Ģ
re sul
ë²Į ìĸ´
ad v
call ed</w>
ãħĭãħĭ ãħĭãħĭ</w>
ëĦ¤ ìĿ´
inclu ding</w>
ro o
ì²´ ë¥¼</w>
em s</w>
ëĮĢ ìĥģ</w>
? ?</w>
ëĭ¨ ìĿĢ</w>
differ ent</w>
ìĽĶ ë¶ĢíĦ°</w>
ë§Īì°¬ ê°Ģì§Ģ
ãĢ ı</w>
íĹ ¬
wee k</w>
ìŀ¬ ë¯¸
ë¶Ģ ìłķ
ê° ¤
ëĭ¤ ìĿ´
ìłķ ì±ħ</w>
ë³´ ëĤ´
ìĭľìĬ¤íħ ľ</w>
ê´ ľ
ì£¼ ê°Ģ</w>
ìĿ´ìķ¼ ê¸°ë¥¼</w>
ê¸° ì´Ī
ä º
ìĿĺ íķľ</w>
s po
ìĥģíĻ© ìĹĲìĦľ</w>
m ic
litt le</w>
ëª¨ ë°Ķ
o s</w>
- -</w>
r us
ìĭł ê·ľ</w>
ê·¸ ë¥¼</w>
íĨµìĭł ìĤ¬</w>
ë°ĺ ê¸°</w>
ìķĦëĭ Į
íĺ¹ ìĿĢ</w>
ì§Ģ ìĻĢ</w>
ë³Ģ ê²½
ìĤ¬ìĭ¤ ìĥģ</w>
mil lion</w>
ëĤĺ ìĻĢ</w>
ec ts</w>
ë¶Ħ ìĹĲ</w>
ìĹ° ìĨį</w>
ent ly</w>
íĦ ´</w>
c ase</w>
go t</w>
s on
ë¡ľ ìĿĺ</w>
ìĹĲ ë§Į</w>
am s</w>
num ber</w>
ìĹ¬ ìĦ±</w>
ìĸ¸ ìłľ
ëĮĢ ì¶ľ
ë¸Įëŀľ ëĵľ</w>
ì½ ¤
ìĹĨ ëĭ¤ëĬĶ</w>
c o</w>
t ain
ìŀ¥ ê¸°
ë¿ Į
ê°ľ ìĽĶ
hel p</w>
ë³´ ëıĦ
êµ¬ ëĤĺ</w>
ëĬĲ ëģ¼
dat a</w>
ìĺ Ĩ
ê·¸ëŀĺ ëıĦ</w>
ê³µ ìłķ
ìĿ¼ ëĭ¨</w>
pro f
ëĮĢ íķ´
ìµľ ì¢ħ</w>
ìĭľì¼ ľ</w>
ìĮ ĵ
u al</w>
par t
íĺĦ ì§Ģ
íĶĦ ëłĪ
íĻĶ ëĲľ</w>
c ul
ìĹĨ ê³ł</w>
ìķ ¤
ìľĦ íķ´ìĦľëĬĶ</w>
k et</w>
íĬ¸ëŁ¼ íĶĦ</w>
m ed</w>
ë¯¸êµŃ ìĿĺ</w>
êµŃ ê°Ģ</w>
ê±° ì³Ĳ</w>
m ents</w>
ê¸ į
) âĢĻ</w>
bi g</w>
c es</w>
ì£¼ ë¥¼</w>
ë¬ µ
â ĺ
ìĭ¤ ìĿĦ</w>
ëĵ± ìĿĢ</w>
sup port</w>
. ></w>
prob le
ìħ Ī
ìĤ¬ íĥľ
ì¸ ¡</w>
ëĵľ ìĭľ</w>
w al
íı Ń</w>
ì§Ģ íķĺ
com ple
d a
th s</w>
ìĿ¸ ìľ¼ë¡ľ</w>
ë§ĪìĿĮ ìĿĦ</w>
ë©´ ìĿĦ</w>
ë°Ķ íĥķ
ìĹ¬ ìŀĲ
ìľ¼ ë©´ìĦľ</w>
ìĦ¤ ë¦½
sec ond</w>
ëĭ¤ ê°Ģ
ê±´ ì¶ķ
ìłĦ ìĭľ
c ro
ìĭł ê³ł
ëĥ Ī
ìĽ ħ</w>
ãħł ãħł
ë¯¸ ëĶĶ
å ¤
americ an</w>
ë§Ī ì¼Ģ
êµ¬ ëĬĶ</w>
ë°ĺ ëĵľìĭľ</w>
ìĦ± ìĿĺ</w>
off ici
coun try</w>
íķŃ ìĥģ</w>
bet ter</w>
ìĿĢ ëį°</w>
ìĹĪ ëįĺ</w>
ìĽĶ ëĵľ
ai r
ëĭ¨ ìĪľ
íļĮ ìŀ¥ìĿĢ</w>
ë¹¨ ë¦¬</w>
em ber</w>
ê´Ģ ìĿĦ</w>
ìķ ł</w>
ì°¨ ê°Ģ</w>
ëĳ ¥
ëī´ ìĭľìĬ¤
he ad</w>
as ed</w>
íĮĮ ìĿ´
ì° ½</w>
y s
ìĮ į
ê²°ê³¼ ë¥¼</w>
ë²Ķ ì£Ħ
ëª ½
ì¶ľ ìĭł
do c
ê·¼ ë¬´
ìºĲë¦Ń íĦ°
ìĬ¤ëŁ¬ ìļ´</w>
ìĿ´ìĥģ ìĿĺ</w>
ê¹ Ķ
ë¬¸ìłľ ëĬĶ</w>
am a</w>
ëıħ ë¦½
ëĮĢ êµ¬</w>
ìŀĲ ì£¼</w>
pl an
bo dy</w>
ìľł ì¹ĺ
ìĸ´ ì©
ëĮĢ ì±ħ
n at
ëĵ¯ ìĿ´</w>
ëĮĢ ë¶Ģë¶Ħ</w>
êµ¬ ìĿĺ</w>
íķľ íħĮ</w>
íķĺ ëĿ¼</w>
ë°ĽìķĦ ëĵ¤
ìķ ħ</w>
d ra
le ft</w>
ìŀĲ ê¸°
ìĶ ¬</w>
ì§Ģ ìłķ
íĶĦë¡ľê·¸ëŀ ¨</w>
ìĬ¤ íĭ°
íĪ¬ íĳľ
c ra
ê°Ģ ìĬ
au th
cl ai
ì¡° ê¸Ī
p ed</w>
ë§Į ì¡±
ë¹ Ļ
ëĮĢ íĺķ</w>
ë¹Ħ ì¤ĳ
it ing</w>
ac tu
ìĬ¤ ìĹĲ</w>
ìķĦ ì§ģ
ì§Ģ ë©´ìĦľ</w>
ìŀĪ ì§Ģ</w>
ex am
ì§Ģìłģ íĸĪëĭ¤</w>
at ely</w>
ë°ĺ ëĮĢ
ìĹ ¼</w>
ì°¨ ë¡Ģ</w>
wom en</w>
ìĭ «
íį ¼</w>
ìľł ìĿ¼
íĸī ìĿĦ</w>
publ ic
ë¥ł ìĿ´</w>
íļĮ ìŀ¥</w>
¨ ëĭ¤</w>
ìĶ¨ ìĿĺ</w>
ëī´ìĭľìĬ¤ íĨµìĭłìĤ¬</w>
ë²Ħ ìĬ¤</w>
in s</w>
ê¸Ī ìķ¡
íķĺëĤĺ ìĿĺ</w>
ê²ĥ ê³¼</w>
ëª ĩ
ìĭ¶ ëĭ¤</w>
ê°ķ íķľ</w>
h u
ìĭ¤ íĮ¨
re ad</w>
êµŃ ìĿĢ</w>
s ing</w>
ìĭĿ íĴĪ
íĻķ ìłķ
ìŀħ ìĿĦ</w>
ì¤Ħ ìĸ´
ìĽ Ģ</w>
æ ľ
âĹ ĩ</w>
ë¹Ħë¡¯ íķ´</w>
f ree</w>
h al
v el</w>
ìŀĺ ëª»
fin d</w>
o per
ìĥģ ìĿĢ</w>
ë¶Ģ ìĻĢ</w>
íĻľ ëıĻ</w>
ëĮĢ ì¤ĳ
ch ang
ìłĲ ìľ¼ë¡ľ</w>
ma j
ìķĪ ìĿ´</w>
ì§Ī ë¬¸
comp any</w>
ìķŀ ìĹĲ</w>
ëĮĢíĨµëł¹ ìĿ´</w>
ab ly</w>
íķĦìļĶ íķĺëĭ¤</w>
la w</w>
íķ© ìĿĺ
ìĪł ìĿĦ</w>
ish ed</w>
íĺ Ģ
ìŀĪìĹĪ ëįĺ</w>
tur n</w>
se e
ëĭ¬ ëĿ¼
ìĤ¬ëŀĮ ëĵ¤ìĿĢ</w>
ëį° ëıĦ</w>
ìĬ ¨
ì§Ī ìĿĦ</w>
ë§Ĳ íķľëĭ¤</w>
bus in
ìĨĲ ìĿĦ</w>
ì£¼ ìĭĿ
b en
ëĤ´ ìĹĲ</w>
wh e
pro c
ìłĦ íķ´
col l
ìĺĪ ë°©
ëħĦ ê¹Įì§Ģ</w>
ì¾ Į
íķ´ ìĦĿ
ëłĪ ìĿ´</w>
ëħĦ ìĿĦ</w>
re sear
h an
ì£¼ìŀ¥ íĸĪëĭ¤</w>
ì§ Ŀ</w>
ëĴ ·
ìĸ´ ë²Ħ
. '</w>
ìĿ´ëĿ¼ ëıĦ</w>
e qu
rec or
íļ¨ê³¼ ë¥¼</w>
bas ed</w>
íĻ ľ</w>
enti al</w>
ì§Ģ íĤ¤
íĦ ¸</w>
ëĤĺ ë¨¸
ì§Ģ ìļĶ</w>
ëª¨ ìĸĳ
or gan
ë§Į ëĵľëĬĶ</w>
íķ¨ ìľ¼ë¡ľìį¨</w>
ìĨĮ ìŀ¬
íĻĶ ìŀ¥
ìłĦë§Ŀ ìĿ´ëĭ¤</w>
ê°Ģ ê²©</w>
ìŀĲìĭł ìĿĦ</w>
ëıĦ ìĻĢ</w>
d en
g er
des ig
fol low
ìĺ¬ ë¦¬
ìĽĲ íķĺëĬĶ</w>
ëĭ¨ ìĿĺ</w>
ìĨĮ ìĨį</w>
íĤ ¹
ìĿ¸ ìĭĿ
ìľ¨ ìĿĢ</w>
ë°© ìķĪìĿĦ</w>
êµ ³
ìĪĺ ìĪĺ
ëĮĢ íĻĶ
n ess</w>
ë¡ ¤
ì¯ ¤</w>
at s</w>
íĽ ¨
g l
ìłĢ ëĬĶ</w>
íĶ ½</w>
ëĭ¤ ìļ´</w>
íķĦìļĶ ê°Ģ</w>
ëł ´
ê²ĥ ì²ĺëŁ¼</w>
ìłĲ ìĹĲ</w>
in a</w>
íĪ¬ ìŀħ
ìķŀ ëĳĲê³ł</w>
ìĭľì¦ Į
p ur
w ar</w>
ac tion</w>
d ge</w>
li k
íķĺëł¤ ëĬĶ</w>
ì¼ ĵ
ë¶ģ íķľ</w>
ëĪĪ ìĹĲ</w>
âĹ Ĩ</w>
ìĻĢ ìĦľ</w>
ìłģ ìĿ´ê³ł</w>
de mo
íıī íĻĶ
íĨµ ê³¼
in i
íıī ê°Ģ</w>
b s
ëĦĪ ë¬´
íķ´ ìĸĳ
tic s</w>
ìłķ ìĿĢ</w>
inform ation</w>
ëıĦ ë¡ľ
ìĵ ¸
ìłģ ê·¹</w>
ìĿ´ëĿ¼ ë©´</w>
e as
ìĹĨ ìĿĦ</w>
êµ° ìĿĺ</w>
di dn</w>
ìŀĲ ìĽĲ
d ate</w>
ëĤ¨ ìĿĢ</w>
ë© ĭ
ì¦Ŀ ìĿĦ</w>
íķľ ë²Ī</w>
ai r</w>
ëĮĢ ì²´
ìľł íĨµ
ìĨ Ĳ</w>
ëĲ ł
im port
n ec
êµŃ íĨł
ê²ĥ ìĿ´ëĿ¼ëĬĶ</w>
ê³³ ìĹĲìĦľ</w>
ë°ĶëĢ Į
ìļĶ ì¦
ìĪĺ ìĥģ
ag ain</w>
' re</w>
par ty</w>
ìĥģíĻ© ìĿĦ</w>
ëħĦ ëĮĢ</w>
ê°ľ íĺģ
ëĭ¨ ìĿ´</w>
ëĤĺ ìĦľ
ìĨĮ ìĨį
ë³¸ ëĭ¤</w>
ë§ŀ ìķĦ</w>
uni vers
ab ility</w>
íİ ľ
ê² ¬</w>
ë¬´ ìĹŃ
ìĭł ìļ©
ìĿĺ ë¬´
ì§ĳ ìĹĲ</w>
un ited</w>
ì° ¬</w>
se ver
ë¶Īêµ¬ íķĺê³ł</w>
ìĬ¤ ì½Ķ
d on
ìĹĲëĦĪ ì§Ģ</w>
ous ly</w>
íĪ ¬</w>
íħ į
a z
m en</w>
ìĭľ ìŀ¥ìĿĢ</w>
ë¸Į ëĿ¼
ìĿ´ ìĤ¬
f our</w>
íĽ¨ ìĶ¬</w>
íķĺ ëĬĺ
å ħ
a tive</w>
ëª© ìĿĦ</w>
ê´Ģ ìĿĢ</w>
ìŀĲ ë³¸
ëıĦ ìĽĢìĿ´</w>
íķ´ ìļĶ</w>
wh ite</w>
ëĭ¨ ì²´</w>
ê² Ģ</w>
ìĨĮ ìľł
olo gy</w>
ne e
vi de
ìļ¸ ìĤ°
ê¸°ìĪł ìĿĦ</w>
ìŀĦ ëĮĢ
ë¶Ģ ë¬¸
ë°Ķ ìĿ´ëŁ¬
ìĭľ ìĬ¤</w>
ìĺ¬ ëŀĲëĭ¤</w>
ë´ Ĳ</w>
ì£¼ íĥĿ</w>
per cent</w>
ë©´ ìĹĲ</w>
ë¹ ħ
ìĹ° íķ©
ë©¤ ë²Ħ
sti tu
t ain</w>
ì§ĢìĹŃ ìĿĺ</w>
ëı Ī</w>
m c
ìĻĢ ëĬĶ</w>
ê¸° ì¡´
ìľ¨ ìĿĦ</w>
ìĹ ĳ
ê²½ ìĿĦ</w>
ê³µ ìľł
ìłĦ ìĹĲìĦľ</w>
ar t</w>
re la
b oo
e st
íĽ Ī</w>
ìķĦìĭľ ìķĦ
íĻį ë³´
ìĪĺ ë¡ľ</w>
êµĲ ìĪĺëĬĶ</w>
íħ ľ
ìĿĺê²¬ ìĿĦ</w>
ìĿ´ ê¸°ëıĦ</w>
es ti
ëĳĺ ëŁ¬
íĬ¸ ë¡ľ</w>
ëĤ® ìĿĢ</w>
ì´Ī ëĵ±
ìĭ¬ ê°ģ
ìĦł ë³´
ì²´ ê²°
ê·¸ ê²ĥìĿĢ</w>
ìĤ´ íİ´
ê¸° ê³ł</w>
l s</w>
ê´Ģ ìĿ´</w>
ic k
ë§ ¨</w>
ì° ¸</w>
to day</w>
ëĥ ¥
ìĻĦ ìłĦíŀĪ</w>
ë¸Ķ ëŀ
ìķ½ ìĨį
n ame</w>
ìĤ¬ëŀĮ ìĿĺ</w>
l ater</w>
pl ic
ëĭ Ŀ</w>
íķĺ ìĭľ
ìĦł ë°ľ
d ents</w>
f ar</w>
íķĺ ìļ°
ì²ĺìĿĮ ìľ¼ë¡ľ</w>
ìª½ ìľ¼ë¡ľ</w>
th ers</w>
íĺľ íĥĿ
ë³´ ê¸°</w>
ê°ľ ëħĲ
ìı Ł
ëıĻ ìĿ¼
ìĸĺ ê¸°
ë¸ Ķ</w>
ëĶ ľ
ìĨĮ ê°Ģ</w>
i l</w>
ìħĺ ìĿĦ</w>
ì°¨ ë³Ħ
íģ Ĳ
mon ey</w>
fi el
r un
it al</w>
ì§ĳ ìĿĦ</w>
ëł¤ ëĬĶ</w>
ìĺģ êµŃ</w>
ìĺ¤ ë¥¸</w>
íĬ¸ ë¦¬
ê·¸ ëŁ¼</w>
ëĵ Ģ
ê±´ ìĿĦ</w>
y s</w>
) <</w>
ìĿ´ë¦Ħ ìĿĦ</w>
li ght</w>
íĸĪ ìĬµëĭĪëĭ¤</w>
íĶ¼ íķ´</w>
ì «
.. ..
po pul
ìłľ ìķĪ
ëªħ ìĹĲ</w>
ì°¨ ëŁī
ìĭł ë¢°
h ard</w>
ìŀĲëıĻ ì°¨
ê°Ģ ì¡±</w>
ë¶ĢëıĻ ìĤ°</w>
ê¸Ī ìĿ´</w>
ëª» íķĺëĬĶ</w>
ë§Īì§Ģ ë§ī
ê°ĳ ìŀĲê¸°</w>
ë¦ ¿
ìĹ¬ ê¸°ìĹĲ</w>
ëĤ´ ëĨĵ
ë° ĳ
ê¾¸ ì¤Ģ
ìµľê³ł ìĿĺ</w>
a way</w>
ê´ĳ ì£¼</w>
/ /</w>
íģ¬ ë¡ľ
ëŀĢ ëĭ¤</w>
ë°Ķ ê¿
ìłĳ ê·¼
ë°Ľ ì§Ģ</w>
ìĤ¬ ìļ©</w>
ì¤ ĺ
ê²½ìļ° ìĹĲëĬĶ</w>
m r</w>
ìĤ¬ìĿ´ ìĹĲ</w>
ì§ĢìĽĲ ìĿĦ</w>
íķĺê²ł ëĭ¤ëĬĶ</w>
íķĺ ê¸°
ëŃ Ķ
ëĿ¼ ìĿ¸
êµŃ ìłķ
ë¶Ī ê³¼
ìĿ¸íĦ°ëĦ ·</w>
m aking</w>
ê°Ģ ìłķ
ìŀ¬ ìĤ°
ti ce</w>
ì¶ ĺ</w>
ë§ º
o w
sch ool</w>
, #</w>
ìĹĪ ê³ł</w>
ê´Ģëł¨ íķ´</w>
ìķĬ ëĬĶ
ìĥģ ìľ¼ë¡ľ</w>
ìłľ ìĿĺ</w>
al ways</w>
ê¹Į ì§ĢëĬĶ</w>
ê´Ģê³Ħ ë¥¼</w>
fac e</w>
rec ei
pol ic
v ol
gr ap
ë² ¨</w>
ìĤ¬ëŀĮ ìĿĦ</w>
íŀĺ ëĵ¤
ìĭł ìĿĦ</w>
íĥĢ ê³ł</w>
ë°ľ ìĸ¸
v ic
ì£¼ ëıĦ
ni ght</w>
ì§ §
ê¸°ì¤Ģ ìľ¼ë¡ľ</w>
íĮĲ ë§¤</w>
d ays</w>
ìĹĦ ì²Ń
ë§¤ ëħĦ</w>
ë¸Į ë¦¬
s ing
ìĻĦ ìĦ±
ex peri
medi a</w>
íĨł ë¡ł
ëĵľ ë¦¬
ìłĦ ë°ĺ
w il
ë¨¹ ê³ł</w>
ìĿĮ ìĭĿ
ìłľ ëıĦ</w>
ë§Ĳ ìĶ
ìĥģëĭ¹ íŀĪ</w>
ë°Ķíĥķ ìľ¼ë¡ľ</w>
ìŀħ ìŀ¥ìĿĦ</w>
ë¬¼ ìĿĺ</w>
ë§Ī ìĿĦ</w>
ul t</w>
ëĦ¤ íĬ¸
ì¡° ì°¨</w>
íĶĮ ëŀ«
ê³¼ ìłķìĿĦ</w>
b all</w>
ìĹħ ê³Ħ</w>
ê¸° ìĹ¬
ê°Ģ ë¥´
fo re
ê°Ģ êµ¬</w>
fam ily</w>
ke y</w>
ê·ľëª¨ ìĿĺ</w>
al ready</w>
ëĤĺ ìķĦ
ìĽĲ ê³¼</w>
ìĿ´ìľł ëĬĶ</w>
p ing</w>
on ce</w>
ne w
ì± Ļ
ì± Ķ
ìļ°ë¦¬ ìĿĺ</w>
ì¡° ìĤ¬ë¥¼</w>
ë° ¤</w>
ê¹Į ìļĶ</w>
ìŀĲ ë£Į
on es</w>
ì§Ħ ìĿĦ</w>
ê³Ħíļį ìĿĦ</w>
ëĤĺ ìĦľ</w>
a i</w>
ìŀ¬ ìłķ
ìŀĲ ì²´</w>
ìĿĺ íĺ¹
ìŀĲ ìĿ¸</w>
ìł ł
ê¶Į ìĿĺ</w>
ìĥģ ëĮĢë¡ľ</w>
ë¯¼ ê°Ħ
ë°ĺ ëıĦ
__ __
ì£¼ìĿ¸ ê³µ
íĽĦ ë³´</w>
ë¥ ¼
ë¹ĦìĬ· íķľ</w>
ê´Ģ ê³Ħ</w>
re al</w>
ì´¬ ìĺģ
s es</w>
ìĭ¶ ìĿĢ</w>
ne t
íķµ ìĭ¬
ëĭ Ŀ
ì°½ ìĹħ
ëŀľ ëĵľ</w>
ìĺ¤ íĶ
ìĿ´ìĹĪ ëįĺ</w>
bel ie
s co
ì§Ģ ë°°
ë³´ ìŀ¥
ìĸ´ ê°Ģ</w>
ìłĢ ëħ
íĺ ľ</w>
ìłģ ìĿ´ëĭ¤</w>
tec hn
c ed</w>
d ers</w>
ch o
ë§ŀ ëĬĶ</w>
íĶĮëŀ« íı
ê´Ģìĭ¬ ìĿ´</w>
ìĹĲ ìļĶ</w>
ëķĮ ë§Īëĭ¤</w>
íĺķ ìĿĦ</w>
ë¹Ħë¡¯ íķľ</w>
ëĤĺ ê°Ī</w>
ì¢ Ģ
ìłĲ ê²Ģ
ìłķ ê·ľ
c ou
ay ing</w>
sec ur
ìĺĪ ë¥¼</w>
ë°© ë²ķ</w>
ìķĦ ìļ¸
ì¶Ķ ì²ľ
ëĮĢ ìłĦ</w>
ê³¼ ê±°</w>
at h</w>
lo ve</w>
íķ´ ë¥¼</w>
ë°©ì¹¨ ìĿ´ëĭ¤</w>
ìłĦ íĻĶ
ìĭľìŀ¥ ìĹĲìĦľ</w>
ê» ´
re l
ì§ ķ</w>
ì¤ĳ ëĭ¨
man ag
ti l</w>
íķľêµŃ ìĿĺ</w>
ëĮĢíĨµëł¹ ìĿĺ</w>
ag o</w>
ê´ľ ì°®
ìĬ¤ íİĺ
ìĭ¬ íŀĪ</w>
ìĦł ìĸ¸
m en
ëį° ë·
ìŀ¡ ê³ł</w>
ë´ Ħ
íŀ Ĳ
ìĨĮ íĨµ
ìŀĲì²´ ê°Ģ</w>
j e
ìľł íĬľ
ëĭ¬ ìĦ±
ìĬ¤ íĭ
at or</w>
ê²½ ëĤ¨
ìĥĿ ìĿĦ</w>
ìłĦ ìĿ´</w>
íĻķ ëĮĢ</w>
ì¼ Ģ</w>
ì¢ħ ìĿĺ</w>
ê³ł ìĨį
ìĦł ìĪĺ</w>
ë©Ķ ìĭľ
or der</w>
ë¦¬ ìĻĢ</w>
ìĦľë¹Ħ ìĬ¤
ëŀ µ</w>
ìŀ Ĭ
ëį ľ
ìķĬ ìľ¼ë©´</w>
íĬ¸ ìĹĲ</w>
ìłľíĴĪ ìĿĦ</w>
ë¶Ħ ëªħ
ìĿ´ ìĿĺ</w>
ëĤĺ ê³ł</w>
ìķĦ ìķ¼</w>
ê²ł ëĭ¤ê³ł</w>
ìĿ´ íķĺ
ë°° ì¹ĺ
wor king</w>
ê±´ ìĦ¤</w>
ìĨĮ ìĨ¡
ìĬ¤ëŁ½ ê²Į</w>
ìĦł ìĿ´</w>
ìĨĮ ìĹĲ</w>
ì»´ íĵ¨
ê¸° íļĮë¥¼</w>
pai g
ë´¤ ëĭ¤</w>
ì§ģ ìĽĲ</w>
a ff
ìĹ¬ ë¡ł
y oun
ìĭł ë¬¸
íķĻ ìĬµ
ë°© ìĸ´
ë©´ ìĹĲìĦľ</w>
íĶ¼íķ´ ë¥¼</w>
ê·¼ ê±°
ì» ¤</w>
ìľł ëŁ½</w>
ï¼ Ľ</w>
m ust</w>
d ence</w>
ìķŀ ìĹĲìĦľ</w>
wi d
n am
re gi
ì¶Ķ ì§Ħ</w>
ìłģ ìłĪ
g ames</w>
po st</w>
ìħ ĭ
m ul
s it
cam paig
íļ¨ ìľ¨
in de
íĺ¸ ë¥¼</w>
at e
íļ¨ê³¼ ê°Ģ</w>
ë§Į ìĽĲìĿĦ</w>
ìĭľ ëıĦ
ìĹ° êµ¬</w>
or i
ìĥģ ëĭ´
ëĤĺ ëĪĦ
ìķĦ ëŀĺ
kno wn</w>
ìĿ´ íĥĪ
ìĪĺ ìļ©
ì²Ń ìĿĢ</w>
un til</w>
fac t</w>
íķĻ ê³¼</w>
ìĦł ê±°</w>
ru n</w>
eu ro
ìĿ¸ ì²ľ</w>
ë¶Ģ ë¥´
fi c</w>
ì²´ ê³Ħ
poli tical</w>
w er
z ed</w>
ëį° ëĭ¤</w>
ac y</w>
co ver
êµŃ ìĿ´</w>
ê·¸ëħĢ ëĬĶ</w>
ìĿ´ ëģĮ
íĶĮ ëŁ¬
ìľ µ</w>
ìĭľìŀ¥ ìĿĺ</w>
ë°Ķ ê¾¸
íĻĶ ìĹĲ</w>
ëĵľëĿ¼ ë§Ī</w>
ìĥĿ ëªħ
ìķĦ ëĤ´
re li
ë¶Ħ ìķ¼</w>
ne t</w>
ê°ķ ìĽĲ
ìµľì´Ī ë¡ľ</w>
ë¦¬ ê¸°</w>
ìĽĲ ì¹Ļ
ful l</w>
ë¶Ī ìķĪ
íĤ ¹</w>
fi ed</w>
ìĹ ½
do es
ìļ´ ìļ©
ìłķ ìĿĺ
ãħ ĩ
heal th</w>
ìĻ¸ êµĲ
k t
ch e
! !</w>
ì§Ħ íĸī</w>
ì¶ľ ë°ľ
ìłĦ ìĿĺ</w>
ë°©ìĭĿ ìľ¼ë¡ľ</w>
ëĮ ĵ
t al</w>
ic s</w>
ëı Į</w>
ìķĪ íĥĢ
ê³µ ë¶Ģ
ê°Ģ ë©´</w>
star t</w>
does n</w>
ê³µ ëª¨
pl ac
y et</w>
d ro
ë¦¬ ë¡ľ</w>
ëĬĲ ëĥĲ</w>
íķ´ ìĦľ
íķľ ëį°</w>
ìĹ Ħ</w>
ì§Ģ êµ¬
re port</w>
k er</w>
ìĭľíĤ ¬</w>
âĢĻ (</w>
íĥ ĵ
ìĨĮ ë°©
ìĺ¤ ë¥´
requ i
ì¹´ ë©Ķ
ëª¸ ìĿĦ</w>
w ater</w>
íĽĦ ìĹĲ</w>
ce p
ê¸Ģ ìĿĦ</w>
ìĦ¤ ìłķ
ê°Ģ ì¹ĺ
êµ° ìĿ´</w>
ëĭĺ ìĿ´</w>
ìļ° ê³ł</w>
form er</w>
ìĿ¼ ìĿĺ</w>
t ro
ìŀ ī
ë°Ŀíĺ Ģ
univers ity</w>
ë¶Ģ ìĹ¬
ê²ł ì§Ģë§Į</w>
ë¶Ħ ìĿĺ</w>
íĬ¹ ìĪĺ
ëĭ¬ ëĿ¼</w>
ëĲľ ëĭ¤ëĬĶ</w>
ëĨĴ ëĭ¤</w>
ìĵ° ëĬĶ</w>
f oo
ìŀĲ ëŀĳ
ê·ľ ìłķ
ë¥ł ìĿĦ</w>
ì§ĢëĤľ íķ´
ìŀĪ ëĭ¤ë©´</w>
m er
ëĭ ī
ë°Ķ ëĭ¥
íĴĪ ìĿĦ</w>
f ur
pos sible</w>
p ass
ì²Ń êµ¬
op en</w>
s al
ê²½ ê¸°ëıĦ</w>
ì²´ ê°Ģ</w>
ìłĬ ìĿĢ</w>
ì§Ģ ë©´</w>
ì¹ Ń</w>
ëĬĶ ê°Ģ</w>
le ast</w>
ìĹĨ ëĭ¤ê³ł</w>
. ,</w>
enc y</w>
ê°ķëł¥ íķľ</w>
en ough</w>
íħĶ ëłĪ
ë´ ī</w>
ãĨ į</w>
ìĽĮ íģ¬
ë³´ ìŀĲ</w>
ëĤĺë¨¸ ì§Ģ</w>
u res</w>
ëĤ´ ì§Ģ</w>
ê²ĥ ìŀħëĭĪëĭ¤</w>
ìŀĪ ìľ¼ë©´</w>
ê³¼ ê±°
ëŀ Ń
ìĹ° ê¸°
ë°Ķ ëĭ¤
ìĭ Ń</w>
b it</w>
ëł¥ ìĿĢ</w>
ëħĦ ìĹĲëĬĶ</w>
ëĵ¤ ë¡ľ</w>
ì§Ģ ê²Į</w>
ëĤĺ ìĻĶ
ìĭľ ìłĪ
ì§ĢìĨį ìłģìľ¼ë¡ľ</w>
ì·¨ ìĹħ
êµ° ìĤ¬
ìĥģíĻ© ìĿ´</w>
ë°± íĻĶ
ëĮĢíķĻ êµĲ</w>
t ors</w>
t ex
si ons</w>
cour t</w>
ìĬ¤ íĶ¼
êµ ´</w>
is ion</w>
ìĭľë¦¬ ì¦Ī
ë¯¼ ì¡±
íħ Ķ</w>
ì¶ķ êµ¬
h om
ë¶Ī íİ¸
ìĥģ íĻ©</w>
ìķĦìĭľ ìķĦ</w>
ì§Ģ ìĹĲìĦľ</w>
ì§Ģê¸Ī ê¹Įì§Ģ</w>
ìĥĿê°ģ íķľëĭ¤</w>
c ame</w>
ìĭľ ëĮĢ</w>
w on</w>
ëŀ Į</w>
ì¶©ë¶Ħ íŀĪ</w>
íŀĪ ëĬĶ</w>
ì§ĳ íĸī
fi ve</w>
secur ity</w>
ëħĦ ëıĦ</w>
å ®
ëĮĢ ë³Ģ
u tion</w>
lik ely</w>
ê¸į ìłķ
Į ëĭ¤</w>
ìĿ¸ ëĵ¤ìĿ´</w>
spec i
ìĿ´ ê²Į</w>
u ally</w>
ê²½ ë¶ģ
ëĶ ©</w>
le ar
. ...</w>
or ig
gi ve</w>
ì°¨ ìĿ´
êµŃ ë¦½
ìķĪ ìĿĢ</w>
ìĥĪ ëĪĦë¦¬
ìłĦ ë¬¸</w>
ke ep</w>
ê¸°ìĹħ ìĿ´</w>
ì²ł ìłĢ
y or
ì§Ģ ìĭĿ
ìļ° ìĦł
ha ving</w>
ìĺ µ
ìĦ± ìŀ¥</w>
ìĨĮ ìĦ¤
ëĦ ¥
ìŀ¬ ë¥¼</w>
ê³µ ê²©</w>
w an
ê³ł ìĸĳ
ul ar</w>
t able</w>
ê´ĳ ê³ł
ë¹ Ī</w>
ìĽĶ ìĹĲ</w>
ìĿ¸ ëıĦ</w>
ê°ĢìĬ ´
ne y</w>
ìĻ¸ ìĹĲëıĦ</w>
ì°¨ ëŁī</w>
ìķ Ķ</w>
ëł ¬
ë§Ī ì¹ĺ</w>
ëĪĦ ê°Ģ</w>
ëĨ Ī
ìĸ´ë¦° ìĿ´
h y
ê³µ ëıĻ</w>
ëł Ģëĭ¤</w>
ìĦł ë¬¼
def en
ê²Į ìĿ´
ì½ ©
ê°ķ íĻĶ</w>
êµŃ ë¯¼</w>
ë´ī ìĤ¬
ìĿ¼ ë¡ľ</w>
ìĿ¸ ìĪĺ
ëħĦ ìĿ´</w>
ìľł ë¦¬
soci al</w>
import ant</w>
ê¸° ë³¸</w>
ìĿ¸ ëıĦ
ìĥĿê°ģ ìĿ´</w>
el s</w>
ëĭ «
per son
ti ci
ëıĦ ì°©
ft en</w>
ëª¨ë°Ķ ìĿ¼</w>
ìķĦìļ¸ ëŁ¬</w>
ìĦ¤ ê³Ħ
ê·¸ëŁ¬ ë©´ìĦľ</w>
íĬ ¼
ìĿ´ ëĭ¬</w>
busin ess</w>
h un
posi tion</w>
ìģ ľ</w>
ìĹ° ê³Ħ
ìµľ ê·¼
dre n</w>
ëĮĢ ë²ķ
ê³Ħ ìĹ´
pres s</w>
actu ally</w>
ì§Ģê¸Ī ìĿĢ</w>
ë§Į ìķ½</w>
íĺĲìĿĺ ë¡ľ</w>
ë¹Ħ ëĬĶ</w>
ê´Ģëł¨ ëĲľ</w>
ëŁ ´</w>
whe ther</w>
enc es</w>
ear ly</w>
pr is
m ag
ëł¥ ê³¼</w>
ëıĻ ìĿĦ</w>
ìľ ¤</w>
ìķĺ ëįĺ</w>
íĶĦë¦¬ ë¯¸
rus si
ìĿ´ìľł ë¡ľ</w>
chil dren</w>
ì² Ļ</w>
ìĪľ ê°Ħ</w>
g oo
êµŃ ë°©
ëıĦ ìłĦ
ê°Ĳëıħ ìĿĢ</w>
íĥ Ī</w>
ìĥĿ ìĤ°</w>
ë³´ìĹ¬ ì£¼
ì¡° ì¹ĺ
ë§Ĳ ê³ł</w>
ëıĦ ìĦľ
ìĸ´ ëĬĶ</w>
íĨ ¤
ìĨĮ íĶĦ
fr on
ê± ·
ëĦĺ ëĬĶ</w>
ìĹ´ ê³ł</w>
ìĿĺ ìĤ¬
sever al</w>
s un
o ften</w>
ì¹ ¸
ìĥĿê°ģ ìĿĦ</w>
bl ack</w>
íķµ ìĭ¬</w>
d am
hum an</w>
ê·¸ ëĵ¤ìĿĢ</w>
in st
ê¸Ī ìĿĢ</w>
ë§ĲìĶ Ģ
ê±° ìļ´</w>
ìłĦ ëħĦ</w>
ëĤ¨ íİ¸
ìĨĮ íĻĶ
en ing</w>
ë¬¸ ìĿ´</w>
ì±Ħ ìļ©
ì¤ĳ ìĹĲìĦľ</w>
l ab
ë³´ ìĿ´ê³ł</w>
le vel</w>
t ook</w>
en ed</w>
pri v
íĸ¥ íķ´</w>
ë§Ĳ ìĹĲ</w>
ì§Ģ ìĸ´</w>
ë°© ìĿĦ</w>
ìĬ¤ íĥĢ</w>
ì» µ</w>
ëķĮ ê¹Įì§Ģ</w>
ëĬ¥ ëł¥ìĿĦ</w>
sm all</w>
ëĪĪ ìĿĦ</w>
ìĭľìŀ¥ ìĹĲ</w>
ìĽĲ ëĤ´
ê±° ë¶Ģ
ê³ ¨</w>
ìĺĪìĥģ ëĲľëĭ¤</w>
ë°ľ ìĿĦ</w>
ìŀĪ ìĿĦ
ìļ´ ëıĻ</w>
íı¬ ê¸°
m ain</w>
ic t</w>
ìĦ¸ ì¢ħ
ìĽĲ ëŀĺ</w>
' m</w>
ëªħ ëł¹
p ast</w>
ë²ł íĬ¸
ìĸ´ ì§Ħ</w>
ìĬ¤íı¬ ì¸ł
ìķĪ ìĿĺ</w>
ëį ©
ê°ľ ìĿ¸</w>
s af
ë¡ ±
ëįĶë¶Ī ìĸ´</w>
vide o</w>
char ac
fe at
ìĿ¼ ìŀĲë¦¬</w>
ëıħ ìĿ¼</w>
ê²ĥ ìĿ´
s n
ëĶĶ ìĬ¤
ëį°ìĿ´ íĦ°</w>
bec ome</w>
íķĺ ëĭĪ</w>
ìĭ ¼</w>
ìĹ¬ ë¦Ħ
g s</w>
fe der
su cc
ìĸ´ ë¡ľ</w>
ëĳ ĺ</w>
ìĿ¸íĦ°ëĦ ·
íķ ĳ</w>
ì¦Ŀ ê¶Į</w>
ì¡° ìĿĺ</w>
ì°¨ ëĬĶ</w>
ê²° íķ©
ë¬´ ìĭľ
ì§Ħ ìĿ´</w>
ê³µ ìĿĦ</w>
íĭ Ģ</w>
íĶĦëŀĳ ìĬ¤</w>
ê²Ģ ìĤ¬</w>
ì¡° ê±´</w>
per son</w>
h tt
ëŁ ´
ê·Ģ ìĹ¬
ëĵ ¬
g er</w>
ë¹ł ë¥¸</w>
a w
b il
ìĦ¸ ìĽĶ
ìłĦ ëĤ¨
ìłķ ë¦¬
ê¸°ëĬ¥ ìĿĦ</w>
b ra
ìĬ¤ íħĮ
ìľł ìĿĺ</w>
ê°Ģ ìĹĲ</w>
y es</w>
íķĺê³ł ìŀĲ</w>
ê²½ ì°°</w>
c al
con tr
p ly</w>
ëĮĢ ìĹĲìĦľ</w>
ë§Į ëĤĺ</w>
êµ¬ ìĨį
ìĥģ íĴĪ</w>
ë¯¸ ìĪł
ìĹ¬ê¸° ìĦľ</w>
ëĭ¹ ìĿĦ</w>
ë³´ íĨµ</w>
v s</w>
em plo
ê¸Ī ìľµ</w>
ìĹ° ì¶ľ
ëĵ£ ê³ł</w>
ë¹ł ë¥´ê²Į</w>
ì¶Ķ ìłķ
do ing</w>
ìĤ¬ ì§Ħ</w>
íıīê°Ģ ë¥¼</w>
ëĮĢ ëĭµ
ãħ ľ
ë¯¸ ë¦¬</w>
play ers</w>
mo ve</w>
ê³µ ê°ľ</w>
m y
ìĥĿ íĻľ</w>
a red</w>
ëĥĲ ëĬĶ</w>
pa ren
íķĺ ëĭ¤ê°Ģ</w>
êµĲìľ¡ ìĿĦ</w>
ë©´ ìĿ´</w>
ìľ¼ ë¯Ģë¡ľ</w>
li ve</w>
íģ °
ìĹ´ ìĭ¬íŀĪ</w>
ex pl
ìĤ¬ìļ© íķł</w>
ìĻ¸êµŃ ìĿ¸</w>
ë°Ķ ëŀĢëĭ¤</w>
t ar
ìļ´ ìłĦ
ê°ľ ìĦł</w>
ê³ł íĨµ
ì°¨ ë¡Ģ
ìĺ¤ ë¥¼</w>
ë§¤ ìĿ¼</w>
ì¡¸ ìĹħ
c k</w>
ìĨĮ ëĬĶ</w>
ê²Ģ ìĤ¬
ê²½ì°° ìĿĢ</w>
e ty</w>
com ing</w>
ìĦ± ê²©
contin u
cen tr
vi ol
ìĥĿ íĥľ
ì°¸ ê³ł
pr in
ac ks</w>
ìĿ´ ë¥´
ìĿĺ ìĭĿ
ìĿ´ ì²ĺëŁ¼</w>
yor k</w>
ê¸¸ ìĿ´</w>
íĺ¸ íħĶ
as si
comm it
ìĺģ ìĹŃ
ãħİ ãħİ</w>
ë± ħ
ëĬĶ ê²Į</w>
ë° ´
t ak
ëĳ Ķ
ê±± ìłķ
st and</w>
ê°ľ ìļĶ</w>
ìħĪ ìĿ´ëĭ¤</w>
íļ¨ ê³¼</w>
ëģĿ ìĹĲ</w>
le y</w>
se en</w>
ìĭľì¼ ľ
ent al</w>
ìķĦ ë§Ī
ìķł ëĭĪ
ëĤ Ń
ë¶Ī ê°Ģ
in du
ë¨¸ ëĭĪ</w>
íĹĪ ìļ©
ë³´ ìķĺëĭ¤</w>
commun ity</w>
ëıĦ ìĽĢìĿĦ</w>
ê²½ ê¸°ë¥¼</w>
íķĺ ìŀĲ
ëŃ Ĳ</w>
pos ed</w>
ê¸° íĥĢ</w>
fu ture</w>
ë¥ł ìĿĢ</w>
ìľĦ ìĹĲìĦľ</w>
le ag
ìĭľ ìłĪ</w>
ê·¹ ë³µ
ìĵ° ê³ł</w>
ìķĦëĭĪ ë©´</w>
ëĵ± ê³¼</w>
ìľł ëĭ
b al
ìĩ¼ íķĳ
ê°Ģ ìļĶ</w>
ëĵł ëĭ¤</w>
ëĤĺ ìĦ°ëĭ¤</w>
ê³³ ìĿ´</w>
ë¶ĢíĦ° ëĬĶ</w>
gi ven</w>
k ill
ro ss</w>
ì¦Ŀ ê°Ģ</w>
mem ber</w>
ë°Ľ ëĬĶëĭ¤</w>
ì¹ĺ ì§Ģ</w>
íı¬íķ¨ íķľ</w>
íĬ¹ ìłķ</w>
ëı ķ
ìĿĺ íļĮ</w>
íĺĦ ìŀ¥</w>
ìĺĪ ë¹Ħ
ìłĲ ìĿ´ëĭ¤</w>
ëª¨ìĬµ ìĿ´</w>
inv esti
g ed</w>
íĶĦë¡ľê·¸ëŀ¨ ìĿĦ</w>
ìĭľë¦¬ ì¦Ī</w>
ìĤ¬ìļ© íķĺëĬĶ</w>
ê²Į ëĭ¤ê°Ģ</w>
h n</w>
ìĪĺ ìĽĲ
ëĶĶ ìĺ¤</w>
ìĿ¸íĦ° ë·°
ì£ Ħ</w>
ìĿ´ìļ© íķ´</w>
ëĭ¤ ìĨĮ</w>
ê¸° ìļ¸
with in</w>
ìµľ ìłĢ
ëī´ ìĭľìĬ¤</w>
en ds</w>
íİ¼ ì³Ĳ
contro l</w>
ì°¾ ìķĦ</w>
íķĺëł¤ ê³ł</w>
am ong</w>
ëĵľ ìĹĲ</w>
c ent
ë¨ ¼</w>
ìĭľ ìŀ¥ìĿĦ</w>
ëĭĺ ìĿĺ</w>
ì±Ķ íĶ¼
íģ´ ëŀĺ
ìłķì¹ĺ ìłģ</w>
or ity</w>
ê²ĥ ìĿ´ìĹĪëĭ¤</w>
ì§Ħ ìĿĢ</w>
íĶĦ ëĿ¼
ë¦¬ ëįĶ
cour se</w>
fiel d</w>
ëĤ´ ìĹĲìĦľ</w>
ìĭľíĤ¤ ê³ł</w>
ë© °
ë¯¸ ìĤ¬
do w
ì¢ħ êµĲ
ìĥĪ ë¡ľ</w>
ëĤĺ ë§Ī</w>
ë³µ íķ©
íĻĶ íķĻ
ë°° ìļ°</w>
ci al</w>
ìłķì±ħ ìĿĦ</w>
ê¸Ī ì§Ģ
ì²´ ìĿĺ</w>
ìķĦ ìĿĺ</w>
ìĺ¨ ëĿ¼ìĿ¸</w>
re public
êµŃ íļĮ
campaig n</w>
l a</w>
g lo
f el
ëį ¤
es day</w>
hi story</w>
ë¡ľ ë´
ë¶Ģ ë¡ľ</w>
ìĬ¤ ì¹´
d one</w>
íĶ Į</w>
ì°½ ì¶ľ
ìĶ¨ ë¥¼</w>
ìŀ¥ê´Ģ ìĿĢ</w>
w ent</w>
ìĵ ´</w>
ê±° ëŀĺ</w>
ìĸµ ìĽĲìľ¼ë¡ľ</w>
po t
ë¡ľ ê°Ģ</w>
ìĬĪ íį¼
ëĨį ìĹħ
serv ice</w>
as ked</w>
ì§ Ŀ
ëł¥ ìĿĺ</w>
ê²¨ ìļ¸
ë² ¼
ë¶ Ī</w>
ì£¼ ë³Ģ</w>
ë© Ī
m ay
ãģ ®
ì§Ģ ëĭĪ
ìĦ± ëıĦ</w>
d ou
th re
mil it
íĺ¼ ìŀĲ</w>
ìķĦ ìĺĪ</w>
ëĭ¨ ìĹĲ</w>
fe el</w>
ëģ Ķ
str y</w>
organ iz
æ ĸ
íķ Ģ
íĶĮ ëĿ¼
ì½ĺíħĲ ì¸ł
ë§¤ ì¶ľ</w>
ìķĦ ë¥´
ëĮĢ ê·ľëª¨</w>
ìŀĲ ëĵ¤ìĿĦ</w>
ëıĻ ë¬¼
ëĭ¹ ìĦł
ê¶Į ìĿ´</w>
íİ¸ ìĿĺ
ë² ½</w>
ê°Ĳ ëıħ</w>
ìłķ ìľ¼ë¡ľ</w>
ëĵľ ë¡ľ</w>
ìŀĲ ìľ¨
gener al</w>
ê¸Ī ë¦¬</w>
exam ple</w>
ob ama</w>
ìĭľìŀ¥ ìĿ´</w>
íķ´ ì§Ħ</w>
con cer
ìķ Ĺ
ì²ŃìĻĢ ëĮĢ</w>
íĸĪ ê¸°</w>
ãĦ ±
ê¹Ĭ ìĿĢ</w>
ìłĦ ëĤł</w>
re pres
th ir
íĥľ ìĸĳ
c are</w>
ìĸ´ ë¦°</w>
ì¥ Ĳ
ì¤ĳêµŃ ìĿĺ</w>
ìĭľ ê°ģ
ìĿ´ ìłĦ</w>
ë°ľìĥĿ íķľ</w>
ë°° ë¥¼</w>
ë° ¸
ìķĦ ëıĦ</w>
he ad
ê±¸ ì³Ĳ</w>
ìĿĳ ëĭµ
ìłľ ëıĦ
ser ies</w>
b ed</w>
ìĤ¼ ìĦ±</w>
l at
ë§Ī ë¬´ë¦¬
ëĭ´ ìĿĢ</w>
íķĺ ëįĶëĿ¼ëıĦ</w>
ë¶Ī ëŁ¬
ìĿ¸ê°Ħ ìĿĺ</w>
íĺ ¼</w>
ë¥ĺ ë¥¼</w>
ìĹĲê²Į ëıĦ</w>
loc al</w>
ëĶĶì§Ģ íĦ¸</w>
r ing</w>
ê·¸ ê²ĥìĿĦ</w>
íĸī ìĤ¬</w>
our s</w>
ìĹ° ê°Ħ</w>
d en</w>
ê³ł ê°Ŀ</w>
ë°ĺ ë³µ
ì£¼ ì°¨
ìĹ´ ë¦¬ëĬĶ</w>
ê·¸ëħĢ ìĿĺ</w>
ìłĳ ì´ī
ìŀ¬ ë°
ìĭľ ìĻĢ</w>
ëħĦ ìĿĺ</w>
h or
ê³Ħìķ½ ìĿĦ</w>
ìĤ¬ìĹħ ìĹĲ</w>
ì¡° ë¥¼</w>
ë¯¸ ìĦ¸
un e</w>
ch ed</w>
ë¶Ģ íĥģ
ê·¸ ëĵ¤ìĿĺ</w>
ë°° ê²½
ëĲĺ ìĸ´
ing ton</w>
av ail
ì§ĢìĹŃ ìĹĲ</w>
ìłĢ ëıĦ</w>
ê³³ ìĿĦ</w>
r an
ê·¸ ëŀĺ</w>
t a</w>
lar ge</w>
íĺ ģ</w>
k ind</w>
ad di
íĸ ĩ
íļĮ ìĽĲ
investi g
ìŀĲ ê¸Ī</w>
mem bers</w>
ëŁ¬ìĭľ ìķĦ</w>
ìĸ ¼</w>
êµ¬ ìĹĲ</w>
ê¾¸ì¤Ģ íŀĪ</w>
ur y</w>
ful ly</w>
e vi
ë³¸ ë¶Ģ
ë¦¬ ë©°</w>
íĮĮ ê´´
hal f</w>
íĨ ¡
in ste
ìľł ëĭĪ
ìĿ´ìĸ´ ìĦľ</w>
ìĹŃ ëĮĢ</w>
ãħł ãħł</w>
ìľĦ íĺĳ
' ;</w>
íķ¨ ê»ĺ
ëŀ į
ì§Ħ íĿ¥
ëļ ľ
ëŁī ìĿĢ</w>
ìłķ ì¹ĺ</w>
d om
ìį ¼
ìĭł ê²½
ëĮĢ íĺķ
ë°ķ ê·¼
d in
ëĤ¨ ìķĦ</w>
m b
ìķĪ ìĹĲìĦľ</w>
ìĻ¸ ìĹĲ</w>
ëĬĲ ê»´
íı ī</w>
wor k
proc ess</w>
d a</w>
ë£ ¡
ìŀĪ ìĸ´
íĺĳ íļĮ</w>
ar ing</w>
pro ject</w>
ìĿ´ë²Ī ìĹĲ</w>
tr u
follow ing</w>
ê³µ ìĽĲ</w>
íĮĲ ê²°
ìĭ¤ íĹĺ
ìłģê·¹ ìłģìľ¼ë¡ľ</w>
ë§ŀì¶ °</w>
ê¸° ìĹĲëĬĶ</w>
ìŀĲ ëħĢ
ê³³ ìĿĢ</w>
ìĤ¬ ê³¼
o thers</w>
ìĭ¤ ì²ľ
: //</w>
ìķĬ ê²Į</w>
ìĹĲ ìĸ´
ëĿ¼ ìļ°
ê°Ģê¹Į ìļ´</w>
âĹ ĭ</w>
l ist</w>
wid th</w>
inv ol
ìĿ¼ë³¸ ìĿĺ</w>
ê³µ ìĭĿ
ì§Ģ êµ¬</w>
ëĤ¨ ìŀĲ</w>
an al
ë§Ī ë²ķ
com es</w>
ìłĦ ìļ©</w>
ë¨¸ ë¦¬
resear ch</w>
w w
ìĵ ¸</w>
íİĺ ìĿ´ì§Ģ</w>
ë¬¼ ìĹĲ</w>
m ing</w>
ph one</w>
ëĵ¯ íķľ</w>
ìĦł ìĿĺ</w>
ìĤ° ìĿĦ</w>
ëĮĢ ìĻĢ</w>
ëĵł ì§Ģ</w>
ë¶Ī ë²ķ
ìŀł ìĭľ</w>
ìĦľ ìĹĲ</w>
ìľĦìĽĲ ìŀ¥ìĿĢ</w>
ëĤ ¸ëĭ¤</w>
ì§Ī ìĿ´</w>
ëĮĢ ëĭ¨
íģ¬ ë¦¬ìĬ¤
ëĸ ¨
as h</w>
mon ths</w>
youn g</w>
ë²Ī ìĹĲ</w>
ë¶ ķ
ê°Ĳ ìķĪ
ìĬ¤íĤ ¬
ë°©ë²ķ ìĿĦ</w>
íıīê· ł
m er</w>
ìķĦ ì¹¨
t est</w>
ãĢ Ĭ</w>
k b
ìĥģ ìĹĲìĦľ</w>
íĨµ íĻĶ
to ge
ë¡ľ ëıĦ</w>
ìĭľìŀĳ íķľ</w>
ge tting</w>
ì§Ģ ê¸°</w>
ë°° ì¶ľ
ëĵ± ìĹĲìĦľ</w>
ë¥ Ļ
ìĥĿíĻľ ìĿĦ</w>
ê°Ģ ì¹ĺë¥¼</w>
ëĮĢ ì¶ľ</w>
a ti
. )</w>
ìĭ¤ ì§Ī
ì£¼ ë¬¸
êµĲ ìĪĺ</w>
ìĿ´ ë¡ľ</w>
ëĤĺ ë¬´</w>
ì°¨ ìĿ´ê°Ģ</w>
c us
å ı
off ice</w>
toge ther</w>
ê´ Ħ
íĺĦ ìŀ¥
ï¼ į</w>
ë³´ ë¥¼</w>
ëķĮ ëıĦ</w>
t ty</w>
íķĺê²ł ëĭ¤ê³ł</w>
mar ket</w>
ë°ľíĳľ íĸĪëĭ¤</w>
des cri
ìĤ¬ ìĹĲìĦľ</w>
íģ¬ ë¦¬
ë¹ ļ
ìķĦë¬´ ë¦¬</w>
em ents</w>
âĸ ł</w>
ìķĦ ëıĻ
ì¹´ ì¹´
ìĹ¬ ìŀĲ</w>
d ar
ìĭľì¼ °ëĭ¤</w>
ê´Ģ ê°Ŀ
ìĭľíĤ ¨</w>
ëŀ ľ</w>
ê¶ģ ê¸Ī
i p
ëį° ë¯¸
de v
l u
ì§ĳ ëĭ¨
ìĺ¬ë¦¼ íĶ½</w>
íĿĲ ë¦Ħ
íģ¬ ëĭ¤</w>
ë³´ ë©°</w>
ìĿ´ ë¦Ħ</w>
ìķŀ ìľ¼ë¡ľëıĦ</w>
ìĿ´ ëĵ¤ìĿ´</w>
ë¹Ħ ìļ©</w>
ìĿ¼ ìłķ</w>
ìĦ± ëĬ¥
ìĿ¸ ê·¼</w>
ìĿ¸ ìĥģ
ìĹ ī
ëĲĺìĹĪ ê³ł</w>
ìłĲ ìłĲ</w>
d ly</w>
ê°ķ ëĤ¨
tr an
de t
íĮ ©
ìŀĳ ìĦ±
ìĥģ ì§ķ
ì£¼ ìĭľ
ëł¤ ë©´</w>
ìłľ ìĹĲ</w>
ëĵ± ê¸ī
ì°½ ì¡°
ëįķ ë¶ĦìĹĲ</w>
ê¶Į ìĹĲ</w>
ìłľ íķľ</w>
ìĸ´ëłµ ëĭ¤</w>
ìĻĦ ë²½
ch ec
ìľĦì¹ĺ íķľ</w>
ë¡ł ìĿĦ</w>
ac ross</w>
ë²Ĺ ìĸ´
ìĩ ł
íĺĦ ì§Ģ</w>
roo m</w>
ë§ĪìĿĮ ìĿ´</w>
es p
ìĿ¸ ê³µ
p t
qu e</w>
ìĭ¤ ìĹĲìĦľ</w>
c all</w>
ìĭł ìĿ´</w>
ë¡ľ ìĿ´
ëĵ¤ ìĹĪ
ë³´ ìĪĺ
orig in
b ack
ìĿ´ ê±´</w>
ìłķ ëĭ¹
th an
no v
ìļ°ë¦¬ ëĤĺëĿ¼
ëĭ¬ ëł¤
ë¨¹ ëĬĶ</w>
ìĺĪ ìĤ°</w>
loo king</w>
me ans</w>
t em
sp ace</w>
l dn</w>
ìŀĲ ê²©
f oc
nor th</w>
ì±Ħ ëĦĲ
íķ© ë¦¬
mon th</w>
ì¶ľ ìĭł</w>
ìĿ¸ ìĹĲ</w>
ê°ĸ ì¶Ķ
ìĥģ ê³µ
ìĻĦ ë£Į
ìŀĲë¦¬ ìĹĲ</w>
ìıŁ ìķĦ
ìľ Ī
ëĦ ·
ê±° ì£¼
íĬ¹ë³Ħ íķľ</w>
inter e
êµ¬ ìŀħ
par tic
ìķĦëĭĪ ê³ł</w>
ê³Ħ ìķ½</w>
c y
ë İ
b it
ol e</w>
ìĨĮ ë¦¬ë¥¼</w>
ì¤¬ ëĭ¤</w>
êµŃ ë¬´
b loc
inter national</w>
íļĮ ìĿĺë¥¼</w>
j us
ëĤĺ ê°Ģ</w>
ë§Ī ìĭľ
ì¦Ŀ ê±°
ìļĶì¦ ĺ</w>
ë²Ī ì§¸
cle ar</w>
ìĿĮ ìĿ´</w>
ê·¸ ìĹĲ</w>
ë¹Ħ íĸī
as soci
w in</w>
ëĤĺ ìļĶ</w>
gr ound</w>
v ari
belie ve</w>
ê¹ Ŀ
ê³Ħ ê°Ģ</w>
ìłľê³µ íķĺëĬĶ</w>
íĺĦì§Ģ ìĭľê°Ħ</w>
ìľĦ ê¸°</w>
play er</w>
en er
ìĿ¸ ì§Ģ
ëłĪ ë²¨</w>
ë§ŀì¶ ¤
ì¶Ķê°Ģ ë¡ľ</w>
sc ri
th ought</w>
ê°ľ ê°Ģ</w>
la w
ìĥģíĻ© ìĹĲ</w>
ac coun
ìŀĲ ë£Įë¥¼</w>
ë¶Ģ ë¬¸</w>
wh o
ê·¸ ê²Į</w>
ë³´ íĹĺ</w>
ìĪ¨ ìĿĦ</w>
ì°¾ ëĬĶ</w>
ìĪľ ê°Ħ
ê¼ ¼
ìľĦ ë°ĺ
ëĶ ±
íĽ Į
íĺ¸ ìĿĺ</w>
ìĹ ł
ìĿ¸ ëĵ¤ìĿĺ</w>
ìĿ¼ ìĿ´ëĭ¤</w>
ë°© ìĹŃ
ê±° ëĵ
ê³ §
ìłķ ìĿĺ</w>
ëĤ¨ ìŀĲ
ìłģ ìĿĺ</w>
ìĸµ ìĽĲ
de part
ìĪĺ ìĦĿ
d n
ìĹ° ìŀ¥
ch ing</w>
ê³¨ íĶĦ
íķ´ ì£¼ëĬĶ</w>
ëĮĢë¶Ģë¶Ħ ìĿĺ</w>
íĬ¸ ìĻĢ</w>
ìĿ¼ ê³¼</w>
gra m</w>
ìµľ ì¢ħ
ì£¼ ë¯¼</w>
are a</w>
ç ¾
ë¨ ¸</w>
íİĢ ëĵľ</w>
n al</w>
an a</w>
íķĺ ë©´ìĦľëıĦ</w>
íĮĲ ìĿĦ</w>
do m</w>
j our
ì¶ľ ìĭľ</w>
ty pe</w>
ê°Ģ ë¡ľ</w>
ëª¨ ë¥¼</w>
ìļ ±
ìĿĺ ìĭ¬
for ce</w>
ëĮĢíķľë¯¼ êµŃ</w>
ì» µ
ed it</w>
ìĤ¶ ìĿĺ</w>
ìłĦ ìŁģ</w>
ç Ķ
ë²ķ ë¬´
êµĲ ìĪĺ
avail able</w>
ìĬ¹ ë¦¬
ìĦľ ê°Ģ</w>
l er</w>
ìĪĺ ë§İìĿĢ</w>
ìĹ¬ ë¶Ģë¥¼</w>
ìĹ° ìĬµ
i an</w>
m akes</w>
de b
ëĲľ ëĭ¤ê³ł</w>
ê¸° ê¹Įì§Ģ</w>
f c</w>
pr ac
ìĤ¬ ìĥģ</w>
ann oun
ë²ķ ìĹĲ</w>
f oun
ìĽĶ ê¹Įì§Ģ</w>
al most</w>
ìĿ´ ëĵ¤ìĿĺ</w>
inste ad</w>
ê·¸ ê²ĥìĿ´</w>
proble m</w>
å ľ
re si
ê³µ ìŀ¥</w>
ê·¸ ëķĮ</w>
ìĺ¤ ëŀĺ
ë§Ī ë¥¼</w>
êµ ī
ìĺ¤ íĶĦ
---- ----
ëĿ Ħ
ëł¥ ìľ¼ë¡ľ</w>
ê²½ìļ° ëıĦ</w>
fun c
ì» ¬</w>
st and
ï ½
ìŀĳ ëħĦ</w>
ex c
ìķĦìĿ´ íħľ
ì§ĳ ìĹĲìĦľ</w>
ìķ¡ ìĿĢ</w>
ìĦ±ê³¼ ë¥¼</w>
ë°ľíĳľ íķľ</w>
americ a</w>
ìł ¤
íĻĶ ìĿĺ</w>
r ac
bo ard</w>
n er
id enti
ìľĦ íķ´ìĦľ</w>
? âĢĿ</w>
ìĤ¬íļĮ ìĿĺ</w>
ìĥĪ ë¡Ńê²Į</w>
ìĹ° ëĿ½
ê°Ģê²© ìĿ´</w>
íĽĦë³´ ëĬĶ</w>
ëĨĵ ìĿĢ</w>
ëĵľ ëŀĺ
ë³´ ëĭ¤
ë°ĶìĿ´ ìĺ¤
ìĭ¤ íĺĦ
âĸ ¶</w>
jo hn</w>
ìķĦìĿ´ ëĶĶ
ìĿ¸ ìĥĿ
ìĿ¼ ìĹĲëĬĶ</w>
o w</w>
maj or</w>
ìĨį ìľ¼ë¡ľ</w>
íĻ į</w>
ri ghts</w>
ìĤ¬ ìŀ¥ìĿĢ</w>
ì§Ģ íľĺ
ëħ¸ ì¡°
com pe
ti n</w>
ì¸¡ ìĿ´</w>
n on</w>
comp an
ìĨĮ ìŀ¬</w>
ìĭł ìĿĺ</w>
ìĿ´ ê±°</w>
ìŀĲ ê¸Ī
in f
ëĥĲ ê³ł</w>
ë°ľ ìĥĿ</w>
ë£ ©
ìŀĲ ëĵ¤ìĹĲê²Į</w>
issu e</w>
ì¡° ì¹ĺë¥¼</w>
ìŀ¥ ê´Ģ</w>
© ëĭĪëĭ¤</w>
ë¬¸ ìŀ¬
ëĮĢ ë¹Ħ
ëĭ¬ ëĿ¼ê³ł</w>
as n</w>
ê³ł ìŀĲ</w>
íĥ ±
s us
ìĸ´ ìļ¸
k m</w>
ìłľê³µ íķľëĭ¤</w>
ëĤ¨ ë¶ģ
ìķĪ ëĤ´
íĮĢ ìĿ´</w>
h and
íļ ¡
polic y</w>
ìłĦ íķľ</w>
gi r
ì¢ħ ëª©
ìłľìĻ¸ íķľ</w>
ì±ħìŀĦ ìĿĦ</w>
ìĭ¬ ë¦¬
ìĪĺ ìĤ°
ad ded</w>
si mil
off ic
ì¤ĳìļĶ íķĺëĭ¤</w>
ì²ĺ ë²Į
ìĦ¸ ê¸°</w>
el e
t wit
de al</w>
sec re
ìĪĺëıĦ ê¶Į</w>
ëĮĢ ìļ°
íĺ ĳ</w>
ê¸° ë¡Ŀ</w>
ìĪĺ ìĤ¬</w>
feder al</w>
âĢ ľ
' ve</w>
al ong</w>
ww w</w>
ì´ Į</w>
íĮĢ ìĿĢ</w>
ë§Īì°¬ê°Ģì§Ģ ë¡ľ</w>
l ong
ëĲĺ ëĬĶëį°</w>
r ul
íĻľ ìķ½
ëĭ¤ íĸī
íĤ ¨
ëľ» ìĿĦ</w>
min u
i ght</w>
ê² ¹
ìļĶ ìĿ¼</w>
ìĿ´ ê²ĥìĿĢ</w>
consi der
íĳľ ë¥¼</w>
ê²Ģ ì°°</w>
ìĨĮ íķľ</w>
ìı ĺ
íĥľ ìĸ´
ì¤ ĺ</w>
íĻĪ íİĺìĿ´
ì£¼ ê±°
ìłľ ê±°
im pro
ìĿ¼ ê¹Į</w>
ìĭľìĬ¤íħľ ìĿĦ</w>
ëĤĺìĺ¤ ê³ł</w>
ìĺ¤ ë¥¸
ëĤ´ ë¶Ģ
t t</w>
ì»¤ ë®¤
f av
ë£Į ë¡ľ</w>
ê³Ħ ìĿĺ</w>
ìĿ¸ ê¶Į
star ted</w>
ìĽ ¹
be h
ì¤ĳ íķľ</w>
ëª» íķ´</w>
ê°ľ ìłķ</w>
si on
ìłľ ìĿ¼</w>
ë¹ł ìł¸
íĸī ìĤ¬ë¥¼</w>
ìĤ¶ ìĿĦ</w>
ìĸ´ ìĿĺ</w>
íĻķìĿ¸ íķł</w>
ê³ł ìłķ
ëĬĺ ìĹĪëĭ¤</w>
ëħ¼ëŀĢ ìĿ´</w>
ìĬ¤íĬ¸ ëłĪ
" ,</w>
ëĶ° ëľ»
w ash
g ar
ì§ģ ìĹħ
b ill</w>
ë¹Ħ ëĤľ
íıŃ ë°ľ
in ed</w>
ìĿ´ë²¤ íĬ¸</w>
ìŀĲ ìłĦ
ìĻ ¼
a h</w>
cl ass</w>
êµŃ ìĿĦ</w>
ra ther</w>
ì¤ĳìĨĮ ê¸°ìĹħ
ì¡° íķ©</w>
ê²Į ëıĦ</w>
ìĬ¤ íĥ
íĳľ ìĭľ
êµŃë¯¼ ìĿĺ</w>
ê²½ê¸° ìĹĲìĦľ</w>
tiv ely</w>
âĢ¦ âĢ¦</w>
íĬ Ģ
ì²ŃìĨĮ ëħĦ
ë¿Ĳ ìĿ´ëĭ¤</w>
ëĪĦ êµ°
rec ent</w>
ìĬ¤íı¬ ì¸ł</w>
s cre
im age</w>
ìłķëıĦ ìĿĺ</w>
s il
an im
ìĪĺ ì¶ľ</w>
ic ally</w>
ìĤ¬ íķľ</w>
ê¸°ìŀĲ íļĮ
ë¥ĺ ìĿĺ</w>
in e
ê°Ģ ëŁī</w>
ìķĦ ìī¬
ìĿ´ ëķĮ</w>
ìĬ¤ ì¼Ģ
ìĦ ¯</w>
ëĭ Ń
en ted</w>
ch es</w>
ìĹĺ ë¦¬
ë© ľ
íĮĮ íĬ¸
p c
st y
ì»¤ë®¤ ëĭĪ
ê¾ ¼
ìķĬ ëıĦë¡Ŀ</w>
ìĭ¬ íķľ</w>
ìµľ ìĦłìĿĦ</w>
ë§Ĳ íķĺëĬĶ</w>
ãİ ŀ</w>
ìĺ¤ ë¦¬
ê¹ ľ
ê¸° ì§Ģ</w>
íİĺìĿ´ ìĬ¤
ëĵ¤ìĸ´ ê°Ģ
en ded</w>
ìĿ¸ ê¸°ë¥¼</w>
ëħ Ĳ</w>
experi ence</w>
o s
ë¯¸ ëŀĺ</w>
sou th</w>
ì¡° ìĦł</w>
m om
ê°ľ ë¡ľ</w>
ain ing</w>
ide a</w>
íĨ ¤</w>
ìłĦ ìŀĲ</w>
ë¶ģíķľ ìĿĺ</w>
ì¦Ŀê°Ģ íĸĪëĭ¤</w>
ë¬¸ ìĿĺ</w>
u t
ìĤ¬ìĭ¤ ìĿ´</w>
ë¯¸ ë¥¼</w>
ë§Ī ìŀĲ</w>
str ation</w>
ëĮĢíĳľ ìłģìĿ¸</w>
ìĥģíĻ© ìĿ´ëĭ¤</w>
ì« ĵ
ìŀĪ ìĸ´ìķ¼</w>
ë§ŀ ì¶Ķ
ìŀħ ìĿĢ</w>
c are
íķĺ ìĹ¬
st ar</w>
ëĤĺ ê²Į</w>
ë§Į ìľ¼ë¡ľ</w>
ë§ī ìĿĦ</w>
ìĤ¬ìĹħ ìĿĢ</w>
íĺĳ ëł¥</w>
ti t
ìĿ¼ ìĸ´ëĤĺ
íļĮ ìĻĢ</w>
si b
st a
ëł Ģ
íĺķ ìĿ´</w>
ë³´ ì§Ģ</w>
ì§ĳ ê³Ħ
d ru
íĹ Ī</w>
ìĿĺë¯¸ ë¥¼</w>
ì¶ ¤
ëĤ ³
íģ¬ ë¥¼</w>
cen ter</w>
ìķĦë¦Ħ ëĭ¤ìļ´</w>
leg al</w>
íĴ į</w>
tr ying</w>
ìķł íĶĮ
íĺ¸ ê°Ģ</w>
ìĺ¬ ëł¤
ìĦł ìĹĲ</w>
íĻĶ ëĬĶ</w>
íĬ ¼</w>
w est</w>
is n</w>
êµī ìŀ¥
ëĭ¹ ë¶Ģ
ê¸° ë¶Ģ
depart ment</w>
ìĺ¬ ëł¸ëĭ¤</w>
ëĵ¤ ìĿ´
ëį°ìĿ´ íĦ°
jo b</w>
íķ´ ìĻĶëĭ¤</w>
ê°Ģê²© ìĿĢ</w>
íķĻ ëħĦ</w>
âĹ İ</w>
% (</w>
ëĮĢíķ´ ìĦľëıĦ</w>
pro gram</w>
ìĭľìŀĳ ìľ¼ë¡ľ</w>
êµĲ ê³¼
ëįĶ ëĿ¼</w>
ìķĪ ìľ¼ë¡ľ</w>
ìľĦ íķĺìĹ¬</w>
ë³´ ìĿ´ì§Ģ</w>
ìĺ¤ ê³ł</w>
ìĹħ ë¬´</w>
ìĥģ ìĬ¹</w>
as k</w>
ìķĮ ìķĺ
w ed</w>
curren t</w>
ìĨĮ ë¦¬</w>
ab o
ì¦Ī ëĭĪ
ë³¸ ë¶Ģ</w>
ag re
ìĤ¬ ìĿ´</w>
ëĪĦêµ¬ ëĤĺ</w>
ë³´ ì¦Ŀ
ìĿĺìĽĲ ìĿ´</w>
ãħĭãħĭãħĭãħĭ ãħĭ</w>
ë° ¥</w>
ëĶ° ë¡ľ</w>
wor ks</w>
ê³Ħ ìĤ°
milit ary</w>
ìŀ¬ë° Į
ì§ģ ìłĳ
ìŀĸ ìķĦ</w>
ìĹĦì²Ń ëĤľ</w>
com pl
ìŀĪ ìĸ´ìļĶ</w>
ìŀħ ê³ł</w>
vi du
sel ves</w>
anc es</w>
ãģ Ħ
ìĺ ¹
ìĭ¬ ìĤ¬
ë© į
ë¶Ħ ë¥ĺ
indi vidu
ëĭ¤ìĿĮ ê³¼</w>
any thing</w>
íĹ Į</w>
ëĲĺ ìŀĲ</w>
f ail
íĶĮ ëłĪìĿ´</w>
íı´ ë¦¬
p al
no thing</w>
me d
ê³ł ê°ľë¥¼</w>
ë¬¼ ìĸ´
ë°ľ íĸī
sour ce</w>
å Ń
s l
war ds</w>
ëĬ¥ ëł¥</w>
p ay</w>
ì§Ħ ëĭ¨
íŀĺ ëĵł</w>
ëĸ ¼
ëı ĭ
ì´Ī ë°ĺ
ì´ī êµ¬
n ers</w>
t aking</w>
twit ter</w>
ìĥģëĮĢ ìłģìľ¼ë¡ľ</w>
ë²ķ ë¥ł
ê³µ íķŃ
ìĿ´ ëįĺ</w>
ë¹Ħ ë°Ģ
ëª© ìĨĮë¦¬
ê·¸ ëłĪìĿ´
in es</w>
ou gh
ìĿ¼ ë¶Ģ
ê² Ĳ</w>
íı¬íķ¨ íķĺëĬĶ</w>
ìľł ëªħ
ëģ Ī
leag ue</w>
ad mini
ar ds</w>
at ors</w>
íĻĶ ìĻĢ</w>
ê³µ ìĭľ
li g
ê´Ģ ìĹĲìĦľ</w>
clo se</w>
ìī½ ì§Ģ</w>
ver sion</w>
ìĤ¬ëŀĮ ëĵ¤ìĿĺ</w>
tak en</w>
ìĬ¹ ìĿĦ</w>
ëĭ¹ìĹ° íŀĪ</w>
h on
ëĵ± ëıĦ</w>
íĮ ½
t om
stu dy</w>
ìłĦ ë¶Ģ</w>
ë°ķê·¼ íĺľ</w>
ìĹĪ ëĬĶëį°</w>
æ Ĺ
ëį ´
ì½ ĺ</w>
ë°Ŀ íŀĪ
fil m</w>
sing le</w>
ëĲ ©ëĭĪëĭ¤</w>
pl an</w>
ë¸Ķëŀ Ļ
ì§ĢìĹŃ ìĹĲìĦľ</w>
pre vi
ìºł íİĺ
ìļ° ì£¼
ex per
êµ¬ ì¡°</w>
ìŀĲë¦¬ ìĹĲìĦľ</w>
ìĬ¤íĤ ¬</w>
ìĨĮ ìĿĺ</w>
êµŃ ìĹĲ</w>
ìºĲë¦Ń íĦ°</w>
ëª¨ ëĭĪ
ìĬ¤ íģ¬</w>
ë§Ī ìłĢ</w>
ê°Ħ ëĭ´
wom an</w>
ìĤ¬ì§Ħ ìĿĦ</w>
ëĤĺ ìĺ¬</w>
íģ´ ë¦¬
íĻĶ ìĿ´
ë§İ ìķĺëĭ¤</w>
ìłĦ ë¶ĢíĦ°</w>
ìŀ¥ ì¹ĺ</w>
íķ Ħ</w>
ìľł ê°Ģ</w>
beh ind</w>
ìļ°ë¦¬ ëĤĺëĿ¼</w>
ë§Ĳ ìĿĢ</w>
com b
ì¿ ¨
ener gy</w>
ques tion</w>
ë§Ī ê°Ĳ
ëĲĲ ê³ł</w>
ìĺ¤ ëŀĺ</w>
c ar</w>
ìłķ ê¸°
íĨµ ìĭł</w>
ëĤ¨ ìķĦ
ëª¨ ë¥´ëĬĶ</w>
ì¢ ģ
ar ti
ãħ ľ</w>
ì¢ĭ ì§Ģ</w>
ëĭ¹ ìŀ¥</w>
ìĤ¬ ìŀ¥</w>
ìķ¼ êµ¬
m a</w>
er ed</w>
h and</w>
i ous</w>
ëĭ¹ ì´Ī</w>
ìĭł ìĨį
ëĮĢ ì²´</w>
ìĬ¤ ìĹĲìĦľ</w>
ê´Ģ ëŀĮ
ìĭł íķľ
de ath</w>
ëĤĺ ì§Ģ</w>
ê³¼ ìłķ</w>
ì£¼ ì§Ģ</w>
ë¯¸ ëĭĪ
ëª©íĳľ ë¡ľ</w>
íķľ ë°ĺ
f y</w>
ìŀ¬ ëĤľ
ìķ Ļ</w>
ë°ľ ìłĦ</w>
ë¬¼ ë¦¬
ë°ľ êµ´
ë¬´ ê¸°
ìĿĮ ìĹĲëıĦ</w>
ëķĮ ë¶ĢíĦ°</w>
ê² ¸
is ra
ê°Ħ ëĭ¨
ë³Ģ íĻĶë¥¼</w>
íĽ ¼
ìŀĳ íĴĪ</w>
ìłģ ìľ¼ë¡ľëĬĶ</w>
ìĹ ĺ</w>
ì½ĺ ìĦľ
ad ver
de l</w>
si x</w>
ëĴ¤ ìĹĲ</w>
ìłĦ ìĿĢ</w>
ìĹŃ ìĤ¬</w>
íĺľíĥĿ ìĿĦ</w>
er ing</w>
ëªħ ê³¼</w>
develop ment</w>
ë¬´ ëĦĪ
íĥ ľëĭ¤</w>
ëĭ Į</w>
êµ¬ì²´ ìłģìĿ¸</w>
ter r
s qu
ìłķ ë¹Ħ
ìĺ¬ë¦¼ íĶ½
poin ts</w>
íķł ìĿ¸
ê°Ļ ìķĦ</w>
p an
íŀĺ ìĿ´</w>
is ed</w>
fron t</w>
ë ¼
b al</w>
ëıĮ íĮĮ
ì¶ Ķ</w>
ìłģ ìĸ´ëıĦ</w>
ëĲĺ ëıĦë¡Ŀ</w>
ìĥģíĴĪ ìĿĦ</w>
ìĤ¬ëŀĳ ìĿĦ</w>
f ood</w>
íĿ ī
íļĮ ëĭ´
ìĦ¸ ë¡ľ</w>
ë²ķ ìĿ¸</w>
ìĨĮ ëĵĿ</w>
thir d</w>
ìĦ¸ ìĿ´
ì²ł íķĻ
i de</w>
ê°¤ ëŁŃ
ìĭľ ë¯¼</w>
se x
every thing</w>
ê°ĢëĬ¥ ìĦ±ìĿĦ</w>
ê°Ģ ë¡ľ
s s
ê³µ íĻĶ
ìĹ¬ íĸī</w>
ëĸ¨ìĸ´ ì§Ħ</w>
ëıĻ ìĽĲ
ìĥĿ ì¡´
íĭ Ī
ì° ©</w>
ìŀ¡ ìķĦ
dis cus
íĽĦ ë°ĺ
du e</w>
b lo
d i</w>
ì°¸ ìĹ¬</w>
ìķ ±
ìķĦ ëŀĺ</w>
ìĺ¤ íĶ¼
stu di
ãĢ ĭ</w>
fer ence</w>
ë°©íĸ¥ ìľ¼ë¡ľ</w>
ëĵľ ìĻĢ</w>
ì¹ĺ ê²Į</w>
some one</w>
ë°© ìĹĲ</w>
ëĸ ¡
ìĨĮ ë¦¬ê°Ģ</w>
ë§Ĳ ìĿ´ëĭ¤</w>
ìĥģ ê³¼</w>
ì°¨ ë¡ľ</w>
ì¶ ©</w>
ìĨĮ ìĹĲìĦľ</w>
ëĤĺ ë©´</w>
ìĦł ìĹĲìĦľ</w>
ì±ĶíĶ¼ ìĸ¸
ex ec
s aying</w>
ì»¤ íĶ¼
ëĦĺ ìĸ´</w>
ê´ĳ ìĹŃ
ë¹ ł</w>
ìĿ¸ ê¸°</w>
. âĹİ</w>
ìĭ¬ ì§Ģìĸ´</w>
ìĥģ ê´Ģ
ta x</w>
ef for
ìĿ¸ ì¦Ŀ
ëħ¸ ëł¥ìĿĦ</w>
ch am
ë°ķ ë¬¼
ing ly</w>
ë¬¼ ìĿĢ</w>
ëĶĶ ìĺ¤
ìĦł ì§Ħ
ìķĦ ë¬´</w>
ain ed</w>
ì·¨ ìķ½
ìĸ¼ ë§Ī</w>
ch all
tr ue</w>
ìĹ¬ ìĦľ</w>
ìłĲ ëıĦ</w>
ìħ ī
l g</w>
sp or
de fin
ëĤ´ìļ© ìĿĢ</w>
ìķĮ ê²Į</w>
cl int
h am
ìĦł ë°ľ</w>
ä »
ìĹĪ ì§Ģë§Į</w>
wan ted</w>
re main
íĬ¸ ëŀ
íķ¨ ìĿ´</w>
us es</w>
ì¶ °
íĺ¸ ëĬĶ</w>
re st</w>
íĻĺ ìŀĲ</w>
ì§Ģ ëĤĺ</w>
ë¶Ħ ìĦĿ</w>
íĨµ ìĿ¼
ê³µ ìĹ°</w>
ë®¤ ì§Ģ
a p</w>
íķ´ ìĨĮ
ë¬¸ìŀ¬ ìĿ¸</w>
ëĥ Ħ
ìĿ´ ë¡ł
íģ ´</w>
ìĿ´ìķ¼ ê¸°</w>
ä ¹
ì¦Ĳ ê¸¸</w>
m ess
ëĤ´ìļ© ìĿ´</w>
íħĮ íģ¬
ëį ®
ê°Ģ ìĬ¤</w>
ìľł ëıĦ
ëıĦ ìĻĢ
ëĮĢ ê¸°
ê°ģ ìĿĦ</w>
ìľł ìłĢ
ìĭ¬ ìĿ´</w>
r ap
in fl
ë° Ł
ê´Ģê³Ħ ê°Ģ</w>
ìĦł ê³ł
ìĺģ ìĥģìĿĦ</w>
íĿĶ ëĵ¤
ëĨĢ ëĿ¼
ê· Ģ</w>
ìĪĺ ë¹Ħ
ìłĦ ê°ľ
ìĨĮ íĻĺ
ìłĦ ëĤ¨</w>
êµŃ íļĮìĿĺ
ë¯¸ìĦ¸ ë¨¼
ni fic
ìĦł ìĿĢ</w>
ê³µ ì§ģ
ìĭĿ ìĿĺ</w>
ìľĦìĽĲ ìŀ¥</w>
ë²ķ ìĿ´</w>
ê²Ģì°° ìĿĢ</w>
k bs</w>
ëĵ± ê¸ī</w>
íļį ëĵĿ
ìĺĪ ì¸¡
ìłĪ ëĮĢ</w>
ìĿ´ ìłľëĬĶ</w>
ìŀĳ ìĹħìĿĦ</w>
ol s</w>
doc um
ìŀĪ ëĬĶì§Ģ</w>
ë§Į ìĿĢ</w>
ë§Įëĵ¤ ê¸°</w>
ì¹ Ļ</w>
êµ¬ìĦ± ëĲľ</w>
gre ss</w>
å Ĳ
ëĽ°ìĸ´ ëĤľ</w>
ë¯ ¹
ë°ĶìĿ´ëŁ¬ ìĬ¤</w>
ê°Ģ ìĿ´
tur ned</w>
b ad</w>
íĮĢ ìĿĺ</w>
ë°Ľ ê²Į</w>
ê²½ìļ° ëĬĶ</w>
íĬ¹ì§ķ ìľ¼ë¡ľ</w>
ë¨¸ ë¦¬ë¥¼</w>
ê°ĸ ì¶ĺ</w>
ë§Į ëĤľ</w>
ëıĮ ëł¤
ìķĦì§ģ ëıĦ</w>
e duc
prob ably</w>
ìĭľê°Ħ ìĹĲ</w>
m it
ci r
ëĲĺ ìĸ´ìķ¼</w>
ini ti
ìłĦ ìļ©
ëĮĢ íķĺìĹ¬</w>
ì²ĺ ë¥¼</w>
ì¢ĭìķĦ íķĺëĬĶ</w>
ëŁī ìĿĺ</w>
ë¶Ģ ê³¼
ë´Ĳ ìķ¼</w>
ìĨĮ ëħĢ
ãĢ Ī</w>
ëķĮ ë¬¸</w>
ê²° ì½Ķ</w>
ëª© ìłģ
ìķĺ ê³ł</w>
ê¸° ê¸°</w>
ìķĪ ìłĦ</w>
ëł¥ ìĹĲ</w>
íķĺ ëł¤</w>
ì§Ģ ìĪĺëĬĶ</w>
st om
íİ ĺ</w>
ìĺĪ ìļĶ</w>
ê°Ģ ì¹ĺ</w>
p tion</w>
ë§Įíģ ¼
ê·¸ëŀ ¬
ìĪ Ń
al though</w>
ìĹĨ ìĸ´
s at
ì¹ľ êµ¬</w>
íĬ¸ ìĹĲìĦľ</w>
ìŀĲ ëıĦ</w>
ê³¨ ìĿĦ</w>
ë³´ëĭ¤ ëıĦ</w>
ì§Ģ ë©°</w>
ì±Ħ ê¶Į
ëĳĲ ëł¤
p ap
íĬ¸ ìľĦ
ë°© ì§Ģ
p es</w>
g a</w>
íĸ¥ ìĿ´</w>
tri es</w>
ë¶Ħ ë¦¬
ec tion</w>
ìķī ìķĦ</w>
íĬ¹ ìĦ±
fur ther</w>
buil ding</w>
ìĪ ²
íĻķ ìŀ¥
ìĤ´ ê³ł</w>
ìļ´ëıĻ ìĿĦ</w>
êµ¬ ë¶Ħ
ì¼ ĵ</w>
it h</w>
ìĬ¤ë§ĪíĬ¸ íı°</w>
ê·ľ ìłľ</w>
ìĪ «
íĿ¬ ìĥĿ
ìĺ¤íĶ Ī
ìłķíĻķ íķľ</w>
sto p</w>
ê¸°ìŀĲíļĮ ê²¬
íĤ ¬
ei ther</w>
ë¶ĢëıĻ ìĤ°
clint on</w>
ì²ĺ ë¦¬</w>
ìĵ° ëŁ¬
ìĦ¸ íĬ¸</w>
ëĪ Ī</w>
ê¸° ìĨĮ
ëıĻ ìķĦ
li ber
ìĪĺì¤Ģ ìĿĺ</w>
ê¸°ì¡´ ìĿĺ</w>
ìĿ´ ìĿµ</w>
íĻĪ íİĺìĿ´ì§Ģ</w>
ri bu
ter min
ad a</w>
ë°ĺëıĦ ì²´</w>
ã Ī
ì£¼ ìłľë¡ľ</w>
ìĪĺ ìĹĲ</w>
val ue</w>
ìĿ´ ëıĦ</w>
ìŀĪìĹĪ ê³ł</w>
wash ington</w>
ì¹ ľëĭ¤</w>
ëĵ± ìĿ´ëĭ¤</w>
ë¶Ī ë²ķ</w>
ìĺĪ ìłķ</w>
ì£¼ ìĹĲ</w>
ê´Ģ ìĿĺ</w>
ìłľ ìŀĳ</w>
êµ° ìĿĦ</w>
e u</w>
ìĥ Į
th y</w>
íķĻìĥĿ ëĵ¤ìĿ´</w>
ë°ĺ ë°ľ
ëı¼ ìķ¼</w>
ë º
fin al</w>
ìłĦ ëħĦ
ì¶Ķ êµ¬
ìĭľ ë¡ľ</w>
ë¬´ ë¥¼</w>
olo g
sc en
ìĤ¬ ìĿ¸</w>
êµ° ìļĶ</w>
ëĮĢ ìĦł</w>
ro w</w>
êµŃ ìłľ</w>
att em
ìĸ¼êµ´ ìĿĦ</w>
cre ate</w>
* *
ë¦ Ń</w>
ìŀĦ ê¸Ī
ëĲ ĺ</w>
ìĭ¤ ìłģ</w>
ìĸ´ëł¤ ìĽĢìĿĦ</w>
ê°ľ íİ¸
del i
ce pt</w>
ìĪĺ íķľ</w>
ëĶ ±</w>
ëĤ´ ìĦ¸
fi re</w>
b ru
ëıĻ ìĿĺ
ãħĭãħĭãħĭãħĭãħĭãħĭãħĭãħĭ ãħĭãħĭãħĭãħĭãħĭãħĭãħĭãħĭ
íĺ ¹</w>
ëĦ¤ ê°Ģ</w>
ë¹Ħ ìĥģ
íĳľ ì¤Ģ
ìľĦ ë°ĺ</w>
íĮĢ ìĿĦ</w>
a ver
íĥ ģ</w>
ê²½ ìĺģ</w>
ìŀ¥ ë¹Ħ</w>
ê²½ìłľ ìłģ</w>
íĻĶ ëł¤
ìĤ¬ëŀ ĳ</w>
i st
ìķĦ ê°Ģ</w>
ê³ł ê°Ģ</w>
ìĤ¬ê±´ ìĿĦ</w>
ìĪĺ ë¦½
en vir
ëĲ ¨
ê°Ģê¹Į ìĿ´</w>
ìĺ¤ ëŀľ</w>
ë§Ĳ ê¹Įì§Ģ</w>
ìĭľ íĹĺ</w>
ë§Į ëĵ¤</w>
íķł ìĿ¸</w>
every one</w>
ìĦ¤ ì¹ĺ</w>
ìĥģ ë°ĺê¸°</w>
co de</w>
ê» ı</w>
mus ic</w>
ìŀ¬ ê°Ģ</w>
sig nific
ë¶ ī
oun ds</w>
ëī´ ìļķ
al low
ë°ľ íľĺ
ìĪĺ ìĻĢ</w>
ìĨĮ ëħĦ
ìĦĿ ìĿĦ</w>
ë§Īì¼Ģ íĮħ</w>
me an
in ve
íı¬íķ¨ íķ´</w>
ìĺ¬íķ´ ëĬĶ</w>
ne i
íķĺ ìĹ¬ìķ¼</w>
ì°¨ ìĹĲ</w>
ìŀ¥ ìĿ¸</w>
ê·¸ëłĩ ì§Ģ</w>
ìĥģ íĥľëĭ¤</w>
ê³µê²© ìĿĦ</w>
envir on
ìļ´ìĺģ íķĺëĬĶ</w>
ëĵľëĿ¼ ë§Ī
ê¸° ê³Ħ
ìĬ¤ íħĮìĿ´
ì°¨ ìĽĲìĹĲìĦľ</w>
ê½ ¤</w>
ìŀĪ ìľ¼ëĤĺ</w>
la un
ster n</w>
ì ĳ
ìłĲ ìľł
ìĭľ ëĮĢ
ìĪĺ ìłķ
ìļ°ëł¤ ê°Ģ</w>
contin ue</w>
ìĸµ ìĽĲìĿĺ</w>
ëĶĶìŀĲ ìĿ¸</w>
ìĿ´ìļ© íķľ</w>
ìĸ» ìĿĦ</w>
ì·¨ ìĨĮ
ìłĦ ë¶ģ
h im
âĳ ł</w>
ëĬĶ ê±°
ëª¨ëĳĲ ê°Ģ</w>
ë¨¸ ë¦¬</w>
repor ted</w>
g es</w>
ìĺĢ ê³ł</w>
ëĤĺ ì¤ĳìĹĲ</w>
ì¢ħ ìĿĦ</w>
ìĥģ ìĥģ
ìĦł ëĭ¤</w>
ìĬ¤ ìľĦ
ìĿ´ ìļ©</w>
ëĮĢ ìĭł
ë¶Ģ ì§Ħ
ìķĦë²Ħ ì§Ģ</w>
íĤ ¨</w>
ëª¨ ì§ĳ
me as
re co
ëĵ¤ ìĿ´ëĭ¤</w>
ê·ľ ìłľ
íľ ´</w>
ì£¼ ê¸°</w>
ëŀ Ħ
to wn</w>
íļĮìĿĺ ìĹĲìĦľ</w>
ëĬĶ ê±°</w>
íĸ¥ ìĿĦ</w>
pp ed</w>
ìĤ¬ ìłĦ</w>
ìłľ ì£¼</w>
íķ¨ ìĹĲ</w>
íķĺëĤĺ ë¡ľ</w>
ìļ ķ</w>
ë¬ ¶
ë¬´ìĹĩ ë³´ëĭ¤</w>
ëĤ´ ë¦°</w>
ìĿ¸ ëĵ¤ìĿĢ</w>
bi r
t ell</w>
íĤ¤ ëĬĶ</w>
ë¬¼ ë¡ľ</w>
j an
ìĿ¸ ë¬¼</w>
é ģ
ìµľ ì´Ī</w>
ë¬¼ ìĹĪëĭ¤</w>
ë§¤ ë§¤
ìĬ¤ ìĬ¤
ë¦¬ ë©´</w>
êµīìŀ¥ íŀĪ</w>
ëĤ´ ë¶Ģ</w>
ìķ¼ ì§Ģ</w>
ëįĶë¶Ī ìĸ´
ìĿ´ ëŀĳ</w>
íĥĢ ìŀĦ
ê±° ê¸°
dow n
ben ef
ìĺ Ľ
íĢ ´
pho to
ìŀ¬ ìĥĿ
ch ina</w>
ëıĻ ìĥĿ
mo v
att ack</w>
di st
ëĭ ¥</w>
êµĲ ì²´
ìĻĢ ìĿ´
ë¹Ħ ì¦ĪëĭĪ
ìķĦ íĶĦ
ë§Ī ë¥´
ë°Ŀ íŀĮ</w>
ìĹ° ìĿĦ</w>
ìĪĺ ìĹħ
reg ul
íĺ¸ íĿ¡
ë§Ŀ ìĿĦ</w>
íķĺëł¤ ë©´</w>
ëĮĢíĳľ ê°Ģ</w>
ar tic
b a
ì¶© ê²©
demo cr
ëĭ¤ ë£¨
bel ow</w>
ìĿ´ìĿµ ìĿĦ</w>
ê±´ ë¬¼</w>
ìª½ ìĹĲ</w>
ëĮĢ íķ´ìĦľ</w>
ìķĦ ë¹ł
íĺķíĥľ ë¡ľ</w>
pro tec
ìĦ ŀ
íķ´ ë³´
acc ess</w>
ë°ĺìĿĳ ìĿĦ</w>
ê³¼ ìĹ°</w>
íĻĶ ë¡ľ</w>
ê²°ê³¼ ê°Ģ</w>
ëĮ Ħ
ëªħ íĻķ
m bc</w>
f ar
íĬ¸ ë¡ľ
ìĨĮ ë¡ľ</w>
ìĤ¬ ë²ķ
íĬ¸ ëłĮ
m m</w>
ê±° ì§ĵ
ëª» íķł</w>
ë° į
ail s</w>
ìŀĲìĦ¸ íķľ</w>
bo x</w>
ë´Ĳ ëıĦ</w>
ê³ ½
ìłĦ ëŀµ</w>
íķł ë¨¸ëĭĪ
ê³µë¬´ ìĽĲ</w>
spec ial</w>
íķ´ ìĺ¨</w>
econom ic</w>
å Ī
ê´ĳ ê³ł</w>
ì½Ķë¡ľ ëĤĺ
u es</w>
wor d</w>
âĶ ģ
êµ¬ ì²Ń
ì¹´ íİĺ
stre et</w>
ìķĦ ì¹¨</w>
íĻľ ë°ľ
íķ ¸
ê¹ ĥ
l ate</w>
play ed</w>
li gh
ìķłëĭĪ ë©ĶìĿ´
ig n</w>
ê° Ĵ</w>
ãĢ ı
ì¦Ŀê°Ģ íķľ</w>
ëĮĢ ë¦¬
ìĦł íĺ¸
ë§Įëĵ¤ ê³ł</w>
w ro
ë°° íĦ°
ê¸° ìĤ¬
resul t</w>
offici als</w>
ìĥģíĥľ ìĹĲìĦľ</w>
the m
c y</w>
ë³µ ê·Ģ
stu dents</w>
dec ision</w>
ëĦ ĺ</w>
ëĤĺ ìĦł</w>
Â ´</w>
ë¦ ī
ëĲĲ ëĭ¤ê³ł</w>
vi d</w>
ê²½ ëĤ¨</w>
ìŀĳ ê°Ģ
ìĭľìĦ¤ ìĿĦ</w>
g le</w>
ìŀĲ ê·¹
ê¸° ìĥģ
ê±° ë¦¬ë¥¼</w>
ë¹ µ
ìĭľ ë¶ĢíĦ°</w>
ë©Ķ ë¦¬
ur al</w>
ì§Ħ ìŀħ
ê²½íĹĺ ìĿĦ</w>
ëļ «
ì§Ħíĸī íķľëĭ¤</w>
ë§ ¹</w>
íķĺ ëĬĲ
íķĺ ìĦ¸ìļĶ</w>
êµ¬ ê°Ħ
ê° ĳ</w>
serv ices</w>
íĮ¨ íĦ´
ì£¼ ìĭĿ</w>
ìĤ¼ìĦ±ìłĦ ìŀĲ</w>
ìķĦ ìĽĥ
ê²Ģ ìĤ¬ë¥¼</w>
íı¬ ë¥¼</w>
ëĿ¼ìļ´ ëĵľ</w>
ìłģ íķ©
elec tion</w>
ìĿ¸ ê°Ħ</w>
st ers</w>
ë¨¹ ìĿĦ</w>
issu es</w>
ëĭ ·
gre s
ad dre
ìĸ¸ ìłľ</w>
ìĦ °
ê°Ģ ëĬ¥</w>
ë¨¸ ë¬¼
ìĿĮ ìķħ</w>
sup por
ì¹ĺ ìĹ´
ì¹ĺ ë¡ľ</w>
compan ies</w>
ê·¸ ëł¤
ê³µ íķŃ</w>
íĪ¬ìŀĲ ë¥¼</w>
ëĿ¼ ìĿĺ</w>
su g
íĺ¸ íħĶ</w>
mat ter</w>
wro te</w>
re turn</w>
íļĮ ìĤ¬ìĿĺ</w>
ìķĦ ìĿ´</w>
ìĨĲ ìĹĲ</w>
ê°ľ ìµľ</w>
ê²° ìĬ¹
ê²½ ë¶ģ</w>
i ally</w>
íŀ Įëĭ¤</w>
p m</w>
ë³µ ìŀ¡
de m
th in
s am
íĺ Ķëĭ¤</w>
min d</w>
ìĿ´ ë¥¸
ëĤĺ ê°ĢëĬĶ</w>
ë¬´ ëł¤</w>
is l
ëĭĺ ìĿĢ</w>
âĳ ¡</w>
co p
o t</w>
b att
ëĮĢ íıŃ</w>
íĻľìļ© íķ´</w>
ìłĢ ì¶ķ
ìķ¨ ë²Ķ</w>
wh ole</w>
st ro
ëī ´</w>
ìĸ´ëĸ ł
ìĤ¬ìĹħ ìĿ´</w>
al d</w>
ë¶Ħ ëħ¸
i ed</w>
co st</w>
ëł ģ
íĬ¸ ëłĪìĿ´
ì¡° ìļ©
ìľĦ ìĽĲ</w>
) ;</w>
ìĤ¬ìĹħ ìĿĺ</w>
ë§Įëĵ¤ ìĹĪëĭ¤</w>
ì¡° ìĭ¬
ìĺĪ ê³ł
n e</w>
ìĿ´ìļ© íķł</w>
ìĪĺì¤Ģ ìľ¼ë¡ľ</w>
run ning</w>
ê³µ ê°Ħ</w>
simil ar</w>
ear li
ìĹ°êµ¬ ìĽĲìĿĢ</w>
ê¸° ìĤ¬</w>
ìĿ´ ë§Ī
ì¹ĺ ìĿĺ</w>
ê¹Ģ ìłķ
ëª¨ëį ¸</w>
ìĹħë¬´ ë¥¼</w>
le a
ìĽĲ ìŀĲ
ì² ©
fac e
sour ces</w>
out side</w>
ìĿ į
mi gr
ê¸° ë§Į</w>
re ason</w>
ëıĦ ì¿
stat ement</w>
i i</w>
ãģ ª
tr av
tic ally</w>
rele ased</w>
ë´ Ħ</w>
ìķĦ ëĵ¤</w>
se qu
tal k</w>
ê²ł ìĬµëĭĪëĭ¤</w>
ìĿ´ ëĭĪ</w>
ê·¸ ê±´</w>
ìĪĺìļĶ ê°Ģ</w>
ì§Ħíĸī ëĲľëĭ¤</w>
ë²ķ ìĿĢ</w>
in c
ro le</w>
pho to</w>
ge ts</w>
ìľĦìĽĲ íļĮëĬĶ</w>
êµ¬ ìĹŃ
am oun
íĺķ ìĿĺ</w>
ìµľ ìĨĮ</w>
ìŀĲ ê³ł</w>
c at
íķľ ëĤĺëĿ¼
íķ µ</w>
ëķĮ ê°Ģ</w>
exec u
ê¶Į ìĿĢ</w>
for d</w>
ëĭ¤ ìĭľ
ë¹ Ľ</w>
ìĹ° íķ©</w>
ìķ½ ê°Ħ</w>
íĶĦ ë¥¼</w>
íİ¸ ìĿ´ëĭ¤</w>
ìĭ¤ ìĹĲ</w>
h it</w>
ìķĦ íĶĦë¦¬
ar ch
ì§Ħ ìĿĺ</w>
des p
ìŀ¬ ëĭ¨</w>
ìĿ¸ ìĹĲê²Į</w>
play ing</w>
ëªħ ìĺĪ
en ding</w>
ì´Ī ê¸°</w>
íķ´ ê°Ģ</w>
ê³³ ìľ¼ë¡ľ</w>
techn ology</w>
ë¹Ħ ëĮĢ
en ter
ëĮĢ ì±ħ</w>
ë¸Ķ ë¡Ŀ
ìķĦ ì¹´
íŀ ĺ</w>
ëģ Ķ</w>
sh ort</w>
ê¸° ìĺ¨
ch r
rele ase</w>
ìĭľ ìķĦ</w>
ìłĪ ì°¨ë¥¼</w>
ìłĢ ì§Ģ
ìĿĺë¯¸ ê°Ģ</w>
ìĹĨ ì§Ģë§Į</w>
ìłĦë¬¸ ê°Ģ</w>
ë¬¸ìłľ ìĹĲ</w>
ëıĻ ìĿ´</w>
ìķĦëĭĮ ê°Ģ</w>
ìłķ ì²´
ì½ĺíħĲ ì¸ł</w>
p us
ëĳĲ ìĤ°
ëĮĢ ê²°
ì¡° ìĦ±</w>
p age</w>
ë¹ Ĺ
se ems</w>
sh are</w>
m ur
h ours</w>
ìĹĲê²Į ìĦľ</w>
ì¡Į ê³ł</w>
ì· Ħ
ë¦¬ ê²Į</w>
ìĦ± ìľ¼ë¡ľ</w>
con di
g am
íĨµ íķ©</w>
ìĿ´ ìŀ¬
íĻķì§Ħ ìŀĲ</w>
êµ¬ ë§¤</w>
us i
ìĭ¬ê°ģ íķľ</w>
ê°ĲìĤ¬ íķ©ëĭĪëĭ¤</w>
on line</w>
ìľł ëªħíķľ</w>
ìķĦ íĶ
wat ch</w>
ìķĦëĭĪ ìĹĪëĭ¤</w>
ë¥ Ń
abo ve</w>
sp ir
ìļ¸ ìĤ°</w>
b y
ìĨį ëıĦ</w>
pro gr
ìĽ¨ ìĿ´
re as
foo t
sci ence</w>
ëıĻ ìĿĺ</w>
ê·¸ ë§Įíģ¼</w>
ëĭ¹ ê³¼</w>
ìŀĦ ìĭľ
ê±´ ìĿ´</w>
qu ar
a ìĶ¨ëĬĶ</w>
´ ëĭ¤</w>
ter m</w>
ë° Ģ</w>
ë¹Ħ ìĦľ
ìĥĿê°ģ íķĺëĬĶ</w>
í Ĳ
t ation</w>
ìłģê·¹ ìłģìĿ¸</w>
ì½ ©</w>
' '</w>
ìķķ ë°ķ
ì·¨ ëĵĿ
ê´Ģ ê´ĳ</w>
mar ch</w>
ëĭ¹ ìĹĲ</w>
ìłĢ ìŀ¥
direc tor</w>
ê¸° ìķĦ
ëĵľ ìĹĲìĦľ</w>
sen se</w>
ê¸° ë°ĺ</w>
ìŀ¬ ë¬´
m al
ì§ģ íĽĦ</w>
ë³ĳ ìĽĲ
ë³ĳ ìĿĦ</w>
ë¬¼ ëŁ¬
ìĹ°êµ¬ ìĽĲ</w>
íİ¸ ì§ĳ
com pu
íĴĢ ìĿ´
ë°ľìłĦ ìĿĦ</w>
te e</w>
ë²ł ë¥´
ev ent</w>
ë©´ ìłģ</w>
ë¬¼ ì§Ī
c li
sim ply</w>
ìĩ ¼</w>
íĶĦë¡ľìłĿ íĬ¸</w>
ìłĦíķ´ ì¡Įëĭ¤</w>
ro ad</w>
ëĭ¬ íķĺëĬĶ</w>
ì¶ķ ìłľ</w>
íķ´ ì¡Įëĭ¤</w>
ìłĲ ì°¨</w>
ì°¨ ëĭ¨
ê² Ł
æ Ŀ
ì£¼ ìĹĪëĭ¤</w>
esp ec
l y
ëį°ë· Ķ
ëŃĶ ê°Ģ</w>
su per
íŀ Ĳ</w>
íĺĦ ëĮĢ</w>
htt p</w>
ì·¨ ê¸ī
ê³µ ê¸ī</w>
ìĤ¬ ìļ°
ì¡° ìłĪ
íĤ¤ ë¡ľ</w>
ë°© ìķĪ</w>
íĨµ ìĥģ
fi g
lo st</w>
cu stom
ìķĪ ë³´
ëĤł ìķĦ
ë¶ĦìľĦ ê¸°ë¥¼</w>
ëıĮìķĦ ê°Ģ
ìĺ¬ ë¦°</w>
ìľłíĬľ ë¸Į</w>
n ation</w>
å į
êµŃë¯¼ ìĿĺ
ìĿ¸ êµ¬</w>
artic le</w>
stan ding</w>
ëĭ¬ ìĿĦ</w>
me an</w>
ìĭ¤ ìĿ´</w>
ãħ ĩ</w>
ê¶Į íķľ
ìĿĢíĸī ìĿĢ</w>
d ol
ìŀħ ì£¼
ìľ¼ ëĭĪê¹Į</w>
ì£½ ìĿĮ
ëĪĪ ê¸¸ìĿĦ</w>
ìĸ´ ëĬĲ
ìĹĲìĦľ ë§Į</w>
ex tr
le ad</w>
ìĭł ì¢ħ</w>
pro per
chang es</w>
ìĤ¬ëŀĮ ëĵ¤</w>
ìĭĿ ìĹĲ</w>
ìŀĪìĹĪ ì§Ģë§Į</w>
ê·¸ ìłĢ</w>
ìłľ ëª©
ìłķ íķĺëĬĶ</w>
ìĹ° ê¸Ī
espec ially</w>
recor d</w>
Ã Ĺ</w>
ê¸°ê´Ģ ìĿĺ</w>
ìł¸ ìĦľ</w>
ê¿Ī ìĿĦ</w>
reli gi
ìŀĦ ê¸Ī</w>
ìĿ´ íĸī
ë°ĺ ëĮĢ</w>
' ll</w>
ìľĦ ìĻĢ</w>
ãĢ ī</w>
ê¸´ ëĭ¤</w>
sho t</w>
it es</w>
s w
ìĸ´ ëĳ
desp ite</w>
é ĩ
fi gh
t ou
ab l
' âĢ¦</w>
mo der
ë¶Ģ ì²ĺ
ìĿ´ ê²ĥìĿ´</w>
k y</w>
wor ds</w>
ìĺģ ìĸ´
ìŀĪ ìĿĮìĿĦ</w>
ê´Ģ ìĹĲ</w>
ìĪĺ ìĽĲ</w>
ìĭ¤ ë¡ľ</w>
íķ´ëĭ¹ íķĺëĬĶ</w>
sci enti
ì§ģ íķľ</w>
ìĥģëĭ¹ íķľ</w>
in stitu
ìľ¡ ìĦ±
ê³łëĵ± íķĻêµĲ</w>
f lo
ìĨĮíĶĦ íĬ¸
ì¡° ìĽĲ</w>
ëªħ ìĿ´ëĭ¤</w>
ë²¤ ì²ĺ
ìĿ¼ ê°Ħ</w>
ì§Ħ ë³´
ê±´ ìĿĺ</w>
ë¶Ģë¶Ħ ìĿ´</w>
indu stry</w>
ë²ķ ë¥ł</w>
ë¬¸ìłľ ë¡ľ</w>
ì§ģ ìĿĦ</w>
íĥĢ ë¥¼</w>
sh oo
grap h
ì¢ħ íķ©</w>
ê¹Ģ ìĺģ
provi de</w>
ëĿ¼ ìĦľ</w>
ë¥ĺ ê°Ģ</w>
ph ys
ìķĦë¬´ ëŁ°</w>
him self</w>
mul ti
cre d
ì¤ĳ ê³µ
ê¾ ¹
ëıĦ ëĤ´</w>
êµ¬ íĺĦ
ë¬´ ìĦľ
ìĿ´ ëĵł</w>
ëĭ¨ìĪľ íŀĪ</w>
beg an</w>
ìĮ Ģ
s ite</w>
íĶĦë¦¬ë¯¸ ìĹĦ</w>
ì²´ íĹĺ</w>
ë¡ľ ìį¨</w>
ê¹ Ĳ</w>
ì¤ĳ ê°Ħ
grou ps</w>
ìĭł ìĦ¤
ìĿ´ ìĥģìĿĦ</w>
t un
ìĦ¸ ìĹĲ</w>
ìĦł ìłķ</w>
ê°Ģ êµ¬
ìĹ¬ ë¦Ħ</w>
ë³´ ë©´ìĦľ</w>
( -</w>
evi dence</w>
ê¸° íļĮê°Ģ</w>
glo bal</w>
ìĺ Ľ</w>
ìľłëĭ Ľ
ëĬ¥ ëł¥ìĿ´</w>
str ong</w>
ì§ĢìĹŃ ìĿĦ</w>
ìĿ¸ ìĤ¬</w>
ê±° ë¦¬ê°Ģ</w>
ë¬´ ê¸°</w>
k t</w>
ì¹ľ íĻĺê²½</w>
ìŀĪ ìľ¼ëĭĪ</w>
face book</w>
su ff
íĻľìĦ± íĻĶ</w>
coun tries</w>
ë§Ĳ íķł</w>
bec ame</w>
ìĿ į</w>
ëĬĺ ìĸ´ëĤĺ
ëª¨ ë¥¸ëĭ¤</w>
ê·¸ ë¦°</w>
ìĵ° ëłĪ
in ation</w>
mar k</w>
ê·¸ ëĵ¤ìĿ´</w>
ìĭľ ìŀĳ</w>
i b
ëıĦ ë§Ŀ
sa w</w>
ëĮĢ íļĮ
pre tty</w>
ëį ķ</w>
ê·¸ ë¦°
ëħ¸ ì¶ľ
im p
ìĤ¬ ëĵ¤ìĿ´</w>
pi ec
ë§Ī ë¦¬
ìĿ´ ìĬ¤
ë²Ħ ë¦°</w>
sit u
ìĦ¸ ìĥģìĿĦ</w>
c lim
ìĬ¤ë§ĪíĬ¸ íı°
ë°ľ ë§¤
ëıĻ ìĹĲ</w>
ìĥĿ ê¸´</w>
ìĿ¼ ëıĦ</w>
ì¦Ŀ ëªħ
íĨµ ê³Ħ
ë§Īì¼Ģ íĮħ
z z
~ ~
for ward</w>
ìĿ´ë¥¸ ë°Ķ</w>
o d</w>
it self</w>
ë¶Ī ê°ĢëĬ¥
íķŃ ê³µ</w>
s or
ê·¸ ë¦¬ìĬ¤
ìľł ê¸°
vis ion</w>
íķĻ ìĿĦ</w>
t ter</w>
cri min
du ce</w>
ê¸° êµ¬</w>
ëĭ¤ë¥´ ëĭ¤</w>
buil d</w>
diff ic
re ly</w>
ìĹĪ ëĭ¤ê³ł</w>
pl es</w>
ëĪĪ ìĿ´</w>
ìħ °
p ay
ì¡° ìłķ</w>
ê»ĺ ìĦľ</w>
ìļ´ íĸī
ëĮĢ ìĿĳ</w>
ëıĻ ë£Į
ì§Ī íĻĺ
ë· °</w>
íĢ ĺ
k en</w>
rel ated</w>
ko re
å °
ëª©ìĨĮ ë¦¬ê°Ģ</w>
ell s</w>
ìĺ ¥</w>
ì£¼ ìļĶ
vi a</w>
ê¸´ ê¸ī
ê³µë¬´ ìĽĲ
mo vi
ìĪľ íĻĺ
ë³´ ìĥģ
ìĭ¤ íĸī
ì²ł ëıĦ</w>
earli er</w>
ì£¼ ì£¼
ê· ł</w>
ê´Ģê´ĳ ê°Ŀ
vo te</w>
re f
' .</w>
ag ed</w>
ìĦĿ ìľł
ë£ ¸
ìĸ¸ ëĭĪ
i ev
w asn</w>
ì°¨ì§Ģ íĸĪëĭ¤</w>
íĺĦ ìŀ¥ìĹĲìĦľ</w>
ëģĿ ê¹Įì§Ģ</w>
íķł ì§Ģ</w>
ìĸ¸ìłľ ëĤĺ</w>
ë³´ëıĦ íĸĪëĭ¤</w>
ìĥĪëĪĦë¦¬ ëĭ¹</w>
íĴį ë¶Ģ
ê¸° ìŀĲ</w>
ë§ŀ ìĿĢ</w>
ìĹĶ íĦ°
ê°ľ ë°©
g s
ê²Į ìĭľ
ìłĢ ëł´
ìĬµ ëĭĪê¹Į</w>
íĴ Ģ</w>
nee ds</w>
æ °
win do
ëĭ¤ ìļ´
ant i</w>
ê²Ģ ìĿĢ</w>
ê³ł ìļĶ</w>
ìĦĿ ìĿ´</w>
ì´Ī ìĹĲ</w>
íĻľìļ© íķľ</w>
âĢ¦ '</w>
ìľłìĿ¼ íķľ</w>
ìłĳ ìĪĺ
ìĿ¼ ëŁ¬
ê·¸ ëĤĺë§Ī</w>
ìŀĪ ê²ł
ìĪĺ ìĪł
ì¶ľ ìłĦ
ë°© ë¬¸</w>
ëĭ¤ ëħĢ
ëĭµ ë³Ģ
ìĤ¬ ëł¹
íķ© ê²©
ì´Īëĵ± íķĻêµĲ</w>
ì´Ŀ ë¦¬ëĬĶ</w>
for man
ch ie
ê°Ĳ ìłķ
ìĹĲ ìĬ¤
nee ded</w>
ê¸°ë°ĺ ìľ¼ë¡ľ</w>
ne ar</w>
ëį ¸
ê±°ëĵ Ń
íķĺ ìħ¨
it er
ì£¼ ìĭľ</w>
íĮĲ ìłķìĿĦ</w>
u k</w>
them selves</w>
qu ite</w>
ë²ķ ìłģ</w>
ë§ŀì¶¤ íĺķ</w>
s h</w>
ìŀĪìĹĪ ëĬĶëį°</w>
ì£¼ ê´Ģ
ver s</w>
ìĭľ íĭ°</w>
ë³´ ìĹ¬</w>
ìĹĲëĦĪ ì§Ģ
ëª©ìĨĮ ë¦¬ë¥¼</w>
ìĭ¬ ìĿĺ
ìĥģíĥľ ë¡ľ</w>
ìĪĺ ì¤Ģ</w>
' d</w>
íĽĮ ë¥Ń
po wer
ìł ł</w>
ê¹Į ì§ĢëıĦ</w>
b an</w>
gg est</w>
ì»¨ ìĦ¤
ëĤ´ ëł¸ëĭ¤</w>
ë¶Ģë¶Ħ ìĿĦ</w>
ìĿ´ ê°ĻìĿĢ</w>
ë§İ ìķĦ</w>
ì§ĳ ì¤ĳ</w>
íĺ¼ ëŀĢ
fri ends</w>
sho ws</w>
ìŀ¥ ëĤľ
sty le</w>
ìłĲ ê³¼</w>
ëĿ½ ìĿĦ</w>
íĸī ìľĦë¥¼</w>
goo gle</w>
n a</w>
fin an
íķľ ë§Ī
ìĸ´ì© Į
ê·¼ ë³¸
ìłĢëħ ģ
ìĦ¸ ëĬĶ</w>
ìłľ ìĻĢ</w>
tici p
ê¿ Ģ
bu l
ìĽĮ ìĦľ</w>
ì¡° ìĸ¸
ì°½ ìĽĲ
ë¶Ī ë¦¬ëĬĶ</w>
ê°Ģ ìĪĺ</w>
ìĿ¸ ìĥģ</w>
inclu de</w>
ìĺģ ìĸ´</w>
ec tive</w>
ëĤ´ ìĿ¼</w>
ìłľ ìķ½
ìŀ¥ íķĻ
ìķĦ ìļ°
b a</w>
ë¦ ĩ
to tal</w>
íĸī ìľĦ</w>
ìľĦ íķ´ìĦľ
mi dd
lan gu
ê·¸ëłĩ ëĭ¤ë©´</w>
ëĭµ íĸĪëĭ¤</w>
êµ¬ ìĹŃ</w>
ë¡ľ ìŀ¡
rec ently</w>
tiv ity</w>
ëĤ´ ê¸°</w>
ìłĦ ê¹Įì§Ģ</w>
fi ght</w>
ìĺ· ìĿĦ</w>
ëĬĲëĤ Ħ</w>
íĺĲ ìĿĺë¥¼</w>
ìłĦëŀµ ìĿĦ</w>
ì¤ĳ ìĿĺ</w>
ìĭĿ ìĿĢ</w>
ì§Ģ ëĭ¤</w>
ìĥģ ìŀ¥
íıī ìĨĮ</w>
ìķ ŀ</w>
ë¬´ ë¦
can di
íľ´ ëĮĢ
ìĹ´ ìĸ´</w>
ìĿĺ ìķ½
ë°ĺ ëĮĢë¡ľ</w>
s ent</w>
ëĤĺ ìĿ´</w>
ì§Ģ ìŀĲì²´
ìķ¡ ìĿĦ</w>
ìłľ ëıĦë¥¼</w>
íĦ ±
ìķĮëł¤ ì§Ħ</w>
ëĲĲ ëįĺ</w>
ìĺģìĹħ ìĿ´ìĿµ
ìĿ´ ê¸°
ê·¸ ëŁ¼
ìĭ¤ ìĿĢ</w>
comm on</w>
ìĿ´ ìĤ¬</w>
ìŀĳíĴĪ ìĿĦ</w>
ì£½ ìĿĢ</w>
ì§ĢìĽĲ íķĺëĬĶ</w>
ì Ń
ì¢ħ ìĿ´</w>
íļĮ ìŀ¥ìĿ´</w>
ì§ľ ë¦¬</w>
ì§Ģ ìĭľ
c n
ap plic
ë§ ĺ
ìĹ° ìĺĪ
inter est</w>
ì¢ĭ ìķĦ</w>
mini ster</w>
ì¡° ìŀĳ
s le
ê·¸ëŁ¬ íķľ</w>
pro mis
hel d</w>
ì¹´ì¹´ ìĺ¤
íļĮ ê³Ħ
íĥĦ ìĥĿ
íĺ¸ ìĨĮ
ë²Ħ ëł¸ëĭ¤</w>
go d</w>
ë¹Ħ ìĿĺ</w>
ë§¤ ëĭĪ
ëª© ìłģìľ¼ë¡ľ</w>
ãħĭãħĭãħĭãħĭ ãħĭãħĭ</w>
ìĨĶ ë£¨
st on</w>
ëĵ¤ ìĹ¬
ê°Ģ ìĭľ
ë³¸ê²© ìłģìĿ¸</w>
ì§Ħ ìłķíķľ</w>
ëĤ¨ ìĦ±
ì°© ìļ©
ë¡ľ ìĦľìĿĺ</w>
mo del</w>
ìĥī ìĿĦ</w>
ë¶Ī ìĿĦ</w>
ê³µ ìĤ¬
ëĤ «
íĶĮ ëŀĺ
ë¯¸ ê°Ģ</w>
ìłķë¶Ģ ìĻĢ</w>
ì°½ ìĿĺ
d d</w>
âĹ ı</w>
ë°© ìĭĿìĿĦ</w>
íĮ¨ ë¥¼</w>
ì¢ħ ìĤ¬
ëĪ Į
ê²° ìłķìĿĦ</w>
ëł¤ ìĦľ</w>
ì¶ľ íĮĲ
ìĥģ ëĮĢ</w>
b and</w>
ê¸° ëıħ
j ects</w>
ë²Ī íĺ¸</w>
ìĤ¬ëŀĮ ëĵ¤ìĿĦ</w>
ìĿ´ ìłľ
con sum
net work</w>
ìĦ ¬</w>
ill s</w>
ê¸°ë¡Ŀ ìĿĦ</w>
ë¹Ħ ë¡Ŀ</w>
fr an
ìĿ´ ìĹĲìļĶ</w>
ëĲĺ ê¸°ëıĦ</w>
di g
au gh
íĶĮëŀ«íı ¼</w>
ë¶Ħìķ¼ ìĹĲìĦľ</w>
offici al</w>
ro r</w>
ìĭ ±</w>
r ate</w>
ë°° ê°Ģ</w>
ëıĪ ìĿ´</w>
ì§§ ìĿĢ</w>
ìĶ¨ ìĻĢ</w>
ìĿ´ ëªħ
êµ¬ ì¶ķ</w>
t ory</w>
ìĿ´ ëŁ°
ìĺģ ìĽħ
ë¡ľë´ ĩ
ìĦ± ìŀ¥ìĿĦ</w>
ëĭ¹ë¶Ģ íĸĪëĭ¤</w>
ë§Ī ìĬ¤íģ¬</w>
ëĦĵ ìĿĢ</w>
ìĿ¸ ëł¥</w>
ìĿĺ ì¡´
ë°ľ íĳľ</w>
ëĿ¼ ê°Ģ</w>
i ded</w>
ë©Ķ ë¥´
v al</w>
s a</w>
êµ° ìĹĲ</w>
ë² ħ
ì§Ģ ìĪĺ</w>
ëĬĺìĸ´ ëĤľ</w>
ë§Ĳ íķ´</w>
ë¶Ģì¡± íķľ</w>
pr ice</w>
ê°Ģ ë©°</w>
íģ¬ ëĬĶ</w>
ìĦ Ń</w>
ìĪľ ìľĦ</w>
ìĦ ¹
ëĮĢ ì±ħìĿĦ</w>
ad d</w>
ain s</w>
ëıĻ ê¸°</w>
íĹ ¨
per forman
exp ected</w>
â ħ
ìĭľ ìĺ¤</w>
íĻĺê²½ ìĿĦ</w>
= =
ìķ¨ ë²Ķ
l v</w>
ì§Īë¬¸ ìĹĲ</w>
íģ¬ ê°Ģ</w>
ìŀĲ ëĵ¤</w>
s k</w>
ì¡° ì§ģ</w>
ìĦ¤ ëĵĿ
any one</w>
ì¹ĺ ê¸°</w>
ì§Ģ ìĿ¸</w>
po se</w>
ì°¸ ì¡°</w>
el se</w>
ìķķ ëıĦ
ê²½ê¸° ëıĦ
ìĬ¹ ë¦¬ë¥¼</w>
ste p</w>
íĴĢ ìĸ´
ì¦ī ìĭľ</w>
ë°±íĻĶ ìłĲ</w>
ê³Ħ ê¸°ë¡ľ</w>
ì¤ĳìĭ¬ ìĿĺ</w>
ë³´ìĹ¬ ì£¼ëĬĶ</w>
ìĿ´ ìĽĥ
ìĿ¼ ìĥģ
ëĭ ¿
ìĺ¤ ìĹ¼
eas y</w>
ë²łíĬ¸ ëĤ¨</w>
sy st
em er
ê±¸ ìĸ´
íķĺ ëĿ¼ê³ł</w>
nec ess
con serv
g an</w>
ëĵľ ëłĪ
ì¤ĳìĨĮ ê¸°ìĹħ</w>
ë» Ķ
ê²° ìłķ</w>
ëĪĦ ìłģ</w>
ìĥģ ìŀĦ
ìĿ´ ìĬĪ
origin al</w>
ë¹Ħì¤ĳ ìĿ´</w>
ìµľ ëĮĢ
ì§Ģ ìŀĲ</w>
íĺķ ìĿĢ</w>
low er</w>
ìļ° ìĬ¹</w>
ìĹ´ ë¦°ëĭ¤</w>
ì£¼ ìĦ¸ìļĶ</w>
bel iev
ë² ł</w>
op port
ê°Ģ ë§¹
ìµľ ëĮĢíķľ</w>
ë§ŀ ê²Į</w>
m ental</w>
íĭ ´</w>
e m</w>
ë¬¸íĻĶ ë¥¼</w>
ìĿ´ ê°ĻìĿ´</w>
ê²ĮìŀĦ ìĿĦ</w>
ac tions</w>
ìħ ľ
íĿĺ ëŁ¬
fol low</w>
íĨµ ìłľ
ìłĦ ê³¼</w>
ì¡° ìĹĲ</w>
ë°ĶëŀĮ ìĹĲ</w>
ê´Ģëł¨ íķľ</w>
desig n</w>
gu n</w>
on y</w>
ë¯¼ ìĿĺ</w>
ì¢ĭ ê²łëĭ¤</w>
we bs
ìĹ°êµ¬ ìĨĮ</w>
ê°Ģ ë¦¬
ê°Ļ ìĿĢ
ëĭ¤ ëĭĪ</w>
ìĹĦ ë§Ī</w>
] ,</w>
int en
ë¯¸ ìķĪ
ëĭ¤ìĿĮ ëĭ¬</w>
íķľêµŃ ìĿĢ</w>
j ap
p c</w>
íĸĪ ìĸ´ìļĶ</w>
ë¦¬ ìĬ¤</w>
au g
ëķ Ĳ</w>
íĶĮëŀ«íı ¼
ìĪ Ļ</w>
ê°Ļ ìķĦìļĶ</w>
he av
me e
ì§ĳ ìľ¼ë¡ľ</w>
ì²ŃìĨĮ ëħĦ</w>
ìłľ ìĸ´
mis sion</w>
inve st
ë° Ń
ìĿ¸ ê·¼
ë¸Įëŀľ ëĵľ
high er</w>
t an
ê°Ģ ìķ¼</w>
ì¦ ĺ
ëĭ¹ ìĤ¬
íķľ ìłķ
ë§¤ ê°ģ
j une</w>
ìĬ¤ë§Ī íĬ¸</w>
íķĺ ëĬĶì§Ģ</w>
ì° Į</w>
ë³´ ìĻĦ
lar g
in dic
ëĭ ®
ìĻ¸ ë¶Ģ</w>
ìĸĳ ìĿĦ</w>
ìŀĪ ìĿĦê¹Į</w>
íķĦ ìĪĺ
íĮ¨ ìħĺ
wi de</w>
ë§Ī ìĿĮ</w>
ê³µ íı¬
ìĦ¸ ìĿĺ</w>
ìĦ¤ ìĿĦ</w>
ìº Ķ
ëłĪ ë²¨
ëª¸ ìĿ´</w>
ê°Ļ ìĿĢëį°</w>
æ Ń
íĲ ģ
ë©Ķ ëī´
in j
ê°ķ ìłľ
ê³µê°Ħ ìĿĦ</w>
ëĮĢìĥģ ìĿ´</w>
ëħ¸ ìĿ¸
ìĤ¬ìĿ´ ìĿĺ</w>
ìĿ´ ëıĻ</w>
ìĽĮ íģ¬</w>
ëª¨ ìľ¼
so on</w>
ë¶Ħëªħ íŀĪ</w>
ë³µ ì§Ģ</w>
íĻķ ìĿ¸</w>
íĹĮ ë²ķ
ëħ¸ ëŀĺ</w>
sig n</w>
ìłĦ ëł¥
ìŀĦ ìĿ´</w>
ìĦ ¼</w>
ìĽĶ ìĹĲëĬĶ</w>
par k</w>
w ers</w>
priv ate</w>
ch ur
íĥ ķ</w>
ì¹ĺ ë©°</w>
ë¶Ģ ìŀ¥
ë§Ĳ ëıĦ</w>
íı¬ ì§Ģ
íħĮ ë§Ī
ìľĦ ê¸°
wee ks</w>
ì¹ĺ ë£Į</w>
resul ts</w>
ê²ĥ ìĿ´ê³ł</w>
ëª °</w>
ìł¸ ìķ¼</w>
íĬ¹ íĹĪ
ëĭ¨ ê³¼</w>
col le
ë¸Ķ ë£¨
ì¦Ŀ ìĿ´</w>
di str
ìĦľìļ¸ ìĭľ</w>
ìŀ¬ ëĬĶ</w>
ìĨĲ íķ´
ê¸°ì¤Ģ ìĿĦ</w>
cer tain</w>
ê·¸ëŁ¬ ë©´</w>
e g
ëĭ¤ëĭĪ ëĬĶ</w>
str ate
íıĲ ê¸°
ëª ¬</w>
f a</w>
ì§Ģ ëĭĮ</w>
ìĺ¬ ëĿ¼</w>
ì²Ń ëħĦ</w>
íı¬ ë¥´
ìŀ¬ ë¡ľ</w>
ess es</w>
íĩ ´</w>
ìĪĺ ìĺģ
êµĲ íĨµ</w>
ìĭľ ëĭ¤</w>
ëĭ Ĳ
ê½ ĥ</w>
chil d</w>
ì²´ ëĬĶ</w>
ìĤ°ìĹħ ìĿĺ</w>
ìı ł
íĽĦë³´ ê°Ģ</w>
ëĤ´ ëĤ´</w>
ì»¬ ëŁ¬
ë¶Ģ ì§Ģ
st ra
ìĿ´ë¦Ħ ìĿ´</w>
ì¹´ ëĵľë¥¼</w>
f em
ìķĦìĿ´ ê°Ģ</w>
incre as
ìłģìłĪ íķľ</w>
ëĴ¤ ë¥¼</w>
ê³ł ê¸°</w>
d r</w>
ho pe</w>
cont ent</w>
íķĺ ë°ĺê¸°</w>
ëį° ìļĶ</w>
ë¹Ħìļ© ìĿĦ</w>
ê°Ģ ê²Į</w>
ìĽĶëĵľ ì»µ</w>
mo ved</w>
ëĬ¦ ê²Į</w>
ê¸°ëĮĢ ëĲľëĭ¤</w>
ë³´ íĺ¸</w>
ad es</w>
ëķĮ ìĹĲëĬĶ</w>
ëħ¸ ì¡°</w>
cor por
ë¡ľ ëĵľ
h old</w>
ìļ°ìĪĺ íķľ</w>
ë¶Ģëĭ´ ìĿĦ</w>
ì¤Ģ ë¹Ħ</w>
o l</w>
ê°ĸ ëĬĶ</w>
ë¹ĦêµĲ ìłģ</w>
ëª©íĳľ ë¥¼</w>
íĪ¬ ëªħ
ìłĢëħ ģ</w>
pro te
ac ked</w>
republic an</w>
ë³´ ê¸ī
íķł ê¹Į</w>
êµĲ íĻĺ
sy ri
ìĻ¸ ìĿĺ</w>
ìŀł ìŀ¬
íĮĮíĬ¸ ëĦĪ
ìłĦ ìľ¼ë¡ľ</w>
ë°ľìĥĿ íķĺëĬĶ</w>
ëĮĢ íĻĶë¥¼</w>
ìĦ¸ìĽĶ íĺ¸</w>
ex tre
ëıĻìĿ¼ íķľ</w>
n y</w>
ê³Ħ ì¸µ
ë§ĪìĿĮ ìĹĲ</w>
íİ¸ ë¦¬
ëĭ¤ ë¥´ê²Į</w>
ti z
fore ign</w>
ìŀĲ ëĵ¤
ì¤ĳ ìĹĲëĬĶ</w>
ìµľì´Ī ìĿĺ</w>
long er</w>
ê²½ìŁģ ëł¥ìĿĦ</w>
ìĿ´ ìľł</w>
ìķ¼ êµ¬</w>
to m</w>
â Ļ
íķľ ë²Ī
ë³´ ìķĪ
ìĸ´ ê¹¨
ë¦¬ ê·¸
ìĤ¬ ìľł
ìĤ´ ìĿĦ</w>
ì¹ĺ ë£Įë¥¼</w>
ìĥģ ìĹħ
ìħĶ ìĦľ</w>
ëĵ± ìŀ¥</w>
ëĿ¼ ë¥¼</w>
íı Ĳ</w>
ê°ľ ìĿ¸ìĿĺ</w>
íĸ¥ ìĥģ
íĥĳ ìŀ¬
c m</w>
ë²Ķ íķľ</w>
íĽĦ ìĿĺ</w>
ìĿ¼ ì£¼
ìľł ëıĻ
k a</w>
ìŀ¥ ë©´
ë§Į ëªħ</w>
ë°ľ ìĤ¬
ê±° ë¡ł
ìĤ¬ê±´ ìĿ´</w>
admini stration</w>
íĻ Ģ</w>
au str
ìºĲ ëĤĺ
ãİ ¡
ìłĪ ë°ĺ
in side</w>
ìĨĲ ìľ¼ë¡ľ</w>
mat er
ë²Į ìį¨</w>
em ail</w>
bil lion</w>
ë£ ¬</w>
r y
ëģ Ĺ
ìĦ¸ ëĮĢ
ê¸°ë¡Ŀ íķľ</w>
ìĦĿ ìĿĢ</w>
clu b</w>
ëĤ´ ë¦¬
ì§Ģë°© ìŀĲì¹ĺ
ê¸ī ì¦Ŀ
ê¸°ìĹħ ìĹĲ</w>
int ro
íķĦ ìļĶ</w>
n h
ê³ł ëł¹
re fer
l on
pot ential</w>
ì¶© ëĤ¨
ìĿĺ íķĺë©´</w>
ë³´ ì¡°
ëģĿ ëĤľ</w>
u n</w>
" .</w>
ìĹĲ íĶ¼
ê°Ĳ ìĨĮ</w>
ìĺ¤ ë©´</w>
? '</w>
ëĤ´ ëĭ¤
work ers</w>
ìĿ´ìľł ê°Ģ</w>
íħĲ ëį°</w>
cre ated</w>
ë³¸ê²© ìłģìľ¼ë¡ľ</w>
íĽĦ ë°ĺ</w>
ê·¸ ë¦¬</w>
ì¶ķ íķĺ
ë³µ ìĿĦ</w>
c ali
ìĤ¬íķŃ ìĿĦ</w>
íķĺëĤĺ ê°Ģ</w>
y ed</w>
ìľĦ ìķĪ
ìĿ´ìĹĪ ê³ł</w>
ìĥģ íĥľ</w>
íĻľ ìļ©</w>
ë¬´ ì¡°ê±´</w>
ìĭľ ìĽĲ
cu t</w>
ê°Ģ ì¹ĺê°Ģ</w>
ëĭ´ ëĭ¹</w>
ìĿĺ ì§Ģë¥¼</w>
ëª° ìķĦ
ìĿ´ íķľ</w>
me tho
ëį° ìĿ´</w>
ìĤ¬ ìłĦ
ëĵ¤ìĸ´ ê°Ģ</w>
ë¶Ħ ìĿĢ</w>
ë³Ģ íĻĶ</w>
íĶ¼ ê³ł
ì¶ľ ìŀħ
íĭ° ë¸Į
w le
tis h</w>
íħĮ ìĿ¸
íĮ¨ íĤ¤
under stand</w>
íĶĦ ë¡ľ</w>
ìłľ ê³µ</w>
ë°© ìĿ´</w>
íĻľìĦ± íĻĶ
ju ly</w>
ëĤ´ ìļ©</w>
ìłĪ ëĮĢ
ëĤ¨ ìĦ±</w>
r adi
ãĪ ľ</w>
br ing</w>
êµĲ ìĤ¬</w>
ëĵ±ìŀ¥ íķĺëĬĶ</w>
w el
ê·¸ ë¦¼</w>
inter net</w>
íĺĦìŀ¬ ê¹Įì§Ģ</w>
íķĺ ìĹĲ</w>
ìĿĳ ìĽĲ
ach ed</w>
i e</w>
ìĭľ ìĹĲëĬĶ</w>
ìĨĮ ìĥģê³µ
êº ¾
ìĺģ êµŃ
âĢ¦âĢ¦ ."</w>
íĮĮ ìĽĮ
íĤ¤ ìĽĮ
ìķĮëł¤ ìł¸</w>
minu tes</w>
ìŀĳ ê°Ģ</w>
austr ali
ì²´ ê³Ħ</w>
tr ade</w>
ìŀ¥ ê¸°</w>
è Ģ
fre e
íİ¸ ìķĪ
ëł ·
c ru
ìĻĦ ìłĦ</w>
m ak
ë¶Ģ ìĿ¸
in t</w>
ê·¸ ë§Į
ìŀĲ ê¸ĪìĿĦ</w>
midd le</w>
ìĹ´ ìĹĪëĭ¤</w>
íķĺìĺĢ ê³ł</w>
ë°Ķ ë¥´
ê² ¸</w>
ìļ´ìĺģ íķĺê³ł</w>
ìłĦë¬¸ê°Ģ ëĵ¤ìĿĢ</w>
ri l</w>
ìĻĦ íĻĶ
íİ Ļ
ì°¸ìĦĿ íķľ</w>
finan cial</w>
ê²Ģ ìĥī
ëĭ´ ê¸´</w>
ëª» íķľëĭ¤</w>
ê±° ë¦¬ëĬĶ</w>
ìĿ´ ëŀĺ</w>
íħĮìĿ¸ ë¨¼
ìłģ ì§Ģ</w>
ì§ķ ìĹŃ</w>
ìķ½ íķľ</w>
ìŀ ī</w>
ì§ĢìĨį ìłģìĿ¸</w>
ëĴ¤ ë¡ľ</w>
ìĿ¼ ìłľ
íı¬ íķ¨</w>
âĸ ·</w>
li ving</w>
ëĤ¨ ìĿĦ</w>
ëĦ¤íĬ¸ ìĽĮíģ¬
ê°ķ ìĿĺ</w>
íĮĮ íģ¬</w>
ê¸´ ìŀ¥
ne arly</w>
ëĤ ¸
ê³µ íĨµ
ë²ķ ìĿ¸
mar y</w>
ëĵľ ëĿ¼ìĿ´
íķľ íĻĶ
ìĿ¸ê³µ ì§Ģ
ìĺĢ ì§Ģë§Į</w>
ëĤĺ ë¦¬
b at
êµĲ íļĮ</w>
ìĭł ì²Ń</w>
ë³´ ê°Ģ</w>
ê¼ ´
ìĥĿê°ģ íķĺê³ł</w>
ìĤ¬ëŀĮ ëĵ¤
ke ts</w>
ìĤ¬ íķŃ</w>
ê°Ģ ìĻĢ</w>
ìŀĲ ëĤĺ</w>
us ers</w>
íıī ìĿĦ</w>
ë°©ë²ķ ìĿĢ</w>
ê³ł ë§Ī
ìĹ° ëł¹
ëıĻ ë°ĺ
ì¹´ ìļ´
ì½Ķ ë¦¬ìķĦ
êµ¬ ìĦ±</w>
person al</w>
ìĹ¬ ê¸°</w>
ë§Į ìĽĲìľ¼ë¡ľ</w>
ìĭ¸ ìĽĢ
ìĦł ëıĦ
ê°Ĳëıħ ìĿ´</w>
íĭ ´
ëĲľ ëĭ¤ë©´</w>
cont ribu
ph il
soci ety</w>
ëĳĲ ëĬĶ</w>
ëģĦ ëŁ¬
o k
ëª¸ ìĹĲ</w>
chie f</w>
ãħĭãħĭ ãħĭ
g ri
ê²½ì°° ìĹĲ</w>
ìĤ¬ìĿ´ ìĹĲìĦľ</w>
ì§Ī ë³ĳ
au di
íĻķì§Ħ ìŀĲê°Ģ</w>
íģ´ ëŁ½</w>
ê±¸ ë¡ľ</w>
no te</w>
ìĸĳ ìĿĺ</w>
ëª© ìĿ´</w>
lea ve</w>
ìĿ¸ ìĤ¬ë¥¼</w>
íķ Ģ</w>
d y
c c</w>
ëŀĢ íŀĪ</w>
ê·ľëª¨ ê°Ģ</w>
íĥĦ ìĿĦ</w>
ar gu
aver age</w>
ê¸° íļĮ
s en</w>
ëĵ¤ ìĹ¬</w>
íĥĵ ìĹĲ</w>
est abl
ë§ µ
íķľ ëĭ¤
íķĻêµĲ ìĹĲ</w>
ìĪĺ ì¹ĺ
íķ´ ìļ´
ë¯¸ëĶĶ ìĸ´</w>
ë¶ģíķľ ìĿ´</w>
ìĤ ¼</w>
æ ķ
ëĿ ł
ìłĦ ë©´</w>
ë§Ĳ íķľ</w>
ni a</w>
colle ge</w>
ban k</w>
è ¨
ìĿ´ ìĬ¹
ê²½ ê¸°ê°Ģ</w>
ìĭľ íĭ°
ê²© íķľ</w>
al low</w>
ìķĦ ìķĦ
âĹ ĭ
y ou
ìŀ¥ ì°©
ë§Ĳ ìķĺëĭ¤</w>
ìĨĮ ìĻĢ</w>
pa ti
ìĿĺ ëıĦ
ìĭľ ëĮĢìĿĺ</w>
ìłĦ ê¸°</w>
íķĺ ì§ĢëĬĶ</w>
ì£¼ ìĿĺë¥¼</w>
inde pen
ìłĦ ìĹĲëĬĶ</w>
íĪ¬ ìĸ´</w>
ê´Ģ ë¦¬ë¥¼</w>
mic ro
ìĥģ íĺ¸
ëĭ¹ êµŃìĿĢ</w>
ê³ ģ
jus tice</w>
ìĿ´ìľł ë¥¼</w>
ìŀħ íķĻ
ë°©ë²ķ ìľ¼ë¡ľ</w>
ë°©íĸ¥ ìĿĦ</w>
ques tions</w>
ìĪĺ íķĻ
ìĨį ìĿĦ</w>
ris k</w>
ëĤ´ìļ© ìĿĺ</w>
ì§Ģ íĳľ
íİ ł
ë³´ ëĤ¸</w>
å ¾
ëģ ¼</w>
íĦ° ê°Ģ</w>
ê·¸ ëŁ´</w>
ê±´ ì¶ķ</w>
ìĿĺ ê²°
compe ti
ê³Ħ ìĹĲ</w>
ìĹĨ ìĸ´ìĦľ</w>
o il</w>
m p
ge or
íĨ ¨
ê·¸ëħĢ ê°Ģ</w>
ap p</w>
ìĥģ ìľĦ</w>
co ver</w>
tr adi
publ ished</w>
ì±Ħ íĥĿ
p un
proble ms</w>
ap ril</w>
íķŃ ìĿĦ</w>
cover ed</w>
ê³µ ìĤ°
g ni
an ds</w>
ë§Ī ì£¼
ìķ¡ ìĿ´</w>
íĸī ìľĦ
ìĭł ê³ł</w>
i or</w>
ìĤ ½
ë³´ìľł íķľ</w>
ìĤ¬ìĿ´ íĬ¸</w>
we ap
ê³¡ ìĿĦ</w>
ê¸° ìŀ¬
íĴĪ ì§Ī
ê°ķ íķĺê²Į</w>
ëĭ¬ëŁ¬ ë¥¼</w>
re ve
m as
ì°¸ìĹ¬ íķľ</w>
ìĦ± íıŃ
fri end</w>
ê¸°ìĹħ ìĿĦ</w>
ë¼ Ī
ìĭł ìĿĢ</w>
ëĸ¨ìĸ´ ìł¸</w>
ë°© ìĿĺ</w>
ìĹ° ì£¼
may be</w>
êµŃê°Ģ ìĿĺ</w>
ëĦĺ ê²Į</w>
ìłķ ìŀĳ</w>
ê²°ê³¼ ìĹĲ</w>
sug ge
ìŀ¥ ëıĦ</w>
ìĿ´ìĹĪ ì§Ģë§Į</w>
ëĮĢ íĻĶ</w>
ìľµ íķ©
ìĨį ìĿĺ</w>
ìłĦ íĺķ
ì±Ħ ëĦĲ</w>
c j
tu res</w>
íķĻìĥĿ ëĵ¤ìĿĺ</w>
ê°Ĳ ìĿĢ</w>
ëĲĺ ê²Į</w>
ì£¼ ëł¥
ë°± ìĭł</w>
im ag
íĥĢ ëĬĶ</w>
lo ws</w>
recei ved</w>
íĨ ±
ìĤ¬ê³ł ê°Ģ</w>
ìĦ± ìłģ</w>
ìłĦ ë¶ģ</w>
ìľ Į
curren tly</w>
íĺ¸ ìĦł</w>
ê²½ìŁģ ëł¥</w>
ê²ĥ ìĿ¸ê°Ģ</w>
ê·ľëª¨ ë¡ľ</w>
ë¶Ģ ìĹĲìĦľ</w>
ëķĮ ìĿĺ</w>
ê¸° ëĬ¥</w>
chec k</w>
ëģĬ ìŀĦ
ìłķ ì°©
ê³µ ì²ľ
ìĥģ ìľĦ
a th
ê°Ļ ìķĺëĭ¤</w>
ìĶ »
ëĭ¨ ìĿ¼
ê°ģ ìĿĺ</w>
ëıĦ ëįķ
ex plo
ìķĦìĿ´ ë¥¼</w>
ì§Ģ ìĤ¬</w>
gre en</w>
respon se</w>
da vid</w>
ì¡° ê°Ģ</w>
ë©´ ìĦ¸
ê·¸ ê±¸</w>
ìĻĶ ëįĺ</w>
ìŀĦ ëªħ
ë§Īì§Ģë§ī ìľ¼ë¡ľ</w>
ìħĺ ìĿ´</w>
ìĭľ ì²Ń</w>
ìĭľìŀĳ ëĲľ</w>
adver ti
ou ldn</w>
si ze</w>
ìŀĲ ë£Į</w>
ë§İ ìķĦ
ìĤ¬ ë§Ŀ</w>
ì²´ ìĹĲ</w>
defen se</w>
st af
americ ans</w>
ê° ±
ìĺ¤ ë°Ķ
per f
b b
repor ts</w>
ê·¸ ê²ĥ
ë¹ł ì§Ħ</w>
ìĨĮë¹Ħ ìŀĲ</w>
ëį°ìĿ´ íĦ°ë¥¼</w>
un ity</w>
ê°ľë°ľ ìĿĦ</w>
incre ase</w>
ê³łëł¤ íķ´</w>
ëĮĢë³Ģ ìĿ¸ìĿĢ</w>
ë¬´ íķľ
ìĦ¸ ëĭ¤</w>
ì ¨
ìĦ¤ëªħ ìĿ´ëĭ¤</w>
ìķĦë¬´ ëıĦ</w>
ìĹĨìĹĪ ëįĺ</w>
ìĭ¬ ìĿĺ</w>
ëıĦ ìŀħ</w>
b loo
is is</w>
ë§¤ ìĪĺ
ìķ ķ</w>
s es
ë°© ìĤ¬
íİ¸ ìĦ±
in te
ìķħ ìĿĺ</w>
ìĺ¤ ë¹ł
ri ed</w>
f ans</w>
ì¦Ī ë¥¼</w>
ìłĲ ìĿĺ</w>
ìĸ´ë¦° ìĿ´</w>
ë§ ĳ
ì§Ħíĸī íķĺê³ł</w>
ìĺ¤ ì§Ģ</w>
ìĽĲ ìłĦ</w>
íĪ¬ ìŁģ
ê°Ģ ëıĻ
ê±´ ê°ķ</w>
ìĥ ĺ
au l</w>
ìĭ¶ ìĸ´</w>
ha ps</w>
ìĤ¬ëŀĮ ëıĦ</w>
fri day</w>
ê´Ģ ê³¼</w>
ìĺ¤ ë¥´ëĬĶ</w>
lin es</w>
in ci
íĺģ ìĭł</w>
ìłĦ ê³µ
íĻĪ ëŁ°
se tt
ì· ¨</w>
w on
ìĪĺ ìĤ¬ë¥¼</w>
ê±´ ìľ¼ë¡ľ</w>
ìŀ¥ìķł ìĿ¸</w>
ëĭ ī</w>
ìĿĺ ê°Ģ</w>
ê°Ģ ìķ¼
p d
Â ·
ì¿ ¼
eff ect</w>
ë°Ķ ë¥¸</w>
íĤ ¬</w>
ìĺĪìĤ° ìĿĦ</w>
ë§Ī ìĬ¤íģ¬
amoun t</w>
ê°Ģ ìĿĦ
ìĻķ ìĿĺ</w>
ìħ ľ</w>
ëĵ¤ ëł¤
c oo
íĨł ì§Ģ
ìĹ¬ ëªħìĿ´</w>
íĸĪ ëĭ¤ê°Ģ</w>
ìĹ° íŀĪ</w>
ëª¨ ìķĦ</w>
ê¸°ìĹħ ìĿĢ</w>
ë¶Ģ íĻľ
ê³§ ë°Ķë¡ľ</w>
ì§ĢìĹŃ ìĿĢ</w>
ex ten
ì§Ģ ìłķ</w>
ac tive</w>
ìĨĲ ê°Ģ
c le</w>
ëĤ´ ë©°</w>
euro pe
íĸīëıĻ ìĿĦ</w>
ë°ķ ëŀĮ
ìłĦ íĻĶë¥¼</w>
ë°© íĸ¥</w>
m ac
ì²Ń ìĿ´</w>
performan ce</w>
can not</w>
cer tain
b ab
er y</w>
ê¹¨ ëģĹ
fa ther</w>
announ ced</w>
con n
ëĤ´ ê²Į</w>
per haps</w>
ë¬´ ê²Į
ì¶ķ êµ¬</w>
ê¸ ĭ
commit tee</w>
ìĺĨ ìĹĲ</w>
ìĭľê°Ħ ìĿĢ</w>
ì°¨ ìĿĺ</w>
ë³Ģ ê²½</w>
ë¯¼ ê°Ħ</w>
int el
cas es</w>
ìķ¼ ë§Ĳë¡ľ</w>
ëģĮ ê³ł</w>
ë²Ħ ìĬ¤
ì§Ģ íķĺ</w>
íķľêµŃ ëĭ¹</w>
ell ing</w>
ìĽ¨ ìĸ´</w>
ìī¬ ìļ´</w>
ìĥĿ ìĦ±
p sy
ìłĦ íĻĶ</w>
ìĭľ ê¹Įì§Ģ</w>
ëĭ¤ ë³´ëĭĪ</w>
ëĭ´ ë³´
ìļ° ìĪĺ</w>
m ach
ë§¤ ìŀħ
de termin
ce o</w>
íĽĪ ëł¨</w>
íģ´ ëĿ¼ìļ°
íĨµ íķ´ìĦľ</w>
ëĨį íĺĳ
i ons</w>
ëį ±
se x</w>
med ical</w>
ì§ģ ìŀ¥
ìĿ¸ ê¸°
rela tion
ë§Ī ë¬´
ê°ľ íĺģ</w>
ãħİ ãħİ
h ic
st ore</w>
ìĹĶíĦ° íħĮìĿ¸ë¨¼
ì£¼ ë©´</w>
russi a</w>
ìķĬ ì§Ģë§Į</w>
ë²Ħ ë¦¬
ìĿĺê²¬ ìĿ´</w>
e ast</w>
ch ris
ë¬¸ ìĦľ</w>
cra tic</w>
lead er</w>
con nec
ìĨ Ł
____ ____
ëĭ¹ìĭł ìĿ´</w>
ë¯¸ ëĬĶ</w>
ê²Ģ íĨł</w>
ë§¡ ìĿĢ</w>
ìĭ¤ ìĹħ
ë°ĸ ìľ¼ë¡ľ</w>
ë¶Ħìķ¼ ìĿĺ</w>
ë¶Ģ ê°Ģ
æ Ī
ëŀľ ëĵľ
ëĤł ìĿ´</w>
ê°Ĳ ìĹ¼</w>
j er
ê³¼íķĻ ê¸°ìĪł
ëª¨ ìĹ¬</w>
ì¦Ī ëĬĶ</w>
íķ´ ìĦł</w>
ê³¼ ëıĦ</w>
ê¹Į ì§ĢìĿĺ</w>
ëĦĪ ëĬĶ</w>
r am
ë³ĢíĻĶ ê°Ģ</w>
ê¸Ī ìľ¼ë¡ľ</w>
ë¹ĦíĮĲ íĸĪëĭ¤</w>
im pl
ëį°ë· Ķ</w>
íĶĦ ëĿ¼ìĿ´
êµŃëĤ´ ìĻ¸</w>
ìĥģ íĺ¸</w>
íı ¼
d ates</w>
un ion</w>
produc tion</w>
ë§Ľ ìĿĦ</w>
ëĨ ¨ëĭ¤</w>
ê±´ ë¦½
ë¯¸ëŀĺ ë¥¼</w>
ê°ľ ë§ī
ìľĦ ê¸°ë¥¼</w>
æ ĺ
ìĹĨ ê²Į</w>
ìĪĺì¤Ģ ìĿ´ëĭ¤</w>
íĸ¥ íķľ</w>
íĺĲ ìĿĺ</w>
ëĵľ ë¦½
íĻľëıĻ ìĹĲ</w>
íĺ¼ ìŀĲ
ë°©ë²ķ ìĿ´</w>
ìĺģ ìĽĲ
ìĶ ©
ì£¼ìĿ¸ ê³µ</w>
ìĥĿ ê¸°
íĬ¹ ìľłìĿĺ</w>
êµ³ ìĿ´</w>
âĢ ķ</w>
c amer
qu ick
ìłĦ ìĦ¸
coun ty</w>
ë¶Ħ ìĸĳ</w>
ê°Ĳ íķľ</w>
ë²Ħ ë¦¬ê³ł</w>
ìĽĥ ìĿĮìĿĦ</w>
ìĬ¤íĬ¸ ë¦¬
fin ally</w>
ëŃ ī
ëĶ ľ</w>
ê²ģ ëĭĪëĭ¤</w>
íĮ¨ ë°°
ì¯ ¤
ë» Ĳ
ìŀĲ ìĤ°</w>
íģ´ ëŁ½
íĻĶ ìĹĲìĦľ</w>
ìĭľ ë²Ķ
st op
wr ong</w>
invol ved</w>
ìķĦ ë¥¼</w>
íıĲ ìĩĦ
ë¡ľ ë§Į</w>
ëĮĢ ìĤ¬
ê²ª ê³ł</w>
ì§Ģê¸Ī ëıĦ</w>
æ ³
ìķĦ ë§Ī</w>
íļĮ ìĤ¬ê°Ģ</w>
ì´Ŀ ë¦¬</w>
ë³´ìĹ¬ ì¤Ģëĭ¤</w>
ë¶Ģ ì±Ħ
ë¹¼ ìķĹ
ëıħ íĬ¹
ëĤĺ ìģľ</w>
v il
âĢĿ .</w>
ìĭĿ íĴĪ</w>
Ã ©
ë¹Ħ ìĻĢ</w>
ìĺ¬ ëŀĲ
ìĨĶ ì§ģ
ìŀĲ ë¬¸
ê°Ģ ëĵĿ</w>
ëĤ´ ìĿĺ</w>
ëĮĢ ì²ĺ
ë¦¬ ìĸ´</w>
ìĹŃ ëŁīìĿĦ</w>
ìľł ìŀħ
ëĶ°ëľ» íķľ</w>
ê·¸ ìĹĲê²Į</w>
im medi
ë§ Ľ</w>
íĺĳ ìķ½
sk íħĶëłĪ
ä ½
ìĹŃ ìĤ¬ë¥¼</w>
ì¶ľ ë§Ī
ìĹĲ ê²Ĳ</w>
íĺĦìŀ¬ ëĬĶ</w>
ì¸¡ ìĹĲ</w>
i p</w>
g ol
ë²Ķ ì£Ħ</w>
ar g
ìĭľì¼ °
ìĹĨ ìĬµëĭĪëĭ¤</w>
ìĬ¤íĬ¸ ë¥¼</w>
r ace</w>
e x</w>
íķĺ ëĤĺëĬĶ</w>
ac king</w>
ê·Ģ ìĹ½
ìķĦëĭ Ĳ
ì¸¡ ìĿĺ</w>
b i</w>
wor ked</w>
ìŀ¡ ìĿĢ</w>
ì²ł ëıĦ
mon day</w>
ìĿ´ ëĭĿ</w>
ìĸ» ìĿĢ</w>
ê±° ëĮĢíķľ</w>
f all</w>
ëļ ±
ìĪľ ìľ¼ë¡ľ</w>
bu d
don ald</w>
ter ms</w>
ìĹŃ ìľ¼ë¡ľ</w>
con struc
ple ase</w>
ì¶Ķì§Ħ íķĺê³ł</w>
ë¯¸ìĦ¸ë¨¼ ì§Ģ</w>
some times</w>
ìĿ¼ ë³´</w>
att en
ìĭľíĤ ¨ëĭ¤</w>
íķ¨ ê³¼</w>
ë©´ ìľ¼ë¡ľ</w>
c ast</w>
us er</w>
re pe
ìķĦ íĭ°
ìĤ¬ìĭ¤ ìĿĢ</w>
s an</w>
ìķĦìĿ´ ëĵ¤ìĿ´</w>
ìĪĺì¤Ģ ìĿĦ</w>
ìĥĿê°ģ íķ´</w>
ìķĪ íĥĢ</w>
íķĻ ë¶Ģëª¨
ëª© íĳľ</w>
âĢĿ ,</w>
ìĦ¸ê³Ħ ë¥¼</w>
ëľ¨ ê±°ìļ´</w>
ìĸ´ ìłľ</w>
ìĬ¤íĥĢ ìĿ¼
ì§Ħ ë£Į
li ves</w>
íĻķìĭ¤ íŀĪ</w>
ëĭ Į
ê³¼ ëıĦ
ê°ľ ë´ī
con stitu
nat ure</w>
nor m
am az
ë¶Ī ë¦¬
ìĭ« ìĸ´
ì£¼ ëħĦ</w>
ìĽĲ ìŀ¥ìĿĢ</w>
ìĬ¤ íĤ¤
ëĶ ĺ
kill ed</w>
? ?
ë²Ķ ìľĦ</w>
ê¸°ëĮĢ íķľëĭ¤</w>
ê°ĢëĬ¥ ìĦ±ëıĦ</w>
ê²°ê³¼ ëĬĶ</w>
ê²½ ê³Ħ
ëª¨ìĬµ ìľ¼ë¡ľ</w>
chris ti
ëĭ¤ ìĪĺ</w>
ëĤ¨ ìĿĺ</w>
ë¯¸ëĶĶ ìĸ´
succ ess
pl at
educ ation</w>
íļĮ ìŀ¥ìĿĺ</w>
ì°½ ìĹħ</w>
ser ved</w>
ìĹħ ì¢ħ
êµŃíļĮìĿĺ ìĽĲ</w>
íĶĮëŁ¬ ìĬ¤</w>
ê°Ģ ìĬ¤
ìĸ´ ë¥¸
ë¶ĦìĦĿ íĸĪëĭ¤</w>
ì¦Ĳ ê±°
ì¡° ìłľ</w>
êµĲìľ¡ ì²Ń</w>
ìº ¡
ìĭ¬ íĮĲ
ëĭ¤ ìĪĺìĿĺ</w>
Â Ń</w>
íļĮ ëĭ´</w>
tu esday</w>
íķ© ë¥ĺ
ëŀ ©
íķľë°ĺ ëıĦ</w>
ì°¾ ìĿĦ</w>
ê²½ ê³ł
s bs</w>
ne l</w>
comm is
ì¤ĳ íķĻêµĲ</w>
ë§Į ìĽĲìĿĺ</w>
íĭ ¸
ê±´ ì¡°
ìĽ ĥ</w>
itt en</w>
bec om
íķĺ ê¸°ìĹĲ</w>
íĶĦ ëĬĶ</w>
íı¬ íķŃ
ìł ĸ
ë¬´ ëĬĶ</w>
ìĦ¸ ìĥģ</w>
å Į
ì²Ń ë¬¸
ë¶Ģëĭ´ ìĿ´</w>
ê²ĥ ìĿ´ëŀĢ</w>
ë¶Ģ ëª¨</w>
for ces</w>
ë¨¹ ìĸ´
ê°¤ ëŁ¬
ë¬¼ ê³¼</w>
ìĪĺìĿµ ìĿĦ</w>
ìĦ¸ íı¬
ì§Ģ ìĥģ
al ist</w>
ì£¼ ìĸ´
ë¶Ģ íĴĪ
ë¯¸ ì¹ĺëĬĶ</w>
âĢ ¢</w>
íĻķìĿ¸ ëĲĲëĭ¤</w>
ê²ĥ ìĿ´ë©°</w>
ì§Ģ ë°©</w>
n ar
íĺĦìŀ¬ ìĿĺ</w>
íĽĦ ìĽĲ
infl u
ë§Ī ìĿĺ</w>
go es</w>
buil t</w>
ëģĦ ëĬĶ</w>
ì§Ħ ì§ľ
ìłķìĭł ìĿĦ</w>
ãĢ į
ê³ł ìĥĿ
n u
mo ther</w>
ëĤĺëĿ¼ ìĿĺ</w>
ëĭ µ</w>
íĮĮ ìĿ¼</w>
ìĭľ ëĮĢìĹĲ</w>
ê°Ī ìĪĺë¡Ŀ</w>
wor th</w>
ë°ľ ëĭ¬
u ary</w>
ìŀĲ ë§ĪìŀĲ</w>
íİ¸ ìĿĺ</w>
hi stor
ë©Ķìĭľ ì§Ģë¥¼</w>
ê¾ ¼</w>
íĻķ ìĤ°</w>
ê°ĲìĹ¼ ì¦Ŀ</w>
ìĿ´ ëĵ¤ìĿĦ</w>
ìĿ´ ìłĦìĹĲ</w>
intel lig
t akes</w>
ë°©ë¬¸ íķ´</w>
íĮĮ ëĬĶ</w>
ìĪĺ ê¸ī
ìĿ¸ íķĺ
ìĸ¸ ìĸ´
ìĦł ë°ķ
ì°¸ìĹ¬ íķĺëĬĶ</w>
s av
ìĹ¬ ë¶Ģ</w>
st ation</w>
ìĹĦ ì²Ń</w>
ser ve</w>
ìķĬ ìķĦëıĦ</w>
ê²½ ìĥģ
adverti se
p aul</w>
ê°Ģ ìĥģ
i sts</w>
ì²´ ìĿ¸</w>
ìĸĳ ìĦ±
th ro
íĥ ĳ</w>
ar ri
b ase</w>
ìĨĮ ìĭĿìĿĦ</w>
ê°Ģ ê¸°</w>
ìĹħ ëį°ìĿ´
íĺķíĥľ ìĿĺ</w>
ì§Ħíĸī ëĲľ</w>
ëĭ¹ ìĹĲìĦľ</w>
ë¦ ¿</w>
ìłĦ íĪ¬</w>
ìĤ¬íļĮ ìĹĲ</w>
commun ic
ì¤ĳ ìĭ¬</w>
ìłľê³µ íķĺê³ł</w>
sim ple</w>
íģ¬ ìĿĺ</w>
go al</w>
t el
ëĭ¤ ëŀĢ</w>
íŀĪ ê³ł</w>
] [</w>
ìłķ ìĭĿ</w>
ë°©ìĨ¡ ìĿĦ</w>
ìĦ± ê³µ</w>
ëĵľëŁ¬ ëĤ¬ëĭ¤</w>
íķĻ ìłģ</w>
ìĨį ëıĦê°Ģ</w>
staf f</w>
ê¹Ģ ì¢ħ
ë¬´ìĹĩ ìĿĦ</w>
ìłģ ìĿĳ
popul ar</w>
ëĬĲ ê¼
ìĿĢíĸī ìĿĺ</w>
íĺķ ìĤ¬
ìĹĪ ëĭ¤ëĬĶ</w>
m it</w>
iz ed</w>
ê³µê²© ëł¥</w>
ê°Ģ ëĵĿ
íħĮ ëŁ¬
ë¹Ľ ìĿĦ</w>
par ticip
ìĿ´ìķ¼ ê¸°ê°Ģ</w>
ê´Ģ ì°°
ëĵ¤ìĸ´ ê°Ķëĭ¤</w>
olog ical</w>
ëĬĶ ëį°ëıĦ</w>
ëĶ ¸</w>
ìĨĮë¹Ħ ìŀĲ
oc to
ë¹Ħ ë¡ľ</w>
ë§¤ ì£¼</w>
ê³µ ëŀµ
ë¶Ģ ìĥģ
ìļ° ê°Ģ</w>
mom ent</w>
ìľł ëªħ</w>
ì¢ħ ë£Į
th ous
ê³¼ íķĻ</w>
con fir
al ism</w>
ê²Ģ ì¦Ŀ
è ¡
ë© ķ
mee ting</w>
ìĩ¼ íķĳ</w>
ìĦ¸ê³Ħ ìłģìĿ¸</w>
th ur
ìķ ±</w>
diffic ult</w>
ê·ľ ì¹Ļ
íĸīë³µ íķľ</w>
ëĲĲ ì§Ģë§Į</w>
ê³µê°ľ íĸĪëĭ¤</w>
ili ties</w>
ìĭ¤ ë¬´
peri od</w>
ë§Į ëĤł</w>
íĶ¼ ë¥¼</w>
ì´Ī ì²Ń
ìĻ¸ ë¡ľ</w>
ci tiz
ì¶© ëıĮ
jan uary</w>
íħ ľ</w>
ê¸°ìĹħ ëĵ¤ìĿ´</w>
ìĭľ ê¸°
ê·¸ëŁ¼ ìĹĲëıĦ</w>
bl ue</w>
gro w
ìĭ¤ íķľ</w>
ìĤ¬ íĥľ</w>
ëĲĲ ëĭ¤ëĬĶ</w>
ìĹ° ê¸Ī</w>
r ange</w>
charac ter</w>
ìĦł ìĤ¬
ê·¸ëłĩ ëĭ¤ê³ł</w>
ch ance</w>
ìĺ¤ ëŀ«
ì°¸ê³ł ë¡ľ</w>
ìĽ¨ ìĿ´</w>
ë¸Ķ ë¡ľ
ther n</w>
centr al</w>
ìłģ ëıĦ</w>
ìĥĿ ê°ģ</w>
ev ents</w>
s we
ë²Ī ìĹŃ
ìĿĺ ìĤ¬ë¥¼</w>
ë¶Ħ ê°Ħ</w>
ì§Ħ ì¶ľ</w>
íĺ¹ ìĭľ</w>
ëį° ëł¤
p on
ë©Ķ ëª¨
ê³ °
ìłĳ íķľ</w>
ê²ĥ ìĿ¸ì§Ģ</w>
se pt
ìĤ¬íļĮ ë¥¼</w>
mor ning</w>
ì¶© ë¶ģ
ìĿĺ ë¢°
ìĦł ìŀĦ
ìĭľ ìĥģ
ëĲĺ ì§Ģë§Į</w>
ëĴ¤ ì§ĳ
ìĽĶ ëĵľ</w>
ìĥĿê°ģ íĸĪëĭ¤</w>
ìŀĲìĹ° ìĬ¤ëŁ½ê²Į</w>
f le
íĸĪ ìĸ´</w>
íķĻêµĲ ë¥¼</w>
ëĤĺìĺ¤ ì§Ģ</w>
ìĸ´ëĸł íķľ</w>
ìķĦë¬´ ê²ĥëıĦ</w>
íĶĦ ë¦°
ìĿµ ìĪĻ
íĨł ë¡Ŀ</w>
enti re</w>
ìķĦëĭĪ ì§Ģë§Į</w>
ì²´ ê³Ħë¥¼</w>
ê³µìĹ° ìĿĦ</w>
ìĦł ìľ¼ë¡ľ</w>
ha m</w>
ìĥĿ ê²¨
d g
vie ws</w>
europe an</w>
ìĹĨ ìĿĮ</w>
langu age</w>
íĮĮ ê²¬
ê²ł ì§Ģ</w>
ëĳ ĳ
im ages</w>
ê³µ ìķ½
ìŀĲ ìĿ´
m p</w>
ê²½íĹĺ ìĿ´</w>
sept ember</w>
ï¼ ļ</w>
bro ad
g as</w>
ìĭł ê·ľ
íĻ Ī</w>
pr o</w>
ê°Ĳëıħ ìĿĺ</w>
å ±
ë°© íķ´
ê¸°ê´Ģ ìĿ´</w>
ìķĬ ê¸°</w>
ëĨį ìĤ°
ãģ Ĺ
tion ed</w>
ëĭĺ ìĿĦ</w>
ì¦Ī ìĿĺ</w>
nov ember</w>
s and
ìĽĲ ìĿ¸</w>
ìķ¼ ë§Į</w>
read ing</w>
be ha
ë¯¸êµŃ ê³¼</w>
íĽĪëł¨ ìĿĦ</w>
k in
ë§Ī ì¹ľ</w>
p ass</w>
ë¶Ģ íĴĪ</w>
â ī
ìĹĲíĶ¼ ìĨĮ
íķĺ ìĸ
ìļ°ìĬ¹ ìĿĦ</w>
ìĹĨ ê¸°</w>
ì²´ íı¬
ë³´ ìķĺ
o p</w>
ê² Ĳ
ì§ģ ë¬´
ber t</w>
ìĥģíĥľ ë¥¼</w>
íĶ¼ ë¶Ģ</w>
ì¹´ íİĺ</w>
íĶ¼íķ´ ê°Ģ</w>
ad s</w>
ìĹĲìĦľ ë¶ĢíĦ°</w>
ag ency</w>
ë³´ ìĪĺ</w>
íİ¸ ìĿ´</w>
ë³´ ìĬ¤
íĻķ ì§Ħ</w>
ìĥĿ ê²¼
íķ´ ì¤Ģëĭ¤</w>
demo cratic</w>
ëĮĢ ìŀ¥
íĶ¼ ìķĦ
ali zed</w>
ì§ Ĳ</w>
ìĤ¬ ìŀ¥
h ur
ìĬ¤íĥĢ íĬ¸
êµ¬ ë¡ľ</w>
webs ite</w>
is o
ëĭĪ ìķĦ</w>
mov ement</w>
ìľł íĸī
ëĬĺ ê³ł</w>
ê¶Į ê³¼</w>
ì¹ĺ ë©´</w>
ou d</w>
íı¬ ìĬ¤ì½Ķ
ëĦ¤íĬ¸ ìĽĮíģ¬</w>
ëª¬ ìĬ¤íĦ°
ëĸł ëĤĺ
íĶĦ ê°Ģ</w>
ë¡ ±</w>
ìĺ¤ ë¸Į</w>
ìĨį ëıĦë¥¼</w>
ë§Ī ì¹¨
ëª ¸</w>
ëĶĶìŀĲ ìĿ¸
fig ure</w>
or din
al ter
econom y</w>
ë¶Ģë¶Ħ ìĿĢ</w>
s mo
, ,</w>
te ams</w>
ìŀħ ì¦Ŀ
ìĿ¸ ë¯¼
ìļĶ ë¦¬
tr aining</w>
ìķĦë²Ħ ì§Ģê°Ģ</w>
ëĤĺ ìĦ¤</w>
care er</w>
ìľłìĿ¼ íķĺê²Į</w>
bu y</w>
ìĤ¬ìĹħ ìľ¼ë¡ľ</w>
ê·ľëª¨ ëĬĶ</w>
happ ened</w>
ex pres
ëª¨ ìĬµ</w>
íĨł ëĮĢë¡ľ</w>
ìĬ¤ íĬľ
ì¹ĺ ìĹĲ</w>
ëĮĢíķĻ êµĲ
ìŀ¡ ìķĺëĭ¤</w>
ìĤ´ ìĿ´</w>
isra el</w>
ê°Ŀ ê´Ģ
en jo
ìĤ° ìĿ´</w>
ì£¼ ìĻĢ</w>
ë°° ìłľ
ì²ľ ìķĪ
ëª¨ëĭĪ íĦ°
ga ve</w>
âĶģ .</w>
ìĿ´ ë¥´ëĬĶ</w>
f ile</w>
ê·¸ ìĻĢ</w>
ëĲĲ ìľ¼ë©°</w>
ìĺģ ìĿĢ</w>
ì²Ń ìĹĲ</w>
ìĬ¤ ì½Ķ</w>
ìŀĺëª» ëĲľ</w>
pro mo
i er</w>
ëĦ ī
pl ans</w>
ëĭ¨ ëıħ</w>
ìĿĺ ë£Į</w>
ë²Īì§¸ ë¡ľ</w>
íĮ¨ ìħĺ</w>
dec ided</w>
r ound</w>
ìĸ¸ ëĭĪ</w>
ìĿ¼ ë°©
íĭ ±
ìĤ¬ë¡Ģ ê°Ģ</w>
up on</w>
ìĦ¸ ìĥģìĹĲ</w>
es tim
st age</w>
âĺ ħ</w>
af ric
ëĤ¨ ë¶ģ</w>
st oc
ìļĶêµ¬ íķĺëĬĶ</w>
íķľ ì¸µ</w>
ãģ Ł
syst ems</w>
ì§Ģ ìĨį</w>
who se</w>
íļĮ ë³µ</w>
f ast</w>
ì§Ħ ìĪł
foc us</w>
ìĦ¸ê³Ħ ìĿĺ</w>
wee k
re duc
ë³¸ ìĿ¸ìĿ´</w>
ë¯¸ìĤ¬ ìĿ¼</w>
ãĥ ¼
ìĤ¬ ë¡ľìŀ¡
ë¡¯ ëį°</w>
wr itten</w>
ì»´íĵ¨ íĦ°</w>
íķ´ ì§Ħëĭ¤</w>
ê²½ ìŁģ</w>
ìķĬ ìĿĦê¹Į</w>
k es
ìĭłì²Ń ìĿĦ</w>
sat ur
pos sib
ê¶ ģ</w>
ìĹħ ê·¸ëłĪìĿ´
ë°° ëĭ¹
octo ber</w>
ëĤ® ìķĦ
con gress</w>
ì°¨ì§Ģ íķĺëĬĶ</w>
ìĭľ ëĮĢë¥¼</w>
ê²½ ìĿ´</w>
ve hic
ìĻ Ħ</w>
íĻĶ íķĻ</w>
ta x
ê¹Ĭ ìĿ´</w>
ìĥī ìĿ´</w>
ê·¸ëŁ¬ ë¯Ģë¡ľ</w>
ê¶ ¤
ì´Ī ë°ĺ</w>
ëĭ¤ ë¥¼</w>
ê³³ ìĿĺ</w>
ìĺ¤ëŀ« ëıĻìķĪ</w>
ìĽ °
ac ti
ë³´ìľł íķĺê³ł</w>
situ ation</w>
ìħĺ ìĿĢ</w>
elec tr
ë³´ ê´Ģ
!! !</w>
ìĹ° ë°©
ë§ī ê¸°</w>
sig ned</w>
ê°ľ êµŃ</w>
ê¸°ê°Ħ ìĿĦ</w>
íĮĲ ìĹĲ</w>
ãģ ¦
nat ural</w>
ìŀĲ ê¸°ê°Ģ</w>
bre ak</w>
ìĹĪ ìĿĦ</w>
ìĤ¬ëŀĮ ëĵ¤ìĹĲê²Į</w>
ìĿ´íĥĪ ë¦¬ìķĦ</w>
íĬ¹ì§ķ ìĿ´ëĭ¤</w>
ì°¾ ê¸°</w>
ë²Ĺ ìĸ´ëĤĺ
ëıĦ ìĹĲìĦľ</w>
sum mer</w>
íķ´ ì§Ģê³ł</w>
ëį ľ</w>
f all
ent ation</w>
ì¤Ģë¹Ħ ë¥¼</w>
ë¶Īê°Ģ íĶ¼
s day</w>
íĮĮ íĭ°
russi an</w>
ìĿ´ ë¯Ģë¡ľ</w>
ê²¨ ìļ°</w>
ê²½ ìĿĢ</w>
signific ant</w>
ê·¸ëŁ¬ ìŀĲ</w>
c ause</w>
ìĹ° ìŀ¥</w>
ãħĭãħĭãħĭãħĭ ãħĭãħĭãħĭ</w>
grow th</w>
ë§İ ê³ł</w>
ìľĦ ê¸°ìĹĲ</w>
ì§Ģ ìĹ°
ëĭ´ ìĿĦ</w>
ë³Ģ ëıĻ
qu e
he ard</w>
íĹĪ ê°Ģ</w>
ì£¼ ê°Ħ</w>
ìłĢ íķŃ
ci l</w>
ê°ľ ìŀħ
ìĭľ ê¸°</w>
ê²° ìłľ
ì§Ģ íĸ¥
ëĭ¨ìĪľ íķľ</w>
ìĿ¸íĦ°ë·° ìĹĲìĦľ</w>
sol ution</w>
ìĸ´ ëĳĲ
m oun
can ada</w>
íķĺ ëĦ¤</w>
" (</w>
ëĭµ ê²Į</w>
ec h</w>
ìĺ ³
ìĭľíĤ¤ ê¸°</w>
fel t</w>
ë¬´ ë£Į</w>
íĽĦ ìĹĲëĬĶ</w>
ìĺĪ ë°©</w>
s mar
se par
ëĭ¤ ë¦¬</w>
cali for
ëĨį ì´Į
mi d
íĻį ì½©</w>
ëıĻ ìŀĳ
ëĭ¹ìĭł ìĿĢ</w>
ìĥĿ ë¬¼
ì¢ĭ ìĿĢ
con duc
num bers</w>
ê°Ĳ ìĤ¬</w>
nei gh
íıŃ ìĿ´</w>
ëĤ ®</w>
ê¹Ģ ìĦ±
ëł¸ ê³ł</w>
ë§Ī ì³¤ëĭ¤</w>
ê¸°ê°Ħ ìĿ´</w>
ì¶© ì¡±
ë³´ ëĥĪëĭ¤</w>
íĺĳ ìĥģ</w>
d ential</w>
ê°Ģ ëģĶ</w>
íķĦ ë¦¬
ëĭĪ ê°Ģ</w>
ìĭł ë¬¸</w>
êµ¬ì¡° ë¥¼</w>
ìĸ´ ì§Ģ
ali z
ì°¾ ìĿĢ</w>
ê°ľë°ľ ìĹĲ</w>
ìĬ¤íĥ ł
ë¸ Ĳ
ìķĦ ëĿ¼
ìľĦìĽĲ ìĿĢ</w>
ì§ĳê³Ħ ëĲĲëĭ¤</w>
êµŃ ìĹĲìĦľ</w>
we dn
ì¶Ķ ìĸµ
ì¥ ¬
ì¼ Ħ
ho sp
íķ´ ì§Ī</w>
ìľł ë¥¼</w>
ë¹Ħ ìľ¨ìĿ´</w>
ë¯¿ ê³ł</w>
ìĿĢíĸī ìĿ´</w>
ê³ ±
ìĺģ íĺ¼
he art</w>
se a</w>
ìĹ¬íĸī ìĿĦ</w>
ì¤Ħ ìĹĪëĭ¤</w>
ìłĪ ìĿĦ</w>
ê³ł ìľĦ
ìļĶ ìĨĮ
ìĬ¬ íĶ
å¤ §
ê³ł ë°ľ
ìķĪ íĮ
ìĪĺ ì§ĳ
íĿĶ íŀĪ</w>
ìĦ¤ ë¦½</w>
ëĭ¤ ìĦ¯</w>
el ing</w>
ì´Ī ê³¼
ë§ŀ ìĿ´
âĢ¦âĢ¦ .</w>
ê°¤ëŁŃ ìĭľ
ì¡°ìĤ¬ ëĲĲëĭ¤</w>
ì´Ŀ ìŀ¥</w>
ì£¼ íĸī
le av
ëģ¼ ë¦¬</w>
íĺĳ ëł¥ìĿĦ</w>
ìĤ¬ ê¸°</w>
are as</w>
ìĥģíĥľ ê°Ģ</w>
íĮ ¡
ëħ ķ</w>
íĻ© ìĿĦ</w>
con ven
ìłģ ìļ©</w>
ê·¼ ì²ĺ
ìĺ¤ íĨł
gr ad
ìĿ¸ íĶĦ
ìķĪ ìĭ¬
íĻĶëł¤ íķľ</w>
us ion</w>
ìĭ¤ ìłľ
ë°ľìĥĿ íĸĪëĭ¤</w>
vel s</w>
ver se</w>
ë°© ìĭĿ</w>
ìĻ¸ íĻĺ
it or</w>
ê°Ģ ìŀĲ</w>
ì¤ĳ ìĹĲìĦľëıĦ</w>
ìĪĺ ë¡Ŀ
ë³´ ê²Į</w>
ìĹĲ ëĭ¤</w>
ëıĻ íĺĦ
c au
ìļķ ìĿĦ</w>
ìĪĺ ëĭ¨
íĨ ±</w>
r a</w>
tre at
ìŀ¥ íķľ</w>
de ad</w>
ê²½ìļ° ìĹĲ</w>
ì°½ ìŀĳ
wedn esday</w>
ë¶Ħ ê¸°
ëĭ¬ ë¦¬
âĳ ¢</w>
d ang
ìĺģ íĻĶë¥¼</w>
ì´Ŀ ìĦł</w>
íĺĦ ìĭ¤</w>
ì´¬ ìĺģ</w>
ac hi
ë¦¬ ì¡°
âĢ¦ .</w>
ob vi
p it
chur ch</w>
av o
ìĽ ¨ìĸ´
sur ve
st ance</w>
ë³ į
ìĤ¬ëŀĳ ìĿĺ</w>
euro pe</w>
ìļĶ ê¸Ī
{ {
ì© į</w>
ìĿ¼ë°ĺ ìłģìľ¼ë¡ľ</w>
beha vi
ìĿ¼ìľ¼ ì¼
íķ© ìĿĺ</w>
ì¸¡ ìłķ
sion al</w>
u gg
ë°Ķê¿ Ķ
ìĦ± ëĤ¨
w all</w>
ì¶© ì²Ń
ë¯¸êµŃ ìĿĢ</w>
ìķĦ ëĵ¤
ìłĦ ëĤł
ê°ĲìĨĮ íĸĪëĭ¤</w>
íķĺ ë¯Ģë¡ľ</w>
h ood</w>
d ail
cou ple</w>
cor rec
ëĥĦ ìĥĪ
ê²½ ê¸°ìĹĲ</w>
accoun t</w>
ìŀĲ ìķĦ
ìĤ¬ìļ© íķľ</w>
íıīê°Ģ íĸĪëĭ¤</w>
íĮ¨ ëŁ¬
ìĤ¬ê³ł ë¥¼</w>
ãħľ ãħľ</w>
ëĲĺìĹĪ ìľ¼ë©°</w>
íķ´ ì§ĢëĬĶ</w>
ëĭ¹ìĭł ìĿĺ</w>
ìĸ¼ êµ´</w>
íĻľìļ© íķł</w>
íķľ ë¯¸
thur sday</w>
an ti
ê±°ëŀĺ ë¥¼</w>
ê´Ģ ì¸¡
ìĥģìĬ¹ íĸĪëĭ¤</w>
ìłķíĻķ íŀĪ</w>
ìĺģ ìĿ´</w>
ìĺģ ìĸĳ
ëŁ¬ìĭľ ìķĦ
íļĮ ìĤ¬ëĬĶ</w>
ìĹħê³Ħ ìĹĲ</w>
ìĤ° ë¦¼
ìĭ¬ ìľ¼ë¡ľ</w>
ë¡ľ ìĹĲ</w>
ìĿĮ ìĭĿìĿĦ</w>
ìĺ¤íĶ Ī</w>
im migr
a h
ìľł ë°ľ
ill ing</w>
se ven</w>
struc ture</w>
ther e
ëĮĵ ê¸Ģ
ìĭľ ê¸°ìĹĲ</w>
íļ Ł
ìĿĺ ë¯¸</w>
ìĿĺìĽĲ ìĿĺ</w>
happ y</w>
rul es</w>
ìłĬ ìĿĢ
st ay</w>
ê±´ ëĦĪ
bri tish</w>
ê°Ģ ê¹Ŀ
íķĺëĤĺ ë¥¼</w>
sp i
ì§Ģ ìĥģ</w>
ê°Ģê²© ìĿĦ</w>
ë©´ ìĿĺ</w>
ê°ľë°ľ íķľ</w>
êµŃ íļĮìĹĲìĦľ</w>
ìĦľ ìĦľ</w>
so f
ëħ¸ ë¬´
sun day</w>
ì¢ĭìķĦ ìļĶ</w>
ëıĻ ì°¸
íĸĪ ìĹĪëĭ¤</w>
be y
clim ate</w>
ìĪĺ ìļĶ</w>
wr it
ìĹĨ ìķł
ëħ¸ ìĦł</w>
ìŀĪ ìľ¼
ìĤ° ìĿĺ</w>
íķĺ ì§Ģ
ë°ľìĥĿ íķł</w>
ë¹Ħ ë¡Ģ
ìĦł ê³¼</w>
on to</w>
ê¸°ê°Ħ ìĹĲ</w>
ë¡ľ ëĵľ</w>
ì¶© ëĤ¨</w>
ë°Ģ ìĸ´
ê·¸ë£¹ ìĿĺ</w>
ê·¸ ê±°</w>
popul ation</w>
b om
ìĿ´ë²¤ íĬ¸ë¥¼</w>
l ic
ëĨĴ ìĿ´</w>
er ous</w>
re view</w>
li st
previ ous</w>
ë³¸ ê²©</w>
ëĴ Ģëĭ¤</w>
ìĦľ ìĻĢ</w>
ëĵ¤ìĸ´ ê°Ħ</w>
ìķĦëĭĪ ëĥĲëĬĶ</w>
h en
ìĭľìŀĳ íķľëĭ¤</w>
pap er</w>
íĥĪ ì¶ľ
califor nia</w>
ëıħ ìĿ¼
ìĦľ êµ¬</w>
ìĿ´ ëĦ¤</w>
ìĤ¬ ëĥ¥
ìķħ íĻĶ
ìłĦ íĻĺ</w>
å ¯
ìĤ¬ëŀĳ íķĺëĬĶ</w>
íĥĢ ëĭ¹
ìĬ¤ íĮĮ
ëĤĺìķĦ ê°Ģ</w>
ìĸµ ìĽĲìĹĲ</w>
ë¯¸êµŃ ìĿ´</w>
êµĲ ë¥ĺ
ì²łìłĢ íŀĪ</w>
ro l
vi l</w>
boo ks</w>
ìĦľìļ¸ ëĮĢ</w>
ë¬¸ ìĿĢ</w>
ê²¨ ì§Ħ</w>
ëĬĲëĤĮ ìĿĦ</w>
ab or
ì¡° ì¹ĺ</w>
ãģ £
â Ħ
w ish</w>
t i</w>
ì§Ģ ì¶ľ
ë©ķ ìĭľ
ê¸Ī ë¦¬
aug ust</w>
i m</w>
ê·¸ ë§Į</w>
ì²ĺ ë¶Ħ
ëĭ¬ ìķĦ</w>
ìĬ¤íĨł ë¦¬</w>
e th
ìłĦë§Ŀ íĸĪëĭ¤</w>
ëĤ ¯
de mon
ìĿ´ ìĬ¬
ê±° ëĳĲ
intro duc
ê°Ģ ë³į
ì¸µ ìĿĺ</w>
p aid</w>
s ns</w>
ê¸°ìĹħ ê³¼</w>
anal ys
ìĹ° íķľ</w>
ìŀħ ìĸ´</w>
ìĿ¼ ì¢ħìĿĺ</w>
ê³³ ìĿ´ëĭ¤</w>
sh or
ìºł íį¼
form s</w>
íģ¬ ë£¨
ì§Ģíķĺ ì²ł</w>
ìĻ ģ
ë§İ ìķĺ
ag ing</w>
ì²´ ë¡ľ</w>
ac ts</w>
qu ality</w>
a ult</w>
ìĦ± íķľ</w>
ì§Ģ ìĤ¬ëĬĶ</w>
allow ed</w>
ti ves</w>
ë¸Ķëŀ Ļ</w>
ìľł ìĤ¬
ê³µê°ľ ëĲľ</w>
off en
ë²Ī ìĿĺ</w>
íķĺ ëĿ¼ëĬĶ</w>
ëĮĢ ê±°</w>
ê°Ĵ ìĿ´</w>
íĻķ ë³´</w>
ìĿ¸ ìļ©
ìĪĺ ìĨĮ
o h</w>
íĿ ¥</w>
ìĭľ ëıĦ</w>
ìĿĺ ìĤ¬</w>
ìĿ´ ëĤ´</w>
ëįĶë¶Īìĸ´ ë¯¼ì£¼ëĭ¹</w>
ëĦ Į</w>
ìĨĮ ìĦ¤</w>
comple te</w>
ë¬¼ ë¥ĺ
í ī
ìŀ¬ ëĬ¥
ê³µ ëĭ¨</w>
ì¡° ëĬĶ</w>
ëĭ¬ ìķĦ
ë°© ìķĪ
quick ly</w>
loo ks</w>
ìĿ¸ ëĭ¹</w>
ìķĪìłķ ìłģìĿ¸</w>
mic ha
ì¡° ê¸°</w>
ë§Ī ë¦¬</w>
b on
ìĿ¸ ìŀ¬
íķĻ ìĬµ</w>
ëķ Ģ
íļĮ ìŀ¥
íĦ° ìĹĲ</w>
s ort</w>
ëŀĺ ëıĦ</w>
w ood</w>
íŀĪ ë¡ľ
inter view</w>
al li
ê²ĥ ìĿ¸
ë§¡ ê³ł</w>
pres ent</w>
ìŀ¥ ë¥´
ëįĺ ëį°</w>
ear th</w>
ìĨĮ ëª¨
ìĺģ ìŀħ
ë¬¸ íķĻ</w>
ê° ĵ
ìķĬëĬĶ ëĭ¤ëĬĶ</w>
ìĿ´ ëģĮìĸ´
ìį¼ ëĭ¤</w>
ì¡°ê¸Ī ìĶ©</w>
íĥľ íıī
ëª¨ ìĥī
ì£¼ ìµľ
ëª¨ ëĵ
ì¹ĺ ëªħ
hu ge</w>
sp ent</w>
ìĿ´ëªħ ë°ķ</w>
ë°° ëĭ¬
êµ¬ ìĻĢ</w>
ëĵ¯ íķĺëĭ¤</w>
ìļ´ ìĿ´</w>
vari ous</w>
êµŃíĨł êµĲíĨµ
ëĤ Ļ</w>
ìŀ¬ ê°ľ
fi x</w>
g or
d an
íķĺ ëŁ¬</w>
ê²° ë¡ł
¬ ëĭ¤</w>
coun cil</w>
b un
íĶĦ íĬ¸</w>
ìĸ´ ëĶĶ</w>
ì¢ħ ì¢ħ</w>
ìĺ ·</w>
ìĦ¼íĦ° ë¥¼</w>
ìĨį ìĦ±</w>
ëī´ ìļķ</w>
ì§ĢìĽĲ íķľëĭ¤</w>
st ly</w>
ë³Ħ ë¡ľëĬĶ</w>
ìķĦ ë¦¬
ê°Ĳ ê³¼</w>
ë°Ķ ëĭ¤</w>
ëª© ìĹĲ</w>
imp act</w>
ë§Ī íĬ¸</w>
ð Ł
ìľ¼ë¡ľ ìĦľìĿĺ</w>
ë§ŀ ì§Ģ</w>
ìŀ¬ ë£Į
ìĭł ìĦł
ìĿ´ìĸ´ ì§ĢëĬĶ</w>
ìķĪ ëı¼</w>
inclu ded</w>
å ·
ìĦ¸ê³Ħ ìĹĲìĦľ</w>
ì¹ ¸</w>
ë¥ ľ
ë©´ ìłĳ
ê¸°ìĪł ìĿ´</w>
f al
ìĤ¬ëŀĮ ìĹĲê²Į</w>
ë©¤ ë²Ħ</w>
ìľ¼ë¡ľ ë§Į</w>
f c
fic ation</w>
ìĿ´ìĬ¤ ëĿ¼
ì¶©ë¶Ħ íķľ</w>
íİĺ ìĬ¤íĭ°
ëĵľ ë¦°ëĭ¤</w>
ìŀĺ ëª»</w>
v ar
ì¹¨ ìĿĦ</w>
ëĤĺ ìĹĲê²Į</w>
ãĥ »</w>
ìķĬ ìľ¼
mat ch</w>
ê°ľ ìĦ¤
lon don</w>
ìĹ¬ìĦ± ìĿĺ</w>
ë©Ī ì¶Ķ
sus p
e e</w>
ê¸įìłķ ìłģìĿ¸</w>
off er</w>
p s
ìĿ´ë²Ī ìĹĲëĬĶ</w>
é Ľ
ìłķ ê³¼</w>
ìľł ìļ©
ìĹ° ìĿ´</w>
ì¹´ ìĿ´
ëĶĶì§Ģ íĦ¸
w ants</w>
ì§Ħíĸī íķł</w>
ë°© ìĹĲìĦľ</w>
s ound</w>
ì¤ĺ ìķ¼</w>
ìľł ì¶ľ
ì§Ģìłģ ìĿ´</w>
ìĭł íĺ¸
func tion</w>
wr iting</w>
k new</w>
ìŀ¥ê´Ģ ìĿ´</w>
íĺĳ ìķ½ìĿĦ</w>
ìľĦìĽĲ íļĮë¥¼</w>
ë³´ íĨµ
uc k</w>
íĻį ë³´</w>
ìĵ° ì§Ģ</w>
dec ember</w>
sch o
ìŀĲìĭł ìĹĲê²Į</w>
are n</w>
ìłľíĴĪ ìĿĢ</w>
ì±Ħ ìļ©</w>
ì§Ħ ê³¼</w>
ìĭ± ê°Ģ
íķĺ ê¸°ëĬĶ</w>
ìłĦ íĮĮ
ìķŀ ëĳĶ</w>
n c
ìĸ´ì© Ķ</w>
íĹ Ĳ</w>
ìĸ´ ìł¸</w>
m et</w>
e y
ìĸ´ ë¨¸ëĭĪ</w>
ëĸ¨ìĸ´ ì§ĢëĬĶ</w>
ëĮĢì²´ ë¡ľ</w>
ìĦł ì¶ľ
jo bs</w>
addre ss</w>
íļĮ ìłĦ
å ¿
ìĹ ī</w>
ìµľê·¼ ìĹĲëĬĶ</w>
íĦ° ë¯¸
ëĮĢ ë¯¸
cul ture</w>
ìĿ´ ìłķ
ìĿ¸ ì¦Ŀ</w>
ìĦł ë³´ìĺĢëĭ¤</w>
êµĲ ìĤ¬
ìĦłìĪĺ ëĵ¤ìĿ´</w>
ìĿ´ìĸ´ ì§Ī</w>
lead ing</w>
con ference</w>
x im
atten tion</w>
ìĿ´ë¦Ħ ìľ¼ë¡ľ</w>
ê°Ĳ ìĭľ
p ain
al ed</w>
ì»¤ ëĭ¤ëŀĢ</w>
ìĹ ¿
pp ing</w>
êµ° ê³¼</w>
ìłķ ëĭ¹</w>
con fi
íļ ¨</w>
ìĿ´ìĥģ ìĿ´</w>
ë¶Ħ ìŁģ
ê·¸ë£¹ ìĿĢ</w>
ìķħ íķľ</w>
êµ¬ ëıħ
ëĤĺ ìĦłëĭ¤</w>
ìĹ¬ ê²¨
c ement</w>
ê±´ê°ķ íķľ</w>
ëŀĢ ëĵľ</w>
ch in
íĦ¸ ìĸ´
íĥĢìĿ´ íĭĢ
ìĭľ íĸī</w>
ìĻ¸ ë¶Ģ
ì¶© ë¶ģ</w>
ëĮĢ ë¦½
tri ed</w>
sex ual</w>
mo ving</w>
ìĿ¸ íĶĦëĿ¼
cent ury</w>
ê²° íĺ¼</w>
ëĵ± ë¡Ŀ</w>
ëĤĺ ìģĺ
ê±´ ë¬¼
ì° į</w>
ê³Ħ ì¢Į
d ings</w>
ìĻķ ìĿ´</w>
tr ack</w>
k g</w>
e f</w>
ìĿ´ ëĤł
ê·¸ ê²ĥëıĦ</w>
íĺĦ ìĥģìĿ´</w>
c ard</w>
ìĸ´ ë¦¬
íķĻìĥĿ ìĿ´</w>
t ely</w>
ë®¤ ì§ģ
lat est</w>
ìĭ¬ ìĤ¬</w>
ëĭ¬ íķľëĭ¤</w>
di e</w>
ê±´ ìĹĲ</w>
ìĿ´ ìŀĲ
ê³ĦìĨį íķ´ìĦľ</w>
íĸĪ ëĬĶì§Ģ</w>
ëªħ ì¹Ń
ê³ł êµ¬
ê¹Ģ íĥľ
íĽĮë¥Ń íķľ</w>
g n
ë¦¬ íı¬
g d
ê±° ê¸°ìĹĲ</w>
íĻľìĦ± íĻĶë¥¼</w>
íĨµ ìĿĦ</w>
ëį° ëĬĶ</w>
ìĨĮ ìļĶ
dail y</w>
íķĺ ë°ĺ
ëĨĴ ê²Į</w>
stand ard</w>
in ning</w>
íĦ° ëĬĶ</w>
gu y</w>
lear n</w>
sur vi
ìłĦ ëł¥</w>
ë¡ľ ìĦľëĬĶ</w>
ë°Ģ íķľ</w>
ë° į</w>
íĮ Ķ</w>
ë¸Į ëłĪìĿ´
t ary</w>
ëĤĺ ëĿ¼ëĬĶ</w>
ìĺĪ ìĪł</w>
ëĵ¤ìĸ´ ê°ĢëĬĶ</w>
ìłľê³µ íķł</w>
gi ving</w>
ì·Ħ ëĭ¤</w>
ìĿ¸ ìĭĿ</w>
ìĭľ ê³ł</w>
em y</w>
ìĻĢ ëıĦ</w>
s an
ìķĬìķĺ ì§Ģë§Į</w>
tal king</w>
ì»¤ íĶ¼</w>
s er</w>
íĬ¸ ëłĪ
ìłľ ì¡°</w>
ì§ĳ ìĿ´</w>
reg ar
ê³Ħ ê¸°ê°Ģ</w>
íĭ° ë¸Į</w>
ê²¨ ìļ¸</w>
happ en</w>
h ous
mus li
ìĦ¼íĦ° ëĬĶ</w>
âĶ Ģ</w>
p a</w>
ìĥģ ë°ĺ
íĶĦ ìĿĺ</w>
ëĵľ ëĶĶ
ë§¤ ìŀ¥</w>
ëĤ ļ
ëħ¹ ìĥī
ìĺģíĸ¥ ìľ¼ë¡ľ</w>
g m
chang ed</w>
ëĮĢíķ´ ìĦł</w>
ìĸĺ ê¸°ë¥¼</w>
can c
ë¶Ģë¶Ħ ìĹĲ</w>
íĻĶ ìŀ¬</w>
ë¹ł ìł¸</w>
lead ers</w>
feat ures</w>
bor n</w>
ìĤ´ ìķĦ</w>
ach ing</w>
ëĮĢ íļĮìĹĲìĦľ</w>
ìĦł ë³´ìĿ¸ëĭ¤</w>
ìłĢ ëŁ°</w>
ìĭł ë¶Ħ
ëĨĴ ìĺĢëĭ¤</w>
ë°ķ ìĬ¤</w>
ë¬¼ ë¡ł
ìĹĪ ìĬµëĭĪëĭ¤</w>
movi e</w>
nam ed</w>
å ī
íĸĪ ëĭ¤ë©´</w>
indi a</w>
ëħ¸ëŀĺ ë¥¼</w>
paren ts</w>
ìĤ¬ ìĥģ
see m</w>
ì¢ Į</w>
ish ing</w>
íķĻ ìĽĲ</w>
port ers</w>
ìĦł ë°°
bey ond</w>
ì¶ķ ìĨĮ
ë²ķ ìĿĺ</w>
dru g</w>
ëĭ¤ ëĵ¤</w>
ì°¨ ê¸°</w>
ê¸° íĽĦ
psy ch
emplo ye
m el
ë¶ĦìľĦ ê¸°ê°Ģ</w>
dol l
ëĭ¤ ë¥¸
ìĥĿ ëªħ</w>
ê¹ İ
p p</w>
ê·¼ ìľ¡
lim ited</w>
íĺĳ ìķ½</w>
g un
äº º
ê·ł íĺķ
a u</w>
sy n
ìĤ° ìĹĲ</w>
ìĽĲ ìŀ¥</w>
ë§ŀ ê³ł</w>
ìĪĺ ìŀħ</w>
de pen
ëķ ħ</w>
ê¸Ī ìĿĺ</w>
ëĸ¨ìĸ´ ì¡Įëĭ¤</w>
íķ´ ì§Ģ
sen ate</w>
ìľ¤ ë¦¬
r ay</w>
ìĦł ìĪĺê°Ģ</w>
ëĳĺëŁ¬ ìĭ¼</w>
ëĳĺ ì§¸</w>
ë¦¬ ëĿ¼</w>
ì¤ Į
ì¡° ë¡Ģ
ê°Ħ íĺ¸
íķĺ ìŀĲëĬĶ</w>
wh at
ìł ¤</w>
íģ¬ ê³ł</w>
íĻĶ íķľ</w>
b t</w>
ë§¤ì¶ľ ìĿ´</w>
investig ation</w>
par ts</w>
ìĹħì²´ ê°Ģ</w>
êµ¬ì²´ ìłģìľ¼ë¡ľ</w>
ìļĶì¦ ĺ
íĮĮ ë¡ľ</w>
wr ite</w>
ì£½ ìĿĦ</w>
ë£ ¡</w>
ëĮĢ ìĤ¬</w>
ëıĻ ë§¹
ê°Ħ íİ¸
ì¦Ī ê°Ģ</w>
íĨµ ë³´
ch an
br ought</w>
ëĨĢ ìĿ´
ì¶ķ ìĤ°
ìĺ¤ ëŀľ
ìĺĪ ìķ½
íĪ¬ íĳľ</w>
han ds</w>
ori ties</w>
ê·¸ ê°Ħ</w>
li ons</w>
ex ac
tit le</w>
ëĦĪë¬´ ëĤĺ</w>
ê²°ìłķ íĸĪëĭ¤</w>
íķľêµŃ ìĹĲ</w>
wil li
ëıĮ ìŀħ
ê³ł ìĿĺ</w>
qu i
produc t</w>
mess age</w>
i ra
íķĻêµĲ ìĹĲìĦľ</w>
n uc
y m
ëĭ¹ íĻ©
na tive</w>
ì¿ ł</w>
ëıĻ ë¶Ģ
lo ad</w>
micha el</w>
ëĮĢ ë§Į</w>
ê³łìĨį ëıĦë¡ľ</w>
ë§Ī ì¹ĺê³ł</w>
ë©Ķ ìĿ¸</w>
ë³ĳ ìĿ´</w>
mar i
ë¬¸ ìĹĲ</w>
tex t</w>
ëĮĢ íļĮë¥¼</w>
ìĦľ ìķ¼</w>
å ¥
a tic</w>
ìľĦ ì¹ĺ</w>
prof es
ê¸° ìģ
ìĿ´ìĥģ ìľ¼ë¡ľ</w>
is tic</w>
ìłģ ë°ľ
mo b
ìĬ ¬</w>
ë§Ī ëĬĶ</w>
é Ł
ìĭ¸ ìļ°
íĻĶ íķĺëĬĶ</w>
ci es</w>
ëī ĺ
ì¹´ë©Ķ ëĿ¼</w>
ëĦ ·</w>
partic ular</w>
ìĭ¤ ìłģìĿĦ</w>
al leg
ë°° ëł¤
ìĺ® ê²¨
ev ent
ìĥģ ìĥĿ
ìŀ¬íĮĲ ë¶ĢëĬĶ</w>
ìĿ¼ ìĭľ
ê³¼ìłķ ìĹĲ</w>
ëĵ±ìŀ¥ íķľëĭ¤</w>
ap ple</w>
ìĿĺ íķĺìĹ¬</w>
ro c
ê³ł íĸ¥
ì§Ħíĸī íĸĪëĭ¤</w>
t en</w>
ìľł ì§Ģ</w>
er a</w>
ìĺ¤ëĬĺ ìĿĢ</w>
ìĸ» ê³ł</w>
ìĦ¸ ë¯¸
la ws</w>
fav or
íĺĦ íĸī</w>
uni ties</w>
ìĿ´ìĸ´ ì¡Įëĭ¤</w>
f er</w>
ì§ ±
moder n</w>
re member</w>
ë£ °</w>
foot ball</w>
ëļľ ëł·
ë¶Ī ìĿ´</w>
ar my</w>
speci fic</w>
dri ve</w>
ê¸°ìŀĲíļĮê²¬ ìĿĦ</w>
ë³´ ì¡´
ìĹ¬ ìĿĺ
maj ority</w>
we stern</w>
ë§Īì¹¨ ëĤ´</w>
ëħ¼ ëŀĢ</w>
ë§Įëĵ¤ìĸ´ ì§Ħ</w>
ë°ĽìķĦ ìķ¼</w>
ìĹ° ë§¹</w>
íĸī ìłķ</w>
íķĺ ê³łëĬĶ</w>
ë§ Ļ
ìĹ´ ìĿĦ</w>
b m
ê±° ìłĪ
ìĸ¼êµ´ ìĿ´</w>
ë§Ī íģ¬</w>
ëĦĪ ìĬ¤</w>
ìŀ¡ ìĿĦ</w>
ìĿ¸íĶĦ ëĿ¼</w>
ë°Ľ ê¸°</w>
íĪ¬ ìĪĺ</w>
ë¹Ħ ìłķê·ľ
ì§Ī ìĿĺ</w>
n ic
viol ence</w>
individu al</w>
re vol
oc cu
advertise ment</w>
ìĤ¬ê±´ ìĿĺ</w>
ì²ĺìĿĮ ë¶ĢíĦ°</w>
ìķĦ ì£¼
ì§Ģ ë¶Ħ</w>
saf ety</w>
ì´ī ì§Ħ
ëģĬìŀĦ ìĹĨìĿ´</w>
str ugg
ê´ ´</w>
ìķĦ íĬ¸
íĩ´ ì§ģ
íķ´ ìł¸</w>
íľ ©
íĸī íķľ</w>
ì§Ģê¸Ī ìĿĺ</w>
íķĺ ìĿĺ</w>
ë°© ìľ¼ë¡ľ</w>
p ack
íĦ° ìĿĺ</w>
ë¶Ī íĻķìĭ¤
ìĸĳ ìĿ´</w>
us ually</w>
íĺĳìĿĺ íļĮ</w>
ìłĢ ë¥¼</w>
ë¦¬ ìļ°
ì¹¨ íķ´
spor ts</w>
ìĭľ ëĤĺë¦¬
ê°ľ ë³Ħ
ëª© ìĪ¨ìĿĦ</w>
ch ers</w>
ëĤ´ ìķ¼</w>
ê°Ģ ê²Į
ë§¤ ëł¥
k r</w>
ëıħíĬ¹ íķľ</w>
ì¶ľ ë²Ķ
ëŀ ¨
partic ul
) :</w>
ìķĬìķĺ ëįĺ</w>
Ķ ìĿĦ</w>
ë§Ľ ìĿ´</w>
íĨµ íķĺìĹ¬</w>
ìłľ ìĿ¼
ì°¨ ëıĦ</w>
j ames</w>
ìŀħìŀ¥ ìĿ´ëĭ¤</w>
stor ies</w>
ê°ķ ìĽĲ</w>
intellig ence</w>
~ ~</w>
succ ess</w>
ë¶Ħ ëªħ</w>
ê¸°ëĬ¥ ìĿ´</w>
c ore</w>
ìĭ¬ ìĿĢ</w>
ìĽĲ ìŀĳ
offic er</w>
ê¾ ¸</w>
me dic
íıĲ ì§Ģ
ìłķë¶Ģ ìĹĲ</w>
ìķĪíĮ İ
star ting</w>
ë°ĺ ë°ķ
ìĪ ²</w>
íķ´ ìĪĺ
ì§Ħ ìłķ
ìĦ±ê³µ íĸĪëĭ¤</w>
ì²Ń ìķ½
ìĿ´ë¦Ħ ìĿĢ</w>
ìĪĺ ë¦¬
íĽ Ķ
ë¬´ ìĥģ
ìĦ¸ ìĽĮ
e ts</w>
ì£¼ë¯¼ ëĵ¤ìĿĺ</w>
reco gni
ê¸Ī ë©Ķ
sh e
ë¦¼ ìĿĦ</w>
íļĮ ìĤ¬ë¥¼</w>
ac cep
ì§Ģ ê¸ī</w>
gg er</w>
íĿ¡ ìĪĺ
íĤ¤ ê°Ģ</w>
ì¶ľ ê·¼
ìłľ ìĿ´
continu ed</w>
ë¬´ ëĮĢ</w>
x ed</w>
ìĺ¬ ë¦¬ëĬĶ</w>
pre dic
ë¯¼ ìĿ´</w>
ìľł ì¹ĺ</w>
ë°Ķ ë¥¸
ìķĪìłĦ íķľ</w>
íĶ¼ ë¶Ģ
ìĽĲ íĻľ
ìŀĳ ëıĻ
ìľĦìĽĲ íļĮê°Ģ</w>
ìĽĮ ëĤĻ</w>
co in</w>
appro ach</w>
ìĿ¼ íķĺëĬĶ</w>
ìŀ İ
ë¹Ħ ìķĦ</w>
ìĦ ¯
ìĿ¼ ê°ģ
ìĹĦë§Ī ê°Ģ</w>
ëıĦìĦľ ê´Ģ</w>
sn s
shi ps</w>
ë°ĶëŀĮ ìĿ´</w>
íĻĪ ëŁ°</w>
ìľĦìĽĲ íļĮìĿĺ</w>
consider ed</w>
ì¡° ëĭ¬
ìĹ° ìĿĺ</w>
é Ŀ
l p
ì§ĢëĤĺ ì¹ĺê²Į</w>
ì¸¡ ë©´ìĹĲìĦľ</w>
prac tice</w>
ìŀ Ķ</w>
we b</w>
piec e</w>
ëªħ íĸĪëĭ¤</w>
ìĦł ë¬¼</w>
ê·¸ëħĢ ë¥¼</w>
ëĦ£ ê³ł</w>
ìĺģ ìĿĺ</w>
ans wer</w>
in si
ë°ľ ëıĻ
ê¹ľ ì§Ŀ</w>
ak s</w>
ê°Ģ ë©´ìĦľ</w>
ê¸°ëĮĢ ë¥¼</w>
ëª¨ìĬµ ìĿĢ</w>
íķĺ ëĿ½</w>
ìĤ´ ìĿ¸
ëĬĶ ëĭ¤ëĬĶ</w>
ep iso
ëĮĢíĨµëł¹ ê³¼</w>
cl es</w>
ë¶Ģ ëĶ
ìĭľ ìĦłìĿĦ</w>
ìĿ¸ ê¸°ê°Ģ</w>
íĿ¬ ëĬĶ</w>
ìłķëıĦ ê°Ģ</w>
ì¶© ìłĦ
ë¹Ħ ìłĦ</w>
ë¶Ħìķ¼ ìĹĲ</w>
p ick</w>
ëª¬ ìĬ¤íĦ°</w>
ìľł ë¡ľ
ìĭľ ëĦĪ
anc ed</w>
ê°Ģ ê³µ
ìĤ¬ íĩ´
ìĭł ìŀħ
ì£Ħ ë¥¼</w>
ìĿ¸ êµ¬
ìĦ¼íĦ° ìĹĲìĦľ</w>
ìķĬìķĺ ê³ł</w>
m l</w>
ë§Į ëĵłëĭ¤</w>
ê°ľ ë³Ħ</w>
ë¦Ħ ìĿ´</w>
êµŃëĤ´ ìĹĲìĦľ</w>
! âĢĿ</w>
ì½Ķë¡ľëĤĺ ë°ĶìĿ´ëŁ¬ìĬ¤</w>
ìĺ¤ëĬĺ ëıĦ</w>
ê³ł ìļ©</w>
k i</w>
l ad
ê² ī
ê¸°ë³¸ ìłģìľ¼ë¡ľ</w>
ìŀĳ ê³¡
íķľ ìĿĺ</w>
ê±° ëĵł</w>
íķĻìĥĿ ëĵ¤ìĿĢ</w>
cred it</w>
ê°Ģ ì¡Įëĭ¤</w>
ëªħ ìĹĲê²Į</w>
ì²¨ ëĭ¨</w>
ê°Ħ ìłĳ
ëł¸ ëįĺ</w>
ë°ķ ìłķ
ìľ¼ë¡ľ ìĿĺ</w>
íĥĢ ê²©
offic ers</w>
ë§Īëł¨ íĸĪëĭ¤</w>
ì¢ħ ë£Į</w>
ìĻľ ëĥĲ
ìĿ´íķĺ ìĿĺ</w>
ë§Ī ê°Ģ</w>
certain ly</w>
íĻį ì½©
ê°ľ ìĦłìĿĦ</w>
ë¦¬ìĬ¤ íĬ¸</w>
ê³łê°Ŀ ìĿ´</w>
ìĿ¼ë°ĺ ìłģìĿ¸</w>
ê¸¸ ìĹĲ</w>
å ¹
ì¶ľ ìĹ°</w>
plac ed</w>
spe ed</w>
] .</w>
ì¤ĳ ê°Ħ</w>
ìĿĮ ìĭĿ</w>
s v
organiz ation</w>
ìĨį íķľ</w>
ì§ĢìĹŃ ìľ¼ë¡ľ</w>
ëĶ °</w>
gu ar
ìĿ¸ê³µì§Ģ ëĬ¥</w>
ì»¤ ì§Ģê³ł</w>
ìľ Ĺ
ëĭ¹ íĸĪëĭ¤</w>
n on
ì·¨ ìŀ¬
di stri
c d</w>
ãģ «
íļĮ ë¡ľ</w>
ìĸ´ ë¥´
ì³Ĳ ìĦľ</w>
as se
ìłķì±ħ ìĹĲ</w>
ìĿĺë¯¸ íķľëĭ¤</w>
det ails</w>
ëŃ ĺ</w>
íĬ¹ ìłķ
ì¡° ê°ģ
pri me</w>
ì§ĳ ëĭ¨</w>
se em
ìĿĺíĺ¹ ìĿĦ</w>
be au
ëħ ķ
distri bu
ìķĦ ë©Ķë¦¬
ì²´ ìłľ</w>
ë³ ¶
comm ents</w>
íĺķ ìľ¼ë¡ľ</w>
olo gi
ìĺĪ ìĥģ</w>
ì¹Ń ì°¬
ëıĦì¿ Ħ
ë°°íĦ° ë¦¬</w>
ê·¸ ìķ¼ë§Ĳë¡ľ</w>
w ise</w>
ìķĮ ë¦¬
ì¡´ ì¤ĳ
t in
thr ough
ë²ķ ìłķ
ê°Ģ ìĨį
ki ds</w>
ê±° ìĺĪìļĶ</w>
ìĤ¬íķŃ ìĿĢ</w>
ìłĦì²´ ìĿĺ</w>
ì¤ĳêµŃ ìĿĢ</w>
ìĭľ ìĹĲìĦľ</w>
ìľł íĨµ</w>
ê·¸ ëĿ¼
ìĹŃìĤ¬ ìłģ</w>
m ou
ìłľíĴĪ ìĿĺ</w>
ìłĦê¸° ì°¨</w>
ì¡Į ëįĺ</w>
ê°Ģ ëĤľ
ê²° ìłľ</w>
íķĺìŀĲ ë©´</w>
ì¡°ê±´ ìĿĦ</w>
de ep</w>
ê°Ĳ ê°ģ
ë¦¬ ìĬ¤íĬ¸
ê²ĥ ë³´ëĭ¤</w>
ìĨĮìĨ¡ ìĿĦ</w>
ìĿ´ ëŀĢ
ìŀ¬ ìłķ</w>
att acks</w>
ei ght</w>
êµ¬ ìļĶ</w>
ê³µ ìĤ¬ëĬĶ</w>
ìĦ¸ ìļ°
ìĿ¸ê°Ħ ìĿ´</w>
ë©Ģ ë¦¬</w>
íħĮ íģ¬</w>
ê¸Ī íĺ¸
ëĭ¬ ì½¤
íķĻ ê³¼
le vels</w>
ëıĦ ìłĦ</w>
ìĤ° íĻĶ
ìĭł ê¸°
ess or</w>
íĬ¹ ë³Ħ</w>
pl us</w>
ìĿ´ë¯¸ ì§Ģë¥¼</w>
nuc le
do or</w>
ì²ĺìĿĮ ìĹĲëĬĶ</w>
íģ¬ ëĿ¼
al one</w>
ê¸° ëıĦ
fu n</w>
sof tw
execu tive</w>
ëĮĢ ê¸°ìĹħ</w>
íĥĢ ìŀĦ</w>
ìĹ° ê´Ģ
ìļ© ìĿ¸
ë¶Ģ ê°ģ
ë¹Ħì¦ĪëĭĪ ìĬ¤</w>
ìŀĪ ëĭ¤
clai ms</w>
ëªĩ ëªĩ</w>
ì±ħ ìĿĢ</w>
ì§Ħ ì§Ģ
ìĥĪ ë²½</w>
ë¦¬ ìĸ¼
attem p
íĽ¼ ìĨĲ
ìĶ¨ ìĹĲê²Į</w>
ë¶Ģ ë¥´ëĬĶ</w>
ç Ľ
der ed</w>
ëĦĲ ë¦¬</w>
ìŀħ ì°°
gir l</w>
ìĹĨ ìľ¼ë©´</w>
k en
ac ted</w>
particul arly</w>
ìª½ ìĿĢ</w>
ìµľ ìĨĮ
cro w
ì» ·
consi der</w>
ìĿ¼ ì°į</w>
gro wing</w>
ëĭ´ ê³ł</w>
ìĹ°êµ¬ ë¥¼</w>
ìĹ° ê·¹
ìļĶêµ¬ íĸĪëĭ¤</w>
produc ts</w>
ê²½ì°° ìĿ´</w>
ë§ģ ìĿĦ</w>
satur day</w>
loo ked</w>
ìĺ¤ëĬĺ ìĿĺ</w>
ìłĦ ì£¼
ìķĦëĭ Ļ
ëĭ¬ëŁ¬ ë¡ľ</w>
ê¸´ ê¸ī</w>
ìĿĺ íĺ¹</w>
ë§Ī ìĬ¤</w>
ë¬´ ë£Įë¡ľ</w>
tu al</w>
ë¶ĢëĶ ª
ë³ĢíĻĶ ìĹĲ</w>
sup er</w>
ê°ĸì¶Ķ ê³ł</w>
ìĿ¸ ìĥģìĿĦ</w>
ë¶Ģ ëĮĢ
clai m</w>
a c</w>
íĨ ¡</w>
ìī ¬</w>
ìĿ´ ë¡ľìį¨</w>
n om
ëĤĺ ë¦Ħ
ì¶Ķì§Ħ íķł</w>
ë¡ ¬
b ing</w>
ë²Ħ ëł¤
thin king</w>
ê³Ħ ëĬĶ</w>
ì·¨ ìŀĦ</w>
ê¸Ģë¡ľ ë²Į
ëĦ£ ìĸ´</w>
sec u
ë¹ Ļ</w>
ë²Ħ ë¦¬ëĬĶ</w>
ìĭ¶ ìĸ´
ëĿ¼ìĿ´ ë¸Į</w>
ëĪĪ ë¬¼ìĿĦ</w>
êµŃ ê³¼</w>
ìĨĮ ë¹Ħ</w>
k es</w>
softw are</w>
ìĸ´ ìĻĢ</w>
íķĻ ëħĦ
ë§Ī ìĬ¤íĦ°
ìĿ´ ëħ¸
ìĿ¼ìľ¼ íĤ¤
ìķŀ ìŀ¥
comple tely</w>
íĬ¹ ìĪĺ</w>
ê¸°ëĮĢ íķĺê³ł</w>
ì£Ħ ìĨ¡
ëĭ¨ ëıħ
íĮ Ŀ
di ed</w>
ħ ëĭĪëĭ¤</w>
acti vi
dam age</w>
cho ice</w>
ëĵľëĶĶ ìĸ´</w>
ex pen
è Ī
z er
ê°Ģ ì§Ī</w>
on ic</w>
é Ļ
ìĭ¤ ìĭľê°Ħ</w>
ìĪĺ ìĭł
ìĨĮ ìĻ¸
ì£¼ ë§Ĳ</w>
íĺģ ëªħ</w>
ëĲĺ ëĬĶ
ë¹Ħìļ© ìĿ´</w>
ìłĲ ê²Ģ</w>
e di
ë°© ìĹŃ</w>
ê°ķ ìĿĦ</w>
ì§ĢìĽĲ íķł</w>
ìĤ¬íļĮ ìĹĲìĦľ</w>
ë²Ĺìĸ´ ëĤĺ</w>
ëĭ ¦
ëł Į</w>
ë²ķ ìľ¼ë¡ľ</w>
ê³łê°Ŀ ìĿĺ</w>
t ab
ê¸°ê°Ħ ìĿĢ</w>
íķĺ ê¸´</w>
sear ch</w>
spo kes
ê³ł ê¸ī
íķľ ëķĮ</w>
ìĹŃ ìĹĲìĦľ</w>
ëª° ëŀĲ
ëĤĺ ê°Ķëĭ¤</w>
ê³µ ê¸°
ë§Ī ìĤ¬
ëĤĺíĥĢ ëĤľ</w>
ëĺĲ ëĭ¤ìĭľ</w>
ëª¨ ì§ĳ</w>
ê¶Į ìĹĲìĦľ</w>
ëįĶ ëĿ¼
ì¹´ ë¥´
ìĥĿê°ģ íķ´
ser ious</w>
ì°¨ ìĽĲìĿĺ</w>
ê²ł ìĸ´</w>
ìį ¸
ìĬ¤ ëŁ°</w>
ê³ł íķľ</w>
ëł¥ ëıĦ</w>
ê°Ĵ ìĿĦ</w>
ìķĦëĭĪ ëĿ¼ëĬĶ</w>
ë§Į ìĿ¼</w>
ëł¬ íķľ</w>
ëª «
ìķĦë²Ħ ì§Ģ
ìĤ¬ë¡Ģ ë¥¼</w>
ë°± ìĿĦ</w>
ë§¤ ë¥¼</w>
ëĨĴ ìĿ´ëĬĶ</w>
ìĥĿê°ģ íķĺë©´</w>
ìĿ´ ë©´ìĦľ</w>
ìłķëıĦ ëĬĶ</w>
ëĵ¤ ìĹĲê²ĮëĬĶ</w>
opport unity</w>
ìĿĺ ìĭĿìĿĦ</w>
bi ggest</w>
ìĿ´ ëĥĲ</w>
êµ ¿
ìłĦ ìĿ¸</w>
íĬ¹ ìĦ±ìĿĦ</w>
ìĦ¸ ìĽĮ</w>
ê´Ģ ìľ¼ë¡ľ</w>
analys is</w>
íĺĦ ìĥģ
ë²ķ ìĽĲ</w>
stu dent</w>
ìļĶ ìĸĳ
ìĿĺ ë¡ľ</w>
ì°¸ìĹ¬ íķł</w>
ëŀ Ħ</w>
ë¸Į ë¥¼</w>
ìĤŃ ìłľ
ë³´ ìĿ¼</w>
ëĺĳ ê°ĻìĿĢ</w>
íķ´ì£¼ ê³ł</w>
ëĮĢ ë¡ľ
ê¸° ëĭ¤</w>
ëıĻ íķ´
ìĺ¤ ì§ģ</w>
ëĲĺ ê±°ëĤĺ</w>
ê±´ ìĿĢ</w>
addi tion</w>
ìĥĪ ë²½
ìķĪ ê³ł</w>
l ish</w>
ë§Į ìľ¼ë¡ľëıĦ</w>
ìķĦìĿ´ ëıĮ</w>
ìĭľë¯¼ ëĵ¤ìĿĺ</w>
ê¸Ī ê°Ĳ
re ality</w>
ìĬ¤íİĺ ìĿ¸</w>
chall eng
ìĿ´ ìĦ±
ë¬´ ëĮĢë¥¼</w>
ë¯¼ ìĿĢ</w>
ìŀĲ ë¦¬ê°Ģ</w>
ì´Ŀ ê´Ħ
exac tly</w>
ëĭ¤ ìĿ´ìĸ´
ìŀĲìĭł ëĵ¤ìĿĺ</w>
ì½ľ ëĿ¼
ëª¨ëį¸ ìĿĦ</w>
ìļ´ ìĨ¡
ëŁ Ń</w>
ëį ¤</w>
ë¶Ħ ê»ĺ</w>
we ight</w>
sec tion</w>
ëĮĢíĳľ ìĿĺ</w>
ìŀĲ ë°ľ
regi on</w>
ë³´ ëıĦ</w>
ë©ĶìĿ´ íģ¬
íķĺ ëĭĪê¹Į</w>
ìĽĲ ëĵ¤ìĿ´</w>
enc ed</w>
ìļ° ìļ¸
ê°ĸ ê²Į</w>
ê±° ëĿ¼ê³ł</w>
ìĺ¤ ë²Ħ
ìŀ¬ ìĿĺ</w>
ê³µ ìĤ¬ê°Ģ</w>
ê°Ĳ ìĹĲ</w>
ìĦł íĥĿ</w>
ìĤ° ìĿĢ</w>
ìķĦë²Ħ ì§ĢëĬĶ</w>
addi tional</w>
ë¯¸ ìĿĺ</w>
ì½ĺìĦľ íĬ¸</w>
contro l
íĺĳ ìĥģ
ëłĪ ìĿ¸
ëĬĲëĤĮ ìĿ´</w>
c ele
lg ìłĦ
íĻĶìŀ¥ íĴĪ</w>
ìĹ° ê¸°</w>
ìŀĪ ìľ¼ë¯Ģë¡ľ</w>
ìĤ¬íļĮ ê°Ģ</w>
íķľêµŃ ìĹĲìĦľ</w>
y p
em o
fe bru
ìª½ ìĹĲìĦľ</w>
è ¦
kore a</w>
ëĤľ ìĿ´
ìĿ´ ê±°ëĤĺ</w>
ëģ ĵ
ë³¸ ìĿ¸ìĿĺ</w>
êµ¬ ë¹Ħ
ëĮĢíĳľ íķĺëĬĶ</w>
ê²½ìłľ ìĿĺ</w>
ì£¼ ëħĦìĿĦ</w>
so ft</w>
multi ple</w>
febru ary</w>
íĸī ìĤ¬ëĬĶ</w>
sh ar
ë¹Ľ ìĿ´</w>
intere sting</w>
ìĬ Ī</w>
ìŀ¥ ë¹Ħ
al ing</w>
ê°Ĳ ìłķìĿĦ</w>
ìĦ± ìłģìĿĦ</w>
ëĭ¹ ìĿ¼</w>
íĺ¸ ì£¼</w>
ìĿĺ ê²¬</w>
ul tim
ìĥģ íķĺ
ë³´ ìĿ¸</w>
ê±°ë¦¬ ëĳĲ
ìķĦìĿ´ íħľ</w>
ìĿ¸ëıĦ ëĦ¤
íİĺìĿ´ìĬ¤ ë¶ģ
ãĢı ,</w>
ë¡ ¤</w>
ê° ĸ</w>
distr ict</w>
ìķĦë²Ħ ì§ĢìĿĺ</w>
ë¯¸êµŃ ìĹĲìĦľ</w>
ëĭ¬ ëĿ¼ëĬĶ</w>
ëĦ¤ìĿ´ ë²Ħ</w>
ëıĦ ì¤ĳ</w>
ëĤĺíĥĢ ëĥĪëĭ¤</w>
requi red</w>
ìĽĶëĵľ ì»µ
ìłĪ ë°ĺ</w>
ëĭ¹ íķ´</w>
ëıĻ ìĸĳ
r ad
ê²ĥ ìĿ´ëĿ¼</w>
ê°Ģ ë²¼
ìŀĲ ìĽĲ</w>
in come</w>
ìĦł ëĳĲ
ì§Ģ ë¦¬
êµ ½
ìĤ¬ ìłĦìĹĲ</w>
ìĿ¼ íĸī
ëł¹ ìĿĦ</w>
ìĦľ ë¯¼
ch oo
ìķĦ ëģ¼
ë¶Ģ ëŁ¬
ê³µ ìĤ¬ë¥¼</w>
ìķĦíĮĮ íĬ¸
è ª
ìĹŃ ìĿ´</w>
ì²´ ëł¥</w>
windo ws</w>
ëıĻ êµ¬</w>
ë¶Ģ ìĿ¸</w>
ë¶Ī ê³¼</w>
ìĽĮ ìĭ±
ê¸Ī ë¦¬ë¥¼</w>
ìĭ¤ìĭľ íķľ</w>
ìŀĳ ìĹħ</w>
ë¶Ģ ëĭ´</w>
ìĿ¼ ìłķ
íĶ¼íķ´ ìŀĲ</w>
ang el
dom in
ìĦ¸ ìļ´</w>
ê¸ī ìĹ¬
v an
é Ģ
ë³´ íİ¸
íķ´ ì¤Ħ</w>
ê¸°ë¡Ŀ íķĺë©°</w>
ì¤Ħ ìĿĦ</w>
ìĭŃ ìĭľìĺ¤</w>
ë°Ľ ìľ¼
ìĬ¤ ìĽ¨
íĶĦë¡ľ ëĵĢ
ìĩ Ħ</w>
íĤ¤ ìļ°
ìĤ Ĳ
ì§Ħíĸī ëĲĲëĭ¤</w>
ìĺ¨ ê°ĸ</w>
íı¬ ì¼ĵ
ìĭľ ëĤ´
ê°Ģ ìłķ</w>
ë¬ĺ ìĤ¬
ìĤ¼ìĦ±ìłĦ ìŀĲëĬĶ</w>
ì° Ķ
ìĿ¼ íĻĺ
ì·¨ ìĹħ</w>
ìĹŃ ìĹĲ</w>
ìķł ë¥¼</w>
êµĲ ë¥¼</w>
ë¯¼ì£¼ ëĭ¹ìĿĢ</w>
s li
ì¤ĳêµŃ ìĿ´</w>
ì¹ľêµ¬ ê°Ģ</w>
ê²ł ìĸ´ìļĶ</w>
co ach</w>
ì§Ħíĸī ëĲĺëĬĶ</w>
ìĺĢ ëĬĶëį°</w>
ë°ķ íķľ</w>
ì´Ī ëŀĺ
ë§Ĳ íķĺê³ł</w>
ì¹ ¼</w>
âĢľ (</w>
ë°Ľ ìľ¼ë©°</w>
ìĿĳ ê¸ī
ìķ µ
r ang
g one</w>
d ation</w>
ë¶ ĵ
ì£¼ ë§Ĳ
íķ´ ìĥģ
cap ital</w>
ìłľìĭľ íĸĪëĭ¤</w>
ìĤ´ íķ´
.... ....
me et</w>
ìķĦëĭĪ ëĿ¼ê³ł</w>
ìļ´ìĺģ ìĿĦ</w>
íĹ¤ ìĸ´
st e</w>
ì²ľ ì²ľ
ë§ĪìĿĮ ìľ¼ë¡ľ</w>
ë¶Ī ëŁ¬</w>
ìĪĺ ëĬ¥</w>
scen e</w>
anal y
( )</w>
êµŃë¯¼ ìĿ´</w>
h a</w>
au tom
íķľëĤĺëĿ¼ ëĭ¹</w>
descri bed</w>
ê°Ģ ìĿĦ</w>
ãħĭãħĭãħĭãħĭ ãħĭãħĭãħĭãħĭ</w>
ìłĦë§Ŀ ëĲľëĭ¤</w>
íĶ¼ ê°Ģ</w>
ì»¨ íĬ¸
) )</w>
ì£¼ ìŀ¥ìĿĦ</w>
ëĲĺìĹĪ ëįĺ</w>
ëĵ¤ ë©´</w>
y er</w>
ë¦ ī</w>
pur ch
op s</w>
eff ects</w>
man u
íķĺëĿ½ íĸĪëĭ¤</w>
op tion</w>
ìĹ¬ ìķ¼
ne u
ë§ģ íģ¬</w>
through out</w>
ìĿ¼ ì¹ĺ
ë³´ ìĥģ</w>
ì¶ °</w>
ìķĦ ê°Ģ
ëı¼ ì§Ģ
ê°Ģ ìŀħ</w>
ë³´ ëĤ´ëĬĶ</w>
ì²ĺìĿĮ ìĿ´ëĭ¤</w>
batt le</w>
ê°Ģ ê³Ħ
ìĭľ ìĤ¬
ìŀĲ ìĤ´
ì£¼ ê°Ģê°Ģ</w>
ëĵ±ìŀ¥ íķľ</w>
ìĤ´ ì§Ŀ</w>
êµ¬ ìłľ
ìĺ¬ ëł¤</w>
ìħ Ģ</w>
ì¡Į ëĭ¤ëĬĶ</w>
tur al</w>
æ Ģ
ì»¨ íħĲ
ìĥģ ì²ĺ
íĻĺ ìŀĲê°Ģ</w>
ê°ķìĽĲ ëıĦ</w>
ëĥī ìŀ¥
republic ans</w>
ê±¸ ê³ł</w>
ë¹Ħ ìľ¨</w>
ê·¸ëłĩ ì§Ģë§Į</w>
ìĺģ ìĹħ</w>
ê´Ģ ìĭ¬</w>
ë¶ī ìĿĢ</w>
ì§Ī ë¬¸ìĿĦ</w>
ìĿ¼ ìłķìĿĦ</w>
íĿ Ļ
ê³ł ê¸°
ì¶Ķ ìĦĿ</w>
êµĲ ìĿĺ</w>
íĴįë¶Ģ íķľ</w>
ê´Ģë¦¬ ìĹĲ</w>
ê·¸ ì³¤ëĭ¤</w>
ì°¸ìĹ¬ íķ´</w>
ë§Ī ë²ķ</w>
ì·¨ ìŀĦ
saf e</w>
sk y</w>
íľ´ ëĮĢìłĦ
enti ally</w>
sur pris
ë°ľìĸ¸ ìĿĦ</w>
ë°© ìĺģ
ìļ° ìĿĺ</w>
ëįĶ ìļ±
ëĮĢìĥģ ìĿĢ</w>
ìłģ ìĹĲ</w>
ìĤ¼ ìķĦ</w>
íĺĦ ìĿĢ</w>
ëĬĲëģ¼ ëĬĶ</w>
íı¬íķ¨ ëĲľ</w>
ê³ł ìĹĲ</w>
íıī ë²Ķíķľ</w>
ëª© ìľ¼ë¡ľ</w>
ë¦¬ ë©´ìĦľ</w>
up date</w>
ìĬ¤íĥĢ ìĿ¼</w>
f ren
ê¸ī íķľ</w>
ì±Ħ ë¬´
ê¸° ê¸Ī</w>
ìĿ¸ ìĪĺ</w>
ìĹ¬ ëªħìĿĺ</w>
ìĦłìłķ ëĲľ</w>
ìŀ¥ìķł ìĿ¸
ìĿĢ íĩ´
ì£¼ìĿĺ ìĿĺ</w>
exp an
ëª¨ ê°Ģ</w>
ìĦ¤ ëªħ</w>
íķľ ì§Ģ</w>
ëıĻ ê³Ħ
scre en</w>
ì½ĶìĬ¤ íĶ¼</w>
íķĺ ëĭ¤
ìĤ¬íĥľ ê°Ģ</w>
íĴĢìĿ´ ëĲľëĭ¤</w>
ìĸ´ ì°¨
effor t</w>
jour n
ëĤĺëĿ¼ ë¥¼</w>
form ed</w>
poli tics</w>
ìŀħ ë²ķ
ê¹Ģ íķ´
for ced</w>
tex as</w>
compu ter</w>
ìľĦ ì¶ķ
ì¸µ ìĿĦ</w>
íķ¸ ëĵľ
d c</w>
ìĥģ ëĭ´</w>
tion ally</w>
ëĲ¨ ìĹĲ</w>
necess ary</w>
direc tly</w>
ê´Ģê³Ħ ìĹĲ</w>
ëıĻ ëĦ¤</w>
pro t
íĶĦ ëŀľ
ëª¨ ìķĦ
ëį° ë¦¬ê³ł</w>
ìĦł ìłľ
ëĭ¨ ë§Ĳ
ìĤ¬íļĮ ë³µì§Ģ
ê±° ëĭ¤</w>
wi fe</w>
vo ters</w>
. (</w>
ìĥ ·
ìĪĺ ìĪł</w>
ëħ¸ íĬ¸</w>
íķĺ ëĲĺ</w>
ìĿ¸ ìĬ¤íĥĢ
íĽĦë³´ ë¥¼</w>
ëĨĴ ìĿ´ê³ł</w>
ëıħ ìŀĲ
ìĭł ì²´
ë¶Ģ ëĭ¹
ç ļ
m ad
ìķłëĭĪë©ĶìĿ´ ìħĺ</w>
ë³Ħ ëıĦìĿĺ</w>
e k</w>
ìĿ¼ ê´Ģ
íĺ Ķ
ìŀ¡ ìķĦ</w>
ê·¸ëłĩ ëĭ¤</w>
b ar</w>
th us</w>
íĺĦ ìŀ¥ìĹĲ</w>
ë³Ģ ìĭł
ëĿ¼ ë¦¬</w>
ë¶Ħ ëĵ¤ìĿ´</w>
ìĸ´ ì¨
ê³ł ê¸ī</w>
ë°©ìĨ¡ ëĲľ</w>
ìĭ¤ì§Ī ìłģìĿ¸</w>
ìłķ ìĭł</w>
ëĦĺ ì¹ĺëĬĶ</w>
ê° ļ
lo s</w>
ë¬¸íĻĶ ìĺĪìĪł
ì´īêµ¬ íĸĪëĭ¤</w>
ì¹ĺ ëŁ¬
ë©Ģ íĭ°
ëª¨ ë¥´ê³ł</w>
ëģĿ ëĤĺ
íĥĪ ëĿ½
íĺĦ ìŀ¥ìĿĦ</w>
ë³Ħ ëıĦë¡ľ</w>
eng ine
ìĽ ¬
sp ort</w>
loc k</w>
ãģ ¨
ë³´ ìķĪ</w>
íĹ Ĳ
ìĤ¬ìļ© íķ´</w>
exp ect</w>
å ¸
v a</w>
íıī ìĥĿ</w>
chin ese</w>
ë¸ĮëĿ¼ ì§Ī</w>
íĺĦëĮĢ ì°¨</w>
g en</w>
ëĦĪ ë¥¼</w>
ìĻ¸ êµŃ</w>
ìłĦ ìĦ¤
ì£¼ë¯¼ ëĵ¤ìĿ´</w>
arg um
h our</w>
íĿ¥ ë¯¸
ãģ ĭ
ìĦ± ëĬ¥</w>
ë°© ìľĦ
ma p</w>
ë§Īë¬´ ë¦¬</w>
ê²Į ëĬĶ</w>
íĻĶ íķĺê³ł</w>
cham pi
ìļ© ìľ¼ë¡ľ</w>
ìŀħ ëł¥
ìĬ¤íĭ ±</w>
wle dge</w>
ìĿĮìķħ ìĿĦ</w>
ì²ľ ìĹ°
ëĮĢ ìĥģìĿĦ</w>
provi ded</w>
relation ship</w>
ìĭł ì¤ĳ
ìĸµ ëĭ¬ëŁ¬</w>
íĻķì§Ħ ìŀĲëĬĶ</w>
pre mi
dar k</w>
ìĪĺ ìĹħ</w>
ìĸ´ëł¤ ìļ¸</w>
íĶĮ ë¡ľ
ëªħëł¹ ìĿĦ</w>
ìĹħ ìĹĲ</w>
desig ned</w>
ìŀĸ ìķĦìļĶ</w>
ê²ģ ê²Į</w>
ìĸµ ìĽĲìĿ´</w>
c a</w>
ìľ¡ ìĦ±</w>
comm er
manag ement</w>
ë¶Ī ìĸ´
b ol
ìĹ° ìĿĢ</w>
íıīê°Ģ ê°Ģ</w>
ìķĦ ëĤĺ
gu ys</w>
ê²½ ë¹Ħ
ëįĺ ê°Ģ</w>
bo y</w>
tr a
ìĻĦë²½ íķľ</w>
ìĿ´ ìłł</w>
ìĹ¬ ê°Ŀ
ë¹ Į</w>
ë§Į ëĭ¬ëŁ¬</w>
ì§Ģ íĺľ
íİ¸ ìĹĲ</w>
cl ass
ëĵľëŁ¬ ëĥĪëĭ¤</w>
} }
f la
ati ves</w>
studi es</w>
ëĤĺ ìĻĢ
íķŃ ìĿĺ</w>
ê°ķ íĻĶë¥¼</w>
tar get</w>
ìĿ´ ì£¼
. âĢĻ</w>
íĥĿ ìĭľ</w>
ìļ´ ëĵľ</w>
íĮĲ ìĿ´</w>
co sts</w>
ìĦ¸ê³Ħ ìĹĲ</w>
ê¶ģ ê·¹
ìĦ±ê³µ íķľ</w>
íĶĦë¡ľ ìĦ¸
ìķĦë¦Ħ ëĭ¤
ë¦¬ íĭ°
ì¡Į ì§Ģë§Į</w>
íĮħ ìĿĦ</w>
ê°Ģ ëıĦ</w>
ìĿ´íķ´ íķł</w>
bloc k</w>
ì§ģ ìĽĲìĿ´</w>
ìłĳ ìĨį
ìłĦ ë§Ŀ</w>
ç ¥
ìķĬ ëĭ¤ëĬĶ</w>
har d
ëľ »</w>
jo hn
ëª» íķĺê²Į</w>
ìķ ĵ
spe ech</w>
ìłķë³´ íĨµìĭł
ìĤ¬ìĭ¤ ìĿ´ëĭ¤</w>
ì»¤ ë²Ħ
ì½ĺíħĲì¸ł ë¥¼</w>
ë§¤ ëıĦ
ìŀĲì²´ ë¥¼</w>
( @</w>
att or
ëĵ¤ìĸ´ ìĦľ
ìĸĳ ìĤ°
ì¦Ĳ ê¸°ëĬĶ</w>
ëĤ® ì¶Ķ
over all</w>
manag er</w>
ì±ħ ìĿ´</w>
ad ed</w>
ä¸ Ń
ëļ Ŀ
ap pl
remain s</w>
ìĪĺ ìĥģ</w>
ìĹ° ëĮĢ</w>
ì£¼ë³Ģ ìĹĲ</w>
he ar</w>
ì²´ íģ¬
sho wed</w>
æ Ľ
ìłĦ ìĭľ</w>
ë³´ ì¢Į
sy m
at ure</w>
ê²Į ìļĶ</w>
ë¶Ģ ëĮĢ</w>
m s
ìĦĿ ìĿĺ</w>
ì°¸ ê³ł</w>
ìłķ íķĺê³ł</w>
ìľĦ íĥģ
g ing</w>
call s</w>
ìĬ¹ ë¦¬</w>
ìĹħ ìĿ´</w>
íģ¬ ëłĪ
ci vil</w>
ìĽĲ ìĿ´ëĭ¤</w>
terr or
ì§ ļ
íĻ Ģë¡ľ</w>
ãĢ ģ</w>
ìĹ¬ ìĪĺ
g al
ê¸° ê³Ħ</w>
ë³µ ìĪĺìĿĺ</w>
ìª ¼
ìłķ ìĥģ</w>
ëĤĺëĪ ł</w>
dig ital</w>
ìĭľ ìķĦ
ë°© íĥĦ
event ually</w>
íķĺìļ° ìĬ¤</w>
st ant</w>
ê±´ ëį°</w>
ë§ŀì¶ °
ìŀĦ ìĹĲëıĦ</w>
ë£¨ ìĿ´
ìľł ë¡ľ</w>
nucle ar</w>
y our
ì¢Ģ ëįĶ</w>
ìī½ ëĭ¤</w>
ëĵ¤ ë¡ľë¶ĢíĦ°</w>
ke ep
ë¡ľ ë¡ľ</w>
th om
ë°¥ ìĿĦ</w>
ì¡°ìĤ¬ ìĹĲ</w>
ë¬¼ ì§Ī</w>
tur ns</w>
ìĽĲëĤ´ ëĮĢíĳľëĬĶ</w>
re comm
ì¶Ķ ì²ľ</w>
ì²ľ ìĭľ</w>
thous ands</w>
ìłľ ë°ľ</w>
v in
d an</w>
ë¡ľ ìĬ¤
ëª¨ ìĶ¨</w>
incre ased</w>
vis it</w>
ber g</w>
ìĥģìĬ¹ íķľ</w>
) Â·</w>
ëĦĪ ìĿĺ</w>
ìº ĺ
ìĸ´ëł¤ ìĽĮ
ìľłì§Ģ íķĺê³ł</w>
ê¹¨ ëĭ¬
íı¬íķ¨ íķĺê³ł</w>
ìĤ¬ ëıĦ</w>
ëıĮìķĦ ìĺ¨</w>
ar re
l ack</w>
è ĩ
ìĽĲ ëŀĺ
ìķĦ ìĬ¤
ìĿ´ìĸ´ ì§Ģê³ł</w>
pre v
íİĢ ëĵľ
ìĦŃ ì·¨
w ouldn</w>
êµĲìľ¡ ìĿĺ</w>
pro ce
ì¸µ ìĹĲ</w>
f as
a x
ìŀĩ ëĶ°ëĿ¼</w>
ì§Ħíĸī íķĺëĬĶ</w>
íİĺ ë¥´
ê±° ì§Ģ</w>
ëĮĢ ìĦł
ìŀĲ ê¾¸</w>
ê±° ë¥¼</w>
ill ed</w>
ìķĦ ëĥĲ</w>
com ment</w>
ìŀĲ ëĵ¤ê³¼</w>
ê²½ìłľ ê°Ģ</w>
ì³Ĳ ëĭ¤
ì´Ŀ ìŀ¥ìĿĢ</w>
íĥĢ ë¡ľ</w>
ìķĦëĭ ĺ</w>
ê¼½ íŀĮëĭ¤</w>
char ge</w>
ê¸°ìĹħ ëĵ¤ìĿĺ</w>
íķ´ ìłľ
ìĦ¤ ê³Ħ</w>
ì¤ĳ ë°ĺ
free dom</w>
ë®¤ì§Ģ ì»¬</w>
en ge</w>
appe ared</w>
l or
col or</w>
ãĢ Ĳ</w>
ë¶Ģ ìĦľ
ìĹħ ìĿĢ</w>
ì´Ŀ ìĿĦ</w>
environ ment</w>
ìķĦë¬´ ëŀĺëıĦ</w>
l iter
ì°¨ ìĦ¸ëĮĢ</w>
cri me</w>
ëĦ¤ìĿ´ ë²Ħ
ìĨĮ ì¤ĳíķľ</w>
ê¸ī ê²©
ê³µ ìĿµ
om s</w>
ì¡´ìŀ¬ íķľëĭ¤</w>
ìĪĺ íĹĺ
íĦ° ëľ¨
ìĬ¬ ë¡ľ
íİ¸ ìĿĦ</w>
ëĭµ ìĿĦ</w>
íķĻ ìĪł
ìŀĲìľł ë¡Ńê²Į</w>
isl am
sen ior</w>
ë³´ê±´ ë³µì§Ģ
ì¡Į ëĭ¤ê³ł</w>
ëĵ¤ ê³¼ìĿĺ</w>
ë¹Ħ ìľ¨ìĿĢ</w>
proper ty</w>
ë£Į ê°Ģ</w>
ev ol
íŀĺëĵ¤ ëĭ¤</w>
lo ss</w>
s ent
íĺĦ ê¸Ī
ti l
íĬ¸ ëĿ¼
ëĤ¨ ëħĢ
prin ci
ê·¸ëŁ¬ ëĭĪê¹Į</w>
religi ous</w>
ìĿ¸ ëł¥
than ks</w>
íĿĲë¦Ħ ìĿĦ</w>
ì¤ĳ ê³ł
íı¬ ìŀ¥
ìķĮ ê³ł
ë¡ľë´ ĩ</w>
ìĸ Ģ
ê³µ ì¤ĳ
ìĭ¤ ë§Ŀ
ê¹Į ì§Ģë§Į</w>
ê³¨ íĶĦ</w>
ëª¨ ìŀĦ
ìĭľê°Ħ ìľ¼ë¡ľ</w>
ê¸°ëĭ¤ ë¦¬ê³ł</w>
ê¶ Ĳ
ìĦľ ë²Ħ
ìĤ¬ ëĵ¤ìĿĢ</w>
ë¬» ëĬĶ</w>
su it</w>
íĥĳ ìĬ¹
f li
on al</w>
íķľêµŃ ìĿĦ</w>
ë¨¹ ìĿĦ
ìµľ ìķħìĿĺ</w>
sa ve</w>
bud get</w>
c up</w>
íķ «
ìĬ¤ íĶĦ
ë³´ìĹ¬ ì£¼ê³ł</w>
ê¸°ìĹħ ìľ¼ë¡ľ</w>
effor ts</w>
ê¹¨ ëĭ«
p y
sh u
ê¸° ë¶ĦìĿ´</w>
ìĿ´ìĹĪ ëĬĶëį°</w>
presi dential</w>
ìĭ¤ ìĭľ</w>
t ap
ì¢Į ìļ°
ì¼ Ī
ë²ķ ê³¼</w>
ë²½ ìĿĦ</w>
in sur
ëªħ ìĭľ
e a
ë³Ģíĺ¸ ìĤ¬</w>
íŀĺ ìŀħìĸ´</w>
ìĹĨ ìľ¼ë©°</w>
m ec
ch ri
ëĩ ¨
ê¸°ë°ĺ ìĿĦ</w>
pass ed</w>
le tter</w>
ìľ Ļ
ìĺ¤ë°Ķ ë§Ī</w>
ç Ħ
ë¬´ ìĸ¸
re al
ëł Ľ
ê±° ëĬĶ</w>
íĶĮ ëŀľ
íļĮ ìĤ¬ìĹĲ</w>
âĶ Ģ
ìŀĲ ìĹ°</w>
ê³ł ë§Ļ
ë¯¸ ì¹ľ</w>
íĻ© ê¸Ī
secre tary</w>
immedi ately</w>
ëĤĺëĪ ł
eng lish</w>
ì§Ģ ìŀĲì²´</w>
ìĿ´ë¯¸ ì§Ģ</w>
ìĸ´ì¨ Į
n y
ë°Ķëĭ¥ ìĹĲ</w>
ë¦¬ ì¼ĢìĿ´
íĻķ ì¶©
ëĮĢ íĸī
ê²© ëł¤
ì§ĢìĽĲ ìĿ´</w>
ì²¨ ëĭ¨
stu ff</w>
âĺ ħ
íĮ ©</w>
ìĿ´ìļ© íķĺìĹ¬</w>
ê³µëıĻ ìľ¼ë¡ľ</w>
ìĭĿ ê³¼</w>
col um
ìķĦìĿ´ ìĿĺ</w>
st ren
el ess</w>
íķĺëĿ½ íķľ</w>
ìľĦ ëĮĢíķľ</w>
êµ¬ ë©į
íķľ íĻĶ</w>
or ing</w>
ìĭ¬ ìĤ¬ë¥¼</w>
å ĭ
ìĸĳ ìĦ±</w>
ëĭ¤ ì§Ĳ
ëĵ£ ëĬĶ</w>
ë¶Ģ ëĵľëŁ¬
bloo d</w>
t ac
ê²ĥ ë§Į</w>
íĺ¸ ìĿĳ
ì§ĢìĽĲ íķĺê³ł</w>
ëıĦ ëĭ¬
ë¬´ ëĮĢìĹĲ</w>
h p</w>
am m
ëħ¸ëł¥ íķĺê²łëĭ¤</w>
ì¹ĺìĹ´ íķľ</w>
ìĸ» ìĸ´
ä¸ Ģ
ìĤ¬ ë¡Ģ</w>
ìĭľìĦ¤ ìĿ´</w>
ìļ° ëŁ¬
pres sure</w>
ê°ķ ëĤ¨</w>
cra ft</w>
ë°ľ ê¸ī
a head</w>
de gre
cl assi
ìłķìĥģ íļĮëĭ´
ëľ ¯
ë¦¬ ìĹĲìĦľ</w>
ê¶Į ëł¥
ëĭ¤ íķĺê²łëĭ¤</w>
ë©ĭ ì§Ħ</w>
ì±ħ ìŀĦ</w>
ì°¸ìĹ¬ ë¥¼</w>
f l</w>
ìŀ ¦
ìŀ¥ ìĹĲê²Į</w>
ìłĢ ëłĩ
am e
ìª½ ìĿ´</w>
ì²łìłĢ íķľ</w>
z e
ë³´ ìľ¡
ëħ¸ ìĿ¸</w>
ëıĻ ëĦ¤
m ass</w>
íĩ´ ê·¼
re fl
ëĦ¤ ëįľ
ìĿ´ ë¯¼
ê¸°ìĺ¨ ìĿĢ</w>
ë¬¸íĻĶ ìŀ¬
ê·¸ ëŁ´
is on</w>
ëłĪ ëĵľ
ë°ĸ ìĹĲëıĦ</w>
íķ© ëıĻ
to wards</w>
ëĨĵ ìķĺëĭ¤</w>
ìŀĪëĬĶ ê°Ģ</w>
ëĳĲ ìĤ°</w>
ìĤ¬ê³ł ë¡ľ</w>
íķĻ ìĿĺ</w>
å ¼
sec on
bra in</w>
f air</w>
ëĤĺíĥĢ ëĤĺëĬĶ</w>
ju dge</w>
clai med</w>
ê³¼ ìłľ</w>
ì²ľì²ľ íŀĪ</w>
ìĻľëĥĲ íķĺë©´</w>
íĮ ¬</w>
ìłķëıĦ ëĭ¤</w>
ëħ¼ ìĿĺ</w>
o x
h ill
l ou
ìķ¡ ìĿĺ</w>
ëĤł ìĿĦ</w>
êµŃ ìľ¼ë¡ľ</w>
íģ´ ë¦°
ë¦¬ ë²Ħ
ìĭ¶ ìĹĪëĭ¤</w>
ë£ °
direc t</w>
? ??</w>
ëĤ© ë¶Ģ
íĹĪ ê°Ģ
ìłķ ìĪĺ
ëĵľëŀĺ ê³¤
ì§Ħ ëĭ¤ëĬĶ</w>
ë°Ķ ëŀĮ</w>
ì¡°ìĤ¬ ìĹĲìĦľ</w>
ìĽĲ ìĿ¸
íķľêµŃ ê³¼</w>
ë¹Ħ íĥĢ
ìŀħ ìŀ¥ìĹĲìĦľ</w>
ëĭ Ĳ</w>
ê²° ìĿĺ
ì¹ĺ ë©´ìĦľ</w>
ìĨĮ ìĭľ
ìĦłìĥĿ ëĭĺ
íķĦìļĶ íķĺëĭ¤ëĬĶ</w>
sub ject</w>
ìĪĺ ì§Ģ</w>
ë°ķë¬¼ ê´Ģ</w>
r ise</w>
ìĸ¸ ìłł
v ill
ìłķë³´ ê°Ģ</w>
íķ© ë³ĳ
ë³¸ ìĿ¸</w>
ìĥģíĥľ ìĹĲ</w>
íħ Ģ
ìĨĲ ëĭĺ
ìĿ¼ìĸ´ ëĤľ</w>
dev ice</w>
ìĤ¬ ê¸°
ìĭ¤ ìĿĺ</w>
ìľĦ ì£¼ë¡ľ</w>
íķľë§Ī ëĶĶ
l ink</w>
ìłķ ì§Ģ
ìķĦ ìłĢ
ìķĦëĭĪ ìķ¼</w>
ìĿ´ ì£ł</w>
ìĥģ ìļ©
appe ar</w>
íĬ¸ ëıĦ</w>
chall enge</w>
ìĭľìŀĳ íķ´</w>
ì¶Ķì§Ħ íķĺëĬĶ</w>
p il
ãħĩ ãħĩ</w>
íķ´ ìĻĶ
ë°Ľ ì¹¨
e yes</w>
ëĭµ ëĭµ
ë¦Ħ ìĿĦ</w>
inclu des</w>
ìĹ´ ìĸ´
ì¢ĭ ê³ł</w>
ìĭł ëıĦìĭľ</w>
íĴĪ ì§Ī</w>
mob ile</w>
íķľ ê¸Ģ
cou ldn</w>
ì¡° ì¢ħ
k er
íĥĢ ì¹´
ìłĦ ëĭ´
af ter
ì²« ì§¸</w>
ë¶Ģ ì§Ģ</w>
ìľĦ ì¹ĺë¥¼</w>
ìłĲ ìĪĺë¥¼</w>
s ell</w>
ìħ¨ ëĭ¤</w>
ìĸĳ ëıĦ
ëıĻ ë¬¼</w>
ë§Ī ëĿ¼
ëĵĿ ìłĲ</w>
f ru
ê°Ĳ ì§Ģ
ê²Ģì°° ìĿ´</w>
ìĿ¼ ìŀĲë¦¬
democr ats</w>
ê°ľ ì²Ļ
ì¸¡ ë©´
ì¡´ìŀ¬ íķĺëĬĶ</w>
to ward</w>
íĺ¸ ìĹĲ</w>
ì°¾ ê³ł</w>
íķ´ ìĦľëıĦ</w>
ëĮĢ ê¸°</w>
ë§Į ëĤ¬
= "</w>
ì§ ĵ</w>
ì´Ī ê¸°
ëĮĢ ë¥Ļ
ë²ķ ìĥģ</w>
ìĤ¬ê±´ ìĹĲ</w>
ë³ĳ ìĽĲìĹĲ</w>
ëıĦ ìĽĢ
ìŀł ê¹Ĳ</w>
ãĤ ĭ
ëĤĺ ìĿ´ê°Ģ</w>
deb ate</w>
íıī ì°½
ëĭ¹ ì²¨
ëħĦ ê³¼</w>
ìĦľìļ¸ ì¤ĳìķĻ
ìķĦ ëıĻ</w>
re main</w>
ì°½ ì¶ľ</w>
ìĿ¼ ë¶Ģë¥¼</w>
ìĦ¸ íĥģ
ìĭ± ê¸Ģ</w>
stren g
ìĪĺì¤Ģ ìĹĲ</w>
ê°ķ ìļĶ
t s
ëĶ° ë¥´
ìĸ´ì°¨ íĶ¼</w>
ë§Ī ëķħ
ëĨį ë¯¼
Ð ¾
p h</w>
ìĸ´ ì°Į</w>
íģ¬ ë¡ľ</w>
ë²Ī ëıĦ</w>
po or</w>
l in</w>
inte gr
íĺĳ ì¡°
associ ated</w>
beg inning</w>
ì´Ŀ ë¦¬
ëĤ´ëĭ¤ ë´¤ëĭ¤</w>
ch ic
íĽĦë³´ ë¡ľ</w>
t our
ìļ°ë¦¬ ìĹĲê²Į</w>
ìĺģ êµŃìĿĺ</w>
ëĵ¤ ì§Ģ</w>
íĻĶ ìĦ±
ìĿ´ ìĻ¸ìĹĲëıĦ</w>
ìŀĲ ëĿ¼
con fl
ìĿ´ ëģĦëĬĶ</w>
ìľłëĭ Ľ</w>
ìłĦ íĨµ</w>
ìĦľ ëĭ¤</w>
íķĺëĬĶ ê°Ģ</w>
ìĭł ìĦ¤</w>
ìĹ° ìĨį
ìĦľìļ¸ ìĭľ
ëĨĴ ìķĺëĭ¤</w>
íĮĮ ëĿ¼
íķ´ì£¼ ìĦ¸ìļĶ</w>
ìķĮ ì§Ģ</w>
ìļ´ ëĭ¤</w>
ê·¸ ëĵ¤ìĿĦ</w>
ìĬ¹ ìłĲ</w>
ëħĦ ìĥĿ</w>
íĮ¬ ëĵ¤ìĿĺ</w>
ëıĦ ìĭ¬</w>
ch er</w>
íĺĳ ìĥģìĿĦ</w>
r ou
ì±Ħ ë¡ľ</w>
ê°Ģìļ´ ëį°
scho ols</w>
ì§Ģ ì£¼
ë§¤ ëł¥ìĿĦ</w>
ìĨį ëıĦë¡ľ</w>
ê³µ ìĿ´</w>
ê¸° íļį</w>
íģ´ ë¡ľ
ìĤ¬ ìłķ
ë³¸ ì§Ī
ìĺ¤íĶ¼ ìĬ¤
íĻľëıĻ ìĿ´</w>
an tly</w>
ë¬´ë¦ İ
ìºł íĶĦ</w>
appe ars</w>
ê¸°ìģ ¨
ac ad
ê³ł ìĭ¶
ìĦ¸ ìĽłëĭ¤</w>
ê°Ģ ì¤ĳ
differ ence</w>
k m
ì¢ħ ë¥ĺ
ë¸Įë¦¬ íķĳ
ëªħ ëıĦ</w>
íĶĦë¡ľ ëª¨
b c
ë¹ ¡
íķ¨ê»ĺ íķĺëĬĶ</w>
adv ant
ìĤ¬ëŀĮ ê³¼</w>
ap paren
cont act</w>
ìºĲëĤĺ ëĭ¤</w>
ì¦ ĺ</w>
ìĿ¸ ìŀ¬</w>
ìľł ìĤ¬íķľ</w>
ìĿ¼ë³¸ ìĿĢ</w>
âĢ Ķ
ex i
íĿ¬ ê°Ģ</w>
ìĿ´ íĭĢ
ë§Ī ëł¨</w>
cl usi
ê²½ ìĹĲ</w>
ìĿ´ ëħĲ
ìŀĲ ëıĻ</w>
ìļ´ ìĿĦ</w>
ì¤ĳ ëĭ¨</w>
ëħ¸ íĽĦ
g b</w>
ê³Ħ ê¸ī
ìĪĺ ì£¼
ì´ Ľ
ìłķì±ħ ìĿĺ</w>
ì´Ī ìłĲìĿĦ</w>
re ach</w>
ê±° ì¹ľ</w>
ìķĺ ì§Ģë§Į</w>
ëıĦ ëĮĢì²´</w>
íıŃ ëł¥
s wit
ê°Ģì¡± ìĿ´</w>
íĻĺ ìĺģ
ar t
g old</w>
sm ith</w>
fam il
for tun
e ase</w>
condi tions</w>
gen der</w>
íĬ¹ìĦ± ìĥģ</w>
stre am</w>
ìĦłê±° ìĹĲìĦľ</w>
t on
ëª° ëł¤
ëħ¼ ë¦¬
íĺĳ ëıĻ
ëıĻ ìĥĿ</w>
ìķĪíĥĢ ê¹Į
ìĭĿ ëĭ¹</w>
ë¦¬ íĭ°</w>
ìĿ¼ ìŀĲë¦¬ë¥¼</w>
íĥľ ëıĦë¥¼</w>
ì»¤ë®¤ëĭĪ ì¼ĢìĿ´
íı° ìĿĦ</w>
htt ps</w>
ë³´ ëĤ´</w>
ë§Ŀ ìĿ´</w>
êµ¬ ìĹĲìĦľ</w>
ì¤ĳ ê°ľ
ìĻĦ íĻĶ</w>
ìĭľë¯¼ ìĿĺ</w>
íķ¨ ìĿĢ</w>
ë¡ ¯</w>
ìĿ´ ì¤ĳ</w>
ìĿ´ ê²ĥìĿĦ</w>
ë°© ì§Ģ</w>
ì½ ľ</w>
íĮĢ ìĹĲ</w>
ë¬¼ ê±´ìĿĦ</w>
ì²´ ìĻĢ</w>
íĹ Ľ
ru le</w>
íĿ¬ë§Ŀ ìĿĦ</w>
ro b
ê±° ëĵł
ad vis
r ich</w>
t ch</w>
ë§¤ì¶ľ ìĿĢ</w>
íķĺëĤĺ ìĿ¸</w>
ìĺģ ê´ĳ
ê·Ģ ë¥¼</w>
ì¢ĭ ìĿĦ</w>
ìłģ íķľ</w>
ìłĦì²´ ë¥¼</w>
comp ared</w>
êµĲ ì²´</w>
ë¬´ ìŀ¥
ìĥģ íĻĺ
k ers</w>
Â £</w>
ì°¨ ìĿ´ë¥¼</w>
ìĿ´íĽĦ ìĹĲ</w>
ìłģ ë¦½
íķĺ ê¸°ê°Ģ</w>
ê¸°ê´Ģ ìĹĲ</w>
ëªħ ë°±
ëĶĶìĬ¤ íĶĮëłĪìĿ´</w>
op h
ê°Ī ìķĦ
ëĦĲ ëĵľ</w>
perf ect</w>
stat us</w>
r s</w>
vo ice</w>
ach es</w>
íķĦìļĶ íķĺëĭ¤ê³ł</w>
íĴį ìĿ´</w>
con vers
ad ing</w>
al bu
ë§Į ìĽĲìĹĲ</w>
ê·¹ ëĭ¨
ìľĦìĽĲ ìŀ¥ìĿ´</w>
ë²Ħ ëł¸
ê³Ħ ìĹ´</w>
ê°Ģ ì§ĢëĬĶ</w>
ë¶Ģìłķ ìłģìĿ¸</w>
íĿ °
ìĿ´ìĥģ íķľ</w>
ëĭ¹ íķĺê³ł</w>
ìĿ´ ê±¸</w>
f it</w>
íķĺ ê¸°ë¥¼</w>
ìĬ¹ ìĿ¸
ëĤĺê°Ģ ê³ł</w>
ìķĮ ëłī
ë¬ĺ íķľ</w>
ìŀĳ ê°ĢìĿĺ</w>
ìĹħê³Ħ ìĿĺ</w>
ê¸¸ ìĿĢ</w>
larg est</w>
íĤ¤ ìĬ¤
ìĽĮ ìļĶ</w>
wa it</w>
ìłĢ íŀĪ</w>
ëªħ ì¹Ń</w>
ìĬ¤ëŁ½ ëĭ¤</w>
your self</w>
ë§Īê°Ĳ íĸĪëĭ¤</w>
ë³´ ìķĦ</w>
ë¶Ī ê±°
ti m</w>
exper im
ç¾ İ</w>
ì½ ¤</w>
ë¬´ ê´Ģ
ë²Ħ íĭ°
ë²Ħ ë¦°ëĭ¤</w>
ê±¸ ë¦°</w>
êµĲ ëıĦ
u k
ê¸° ëĮĢ</w>
cr isis</w>
poin ted</w>
ì¹ĺ ìĻĢ</w>
geor ge</w>
ìĹĳ ìĬ¤
ìļ° ë¦¬ë¥¼</w>
fi re
ê³µ ë¶Ģë¥¼</w>
ìłĳ ìĸ´
ê°ĲìĨĮ íķľ</w>
ç Ļ
loc ation</w>
ëĭ¤ ëħ
g in
ac tivity</w>
-------- --------
as p
ê²½ìŁģ ìĿĦ</w>
ìŀĲìłĦ ê±°</w>
ë°ľ ìĿ´</w>
phys ical</w>
ë°ľ ìłĦìĹĲ</w>
ê³ł ë°±
ì°© ìĪĺ
gu e</w>
ìĭľíĹĺ ìĿĦ</w>
ëĵ¤ìĸ´ ìĺ¤
ì¶ľ ìĦĿ
íķĺê²ł ìĬµëĭĪëĭ¤</w>
ìłĪ ì°¨</w>
ë°± ìķħ
ê³łíĨµ ìĿĦ</w>
re sources</w>
ra ised</w>
ìļ´ ìļ©</w>
ê·¸ë¦¼ ìĿĦ</w>
po sted</w>
ê°ģ ê°ģìĿĺ</w>
agre ement</w>
ë¶ĦìľĦ ê¸°</w>
ê¹Ģ ëıĻ
íİ¸ ìľ¼ë¡ľ</w>
ê¶Į ê³ł
qu o
ë± ĥ
ìĮ Ģ</w>
can adi
ìĿ´ ìĭľ
ë©ĶìĿ´ ìłĢ
fren ch</w>
ì£¼ ìĭĿìĿĦ</w>
íĶĮ ëłĪ
ìķĦëĭĪ ëĥĲ</w>
v ely</w>
ë¹Ħ ìĭ¼</w>
ìĥĿ ê²¼ëĭ¤</w>
ìĤ¬ëŀĳ íķ´</w>
íķľêµŃ ìĿ´</w>
ë§İ ìĿ´
bas ic</w>
ê°ĢëĬ¥ ìĦ±ìĿĢ</w>
ìĺ¤ ìĺ¤
íķĺëĬĶ ê²Į</w>
ê¿Ī ê¾¸
ê°ĲìķĪ íķĺë©´</w>
ìĥģíĻ© ìĿĢ</w>
íŀ Į
ist an</w>
f requ
indepen dent</w>
êµ¬ ë¯¸
ìłĦ ì£¼</w>
ëĤ´ ëł¤</w>
ch em
ì£¼ ë©°</w>
ë¡ľ ìĻĢ</w>
ì²ł ìĪĺ</w>
ë©´ ìĹŃ
charac ters</w>
ì±Ļ ê²¨
íģ´ëĿ¼ìļ° ëĵľ</w>
ëĭ¹ ê¸°
ìķĪìłĦ ìĿĦ</w>
ê±´ ê°Ģ</w>
ìķĦë§Ī ëıĦ</w>
ë³Ħ ëĭ¤ë¥¸</w>
ëĤĺëĪ Ķ
ëĿ¼ ëĶĶìĺ¤</w>
ëĲĺìĹĪ ëĭ¤ê³ł</w>
.. .
fail ed</w>
conserv ative</w>
ä¸ į
ëĭ¨ ìľĦ</w>
ë¨¹ ìĹĪ
ab sol
my self</w>
ëª¨ ëĵľ</w>
ìĺ¬ ë°Ķë¥¸</w>
ê·¼ë¡ľ ìŀĲ</w>
f s</w>
ìĭ¤ ëĤ´
ëĨ į</w>
ê°Ģ ìĪĺ
íĻķ ëĮĢë¥¼</w>
ad ding</w>
ëłĪ ëĵľ</w>
ê°ķ ìĿĺ
reas ons</w>
pus h
ìĤ´íİ´ ë³´ë©´</w>
ê·¸ ëĤł</w>
íĺĦìĭ¤ ìĿĦ</w>
ë°´ ëĵľ</w>
íĻĶ ë¬¼
what ever</w>
ìĿ´ëĿ¼ ë©´ìĦľ</w>
ë³´ ëĤ´ê³ł</w>
figh ting</w>
ìĽĥ ìĿĮ
ë¬´ ìĤ¬
ìľĦ ìĥĿ
ci ties</w>
is ing</w>
ëįĶ ë¸Ķ
st one</w>
ëĵľ ë¦¼
ëĭĪ ëĬĶ</w>
ì½ĺ ìħī
ìłķ íķľëĭ¤</w>
ìĵ ´
ëĭ¹ íķĺëĬĶ</w>
ì¡° íļĮ
íķĺìĺĢ ìľ¼ë©°</w>
ê¸° ë¶Ħ
fo x</w>
ìĬĪ íį¼</w>
cle arly</w>
ì§Ħíĸī íķľ</w>
ent ary</w>
ìĪĺ ëĬ¥
ê³ł êµĲ</w>
ìĽł ëįĺ</w>
di es</w>
ìĿ¸ íħĮ
ê¹Ģ ìĶ¨ëĬĶ</w>
recei ve</w>
ê°Ģê²© ìĹĲ</w>
an e</w>
sc ale</w>
íĺģ ëªħ
ëģ Ī</w>
ì²Ń ìĿĺ</w>
ê¹Ģ ìŀ¬
te l</w>
ëª¨ ìķĺëĭ¤</w>
ro ck</w>
ëĭ¨ê³Ħ ë¥¼</w>
íĶĦëŀľ ì°¨ìĿ´
íļĮ ìĽĲ</w>
it ation</w>
ì¤ĳ êµ¬</w>
ìĺ ¹</w>
posi tive</w>
ëĤł ìĿĺ</w>
ê¶Į ë¦¬
ëĵ¤ìĸ´ ê°Ī</w>
de stro
ëĲ ¨</w>
ì£¼ íĸī</w>
k ar
ì§ģìĽĲ ëĵ¤ìĿ´</w>
ìĭľ ìłĲ
f ine</w>
ëĦĺ ê²¨
ëĨĢ ìĿ´</w>
ìĹħì²´ ìĿ¸</w>
auth or</w>
ìŀĲ ëĭ¤</w>
ë°ĶìĿ´ ìĺ¤</w>
ìĿ´íĽĦ ë¡ľ</w>
associ ation</w>
ëª° ëĿ¼</w>
ìĿ´ íĭĢ</w>
ìľł ëĮĢ
ìĿ´ ì¤ĳ
australi a</w>
ëĭ¬ ëł¤</w>
ì§ģ ìłĦ</w>
ìį ©
íĸ Ħ
ë¶ķ ê´´
ìķĬ ê²ł
ìĿ´ ë¥¸ëĭ¤</w>
norm al</w>
ë¬¸íĻĶ ìĿĺ</w>
ê°ĢëĬ¥ ìĦ±</w>
ent y</w>
treat ment</w>
ìĺĪ ëĬ¥
n as
ê·ľëª¨ ë¥¼</w>
l and
ë³´ ëĥĪ
ë§¡ ìķĺëĭ¤</w>
ëī´ ìĬ¤
v r</w>
ê´´ ë¡Ń
ë¯¸ ì¹ł</w>
ce o
ìľł ê¶Į
sp ending</w>
hel ped</w>
ì² ¼
ë¬´ ë£Į
ìª½ ìĿĺ</w>
ë¸ Ĳ</w>
ì§Ħ íĻĶ
l ess
êµ¬ ê°Ħ</w>
ìĭľë¯¼ ëĵ¤ìĿ´</w>
bro wn</w>
ìŀ¡ ëĬĶ</w>
ê¸° ëħĲ</w>
com for
m ex
æ Ļ
ë¶Īê³¼ íķĺëĭ¤</w>
plac es</w>
enc our
cap it
ì¡´ ê²½
ëħĦ ì§¸</w>
íķľ íħĮ
íĻķ ë¥ł
power ful</w>
ì§Ģ ì§Ģë¥¼</w>
ìĹŃ ëĮĢ
ë¡ľ ë§¨
êµŃ ìŀ¥ìĿĢ</w>
íıŃ ìĿĦ</w>
ë¹Ħì¤ĳ ìĿĦ</w>
ìŀĪ ìĸ´ëıĦ</w>
ëĮĵ ê¸Ģ</w>
ê´Ģê³Ħ ìŀĲ</w>
íĮĮ ê°Ģ</w>
ìĸ´ëĳ ł
ìĤ¬íļĮ ê³µ
ì§Ģë°©ìŀĲì¹ĺ ëĭ¨ì²´
ìĪĺ ìĪłìĿĦ</w>
ê¸°ë³¸ ìłģìĿ¸</w>
ê²½ íĸ¥ìĿ´</w>
ê³µìĭľ íĸĪëĭ¤</w>
ìī Ĳ
ë¶Ģ ë¶Ģ
êµ¬ ê¸Ģ
ë¶Ļ ìĸ´</w>
ì¡° ë§Į
ì°¨ ëĿ¼ë¦¬</w>
ë¤ ĺ
ìľł íļ¨
ìĺĪ ìģĺ
ê³¼ ìŀ¥ìĿĢ</w>
ìĭł ê²½</w>
ìĭ¤ íŀĪ</w>
ëĪ Ħ</w>
ìĦľ ì´Ī
ëĸł ëĤĺ</w>
ìĨĶì§ģ íŀĪ</w>
v an</w>
ë¹Ħ íķµ
ìłľ ëĦ¤
ë§Ī ì¼ĵ
id a</w>
ê°Ģ ëĿ¼
ì¦Ŀê°Ģ íķĺê³ł</w>
ëł¹ ìĿ´</w>
ìĺ¬ ë¦¬ê³ł</w>
candi date</w>
ì¶Ķ ì¶ľ
ìĤ¬ìļ© íķľëĭ¤</w>
ìłĢ ê°Ģ</w>
t ren
ëĵ¤ ìĿ¸</w>
ìľł íĺķ
ìĹ° ë£Į
ë§¤ ê°ģ</w>
ìĺ¤ ë¡ľ
ìĿ´ ê¸´</w>
ëĤ¨ ë¶Ģ
ìĹħì²´ ìĿĺ</w>
ê²Ģì°° ìĹĲ</w>
famil ies</w>
mex ic
at ory</w>
ìĤ¬ ëĵľ</w>
or ies</w>
ë§¡ ìķĦ</w>
feat ure</w>
ì§ĢëĭĪ ê³ł</w>
ì£¼ ìĿ¸</w>
ìĭł ìķĻ
ë°ĸ ìĿĺ</w>
ê± į</w>
ëĬ Ļ
ë¶Ģ ì¡±</w>
ëħ¸ íķĺìļ°
íĽĦ ìĹĲëıĦ</w>
ìĿ´íĽĦ ìĹĲëıĦ</w>
ê°Ģ ë§Į
ëıĻíĺĦ ìķĦ</w>
ëĤĺíĥĢ ëĤĺ
k g
ëł¤ ìķ¼</w>
ë³¸ë¶Ģ ìŀ¥ìĿĢ</w>
ì°¨ ìĻĢ</w>
ì¢ĭ ê²Į</w>
ëĭ¬ ë¦°</w>
ìłĢëł´ íķľ</w>
ì°¨ ëŁīìĿĦ</w>
ãħłãħł ãħłãħł
ak er</w>
ë¨¹ ìĿĢ</w>
ãĥ ³
ìłĢ ìĿĺ</w>
ìĦ± ìłģ
h i</w>
ì¿ ¨</w>
êµĲ ìĪĺê°Ģ</w>
ì§ĳ ìĿĢ</w>
s ong</w>
weap ons</w>
ff ff
ìľł ìĤ°
ë¹Ħ ìľ¨
ìĸ´ì©Į ë©´</w>
ìķĦëĭĲ ê¹Į</w>
ëĤ´ëĨĵ ìĿĢ</w>
ãĢ ĳ</w>
ëĶĶìŀĲ ìĿ´
ìĿ´ìļ© íķĺëĬĶ</w>
ìĭľì¦Į ìĿĦ</w>
ë²Į ìĿ´ê³ł</w>
ìĦ± ìĿ¸</w>
ex t
skíħĶëłĪ ì½¤
ìŀĥ ìĿĢ</w>
ìĸ´ëĶĶ ìĦľ</w>
ì¦Ŀ ìĥģìĿ´</w>
ìłĦìŁģ ìĿĦ</w>
h d</w>
ìķĦíĶĦë¦¬ ì¹´
ìĽĶ íķľ</w>
h us
íķĺ ëĵ¯</w>
ìĿ¼ ëĮĢ</w>
ìµľ ìĨĮíĻĶ
ì¦Ŀ ìĭľ</w>
ìĿĺ ìĿĺ</w>
ìļĶì²Ń íĸĪëĭ¤</w>
m i</w>
ìĨĮ íĺķ</w>
ë§Ī ìĬ¤íĦ°</w>
ìŀĬ ì§Ģ</w>
ìĥĿê°ģ ìĿĢ</w>
ê¸° ìĹĲìĦľ</w>
ë¶Ģ íķĺ
s end</w>
ëľ» ìĿ´ëĭ¤</w>
ìĸ» ìĹĪëĭ¤</w>
íķľ ì§Ħ
hosp ital</w>
ìĸĳ ìĿĢ</w>
ìŀĲ ëħĢ</w>
ëĮĢ ë¬¸
ì§Ī íĻĺ</w>
recor ds</w>
ìĤ¬ ëĵ¤ìĿĺ</w>
ë°ĺìĿĳ ìĿ´</w>
ìŀĪìĿĦ ì§Ģ</w>
ap s</w>
ìĭľ ê°ģ</w>
ìŀħ êµŃ
íĺ¸ ëĤ¨
develop ed</w>
sho wn</w>
ìķĦì¹¨ ìĹĲ</w>
íı¬ íĬ¸
fr anc
ëĭ¹ íķł</w>
ìĿ´ ìļĶ</w>
fl or
ìĺ¤ ëĶĶ
ê¸° ëıĻ
ìķĦíĶĦë¦¬ ì¹´</w>
p re</w>
ìĭ¤ íĥľ
ëĤ¨ ê²¨
ìĺ¤ ë¹ł</w>
ëĮĢë¶Ģë¶Ħ ìĿ´</w>
ìĿ´íĥĪ ë¦¬ìķĦ
ì°¾ ìķĺëĭ¤</w>
ìŀħ ìŀ¥</w>
ìĿ´ìĹĪ ìľ¼ëĤĺ</w>
ìĿĮ ìĹĲ</w>
ì±Ħ ê¶Į</w>
ëĭ¬ ìĹĲ</w>
ê²Į ìŀ¬
s sed</w>
ëłĪ ìłĦ
ëĭ¨ ê¸°
ìķĦ íĤ¤
cele br
ì§Ħ íķľ</w>
ëħ¼ ìŁģ
ê¹Ķ ëģĶ
ë¶Ģ ìŀĳìļ©
ë³´ ìĿ´ë©°</w>
ìķĦ ìĿ¼
bo t
ìĦľ ìĪł
ë°ľ ë¡ľ</w>
ìķ¼ ë§Ī
êµŃ ìĦ¸
prot ect</w>
íķ¨ ìľł
ì§ķ ê³Ħ
ì£¼ìĿĺ ê°Ģ</w>
ë¶ģíķľ ìĿĢ</w>
ê¸°ê´Ģ ìĿĢ</w>
ëĲĺìĹĪ ìĿĦ</w>
ê¹Ģ íĺĦ
ëħĦ ë§ĮìĹĲ</w>
k y
l uc
ìĭ¸ ê³ł</w>
ê¸° ë¶Ħ</w>
ìĺ¬ ë¦´</w>
æ ī
pic ture</w>
re spec
m un
gre ater</w>
d ated</w>
íĥĢ ìŀĲ</w>
jap an</w>
success ful</w>
syri a</w>
ê°ĢìĬ ´</w>
ìĿ¼ ìŀĲ</w>
ê±°ëĵł ìļĶ</w>
íĸĪ ëĭ¤
ìĦ¤ ë¬¸
ìłķì±ħ ìĿ´</w>
min im
ger man</w>
íĺĳ ìĿĺ</w>
ë± Ģ
ì²ĺ ë¶Ħ</w>
ìĤ¬ ê°ģ
ìľł íķ´
ìĭľ ê°Ģ
ìĪĺ ëł´
ë°ĺ ëł¤
ë°° ìĥģ
ìĿĺ ìŀ¥ìĿĢ</w>
ëĭ¤ ë¦¬ë¥¼</w>
ìĹĨ ì§Ģ</w>
ê³ł ìĪĺ
ê³¼ìłķ ìĿ´</w>
ë¢ °</w>
r an</w>
ìĨĮ ìĭĿ
ìľĦíĹĺ ìĿ´</w>
consi st
ëĺ ¥
íķĻêµĲ ëĬĶ</w>
ìĹ° ê³Ħ</w>
ìĨĮ ê°ľ</w>
tel ev
ìĺ¤ ë¥´ê³ł</w>
ëª» íĸĪëįĺ</w>
pp er</w>
fe ar</w>
ì£¼ìŀ¥ íķĺëĬĶ</w>
ë¹Ħì¤ĳ ìĿĢ</w>
ê³łê°Ŀ ìĿĦ</w>
augh ter</w>
ìĹĨ ëĬĶëį°</w>
ìĿ´ë£¨ìĸ´ ì§Ħ</w>
( (</w>
ìĹĶ ì§Ħ</w>
ì¶Ķ ëĿ½
ë³´ ìĺĢ
ëĭ¤ìĿĮ ìĹĲ</w>
g in</w>
íıī ìĥĿ
ìĬ¤ íĥľ
thre at</w>
ê¸Ī ìĨį
ë¹ µ</w>
ìĭľ íķĺëĬĶ</w>
ëĭ¨ ì¶ķ
ì¤ĳ ê³Ħ
ìĿ´ ì§Ģ
ìĭł ìĦ¸ê³Ħ
ëĮĢíĳľ íĮĢ</w>
ìĺ¤ ê°Ģ</w>
ë§Į ëĤĺëĬĶ</w>
íĸī ëıĻ</w>
ì§Ħì¶ľ ìĿĦ</w>
íĥĢ ìŀħ</w>
ê°ķ ëıĦ</w>
ëĭĪ ìĬ¤</w>
ë§İ ì§Ģ</w>
ìĺĪìłķ ìĿ¸</w>
ëŃĲ ìķ¼</w>
ê¼ Ń
ë³´ìĹ¬ ì¤Ģ</w>
li e</w>
o k</w>
íĴĪ ìĿ´</w>
k a
z a</w>
ê²½ìŁģ ìĿ´</w>
all s</w>
ìĹ° ê¸°ë¥¼</w>
h t
ìŀł ìĿĦ</w>
ëģĮ ìĹĪëĭ¤</w>
r oun
ëĮĢ ê³ł</w>
tru th</w>
ê³µ ìĿ¸
ê¸° ë³´ëĭ¤ëĬĶ</w>
ide as</w>
íķĻêµĲ ìĿĺ</w>
ìłķ ê¶Į</w>
ë³´ ëĵľ</w>
ë´Ĳ ìķ¼
ty pes</w>
ìłķ ì§Ģ</w>
pri mary</w>
ë°Ķ ê¹
li br
str ong
ê·¹ íŀĪ</w>
previ ously</w>
r o</w>
íį¼ íı¬
a tional</w>
radi o</w>
ëĤĺ ê°Ħ</w>
ìĸ´ ìĹĲ</w>
íķĺ ìĭł</w>
ìĹ´ ëł¸ëĭ¤</w>
é ĸ
manu fac
ìĤ¬ê±´ ìĿĢ</w>
! '</w>
ìĿ¸ ëĵ¤ìĿĦ</w>
ëıĦìĭľ ìĿĺ</w>
ìķĪ ëĵľ
ìŀĲ ì¡´
tec h</w>
ìľł ìķĦ
íıŃ ëł¥</w>
ìĽĲ ìĿ¸ìĿĦ</w>
ho t</w>
ëĬĺìĸ´ ëĤł</w>
emplo y
secre t</w>
ìĤ¬ìļ© ìŀĲ</w>
ê°Ĳ ëıĻ
ëĭ¨ê³Ħ ë¡ľ</w>
êµŃê°Ģ ê°Ģ</w>
ìĿ¸íĦ° ë·°</w>
ëĭ¹ ë¶Ħê°Ħ</w>
ger many</w>
ìĦ¤ ìĿ´</w>
íĮĢ ìŀ¥ìĿĢ</w>
ìºĲ íĶ¼
ìĪĺ ìĹħìĿĦ</w>
ìĿ´ ì¢ħ
ìĸµ ìłľ
ì§ģ ìĹħ</w>
ê³Ħíļį ìĿ´</w>
mar ri
ì¸µ ìĿ´</w>
ê·¹ ëĮĢíĻĶ
ë³ĳ ìĽĲìĹĲìĦľ</w>
ê½ Ĥ
ê°Ī ëĵ±ìĿĦ</w>
extr a</w>
ìĦĿ ìĹĲ</w>
ëŃ ĩ
ìļ´ ìłĦ</w>
ë£¨ ë¥¼</w>
bit coin</w>
ê°ķíĻĶ íķĺê³ł</w>
gener ation</w>
Ã £
ìĦ¸ê³Ħ ìłģìľ¼ë¡ľ</w>
ì§Ģ ë¶Ī
ê¸Īìķ¡ ìĿĢ</w>
ëĽ° ìĸ´ëĤĺ
ë°© ì¹ĺ
íĬ¹ ì§ķ</w>
iz e</w>
n ice</w>
s ar
str ai
ëĤ´ ë¦¬ëĬĶ</w>
ìºłíİĺ ìĿ¸</w>
resear chers</w>
an g</w>
ìĦ±ê³µ ìłģìľ¼ë¡ľ</w>
ì°¸ìĦĿ íĸĪëĭ¤</w>
ë¶ģ ë¯¸</w>
ses sion</w>
ì°© íķľ</w>
ëĮĢíķĻ ìĿĺ</w>
íı¬ ëŁ¼</w>
al lows</w>
ë§Ĳ íķĺë©´</w>
ëıĻ ë¶ģ
ë°© ìĸ´</w>
str ic
ma x</w>
ìĦł ë³Ħ
ffff ff</w>
ê³ł êµĲ
íĮ¨ ëĦĲ
ì¡° ë¡ľ</w>
ê²¨ ëĥ¥
íĶĦëŀĳ ìĬ¤
ar m</w>
ì¡° ë¦¬
ìĤ° íķĺ</w>
beg in</w>
ì İ
ì¹ľ íĻĺê²½
ìĽĢì§ģ ìŀĦ
ì¦Ŀ ìĸ¸
ê·¼ ë¬´</w>
k o</w>
ë¶Ļ ìĿĢ</w>
ë³´ ìľł</w>
ê´ĳ ìĹŃìĭľ</w>
ê³ł ìĨĮ
ìĦ¤ì¹ĺ ëĲľ</w>
ëıĦ ëĦĲëĵľ</w>
ì£½ ìĿĮìĿĦ</w>
íķĺëĤĺ ëıĦ</w>
ant as
êµ¬ ëĭ¨</w>
ìĹ¬ ìŀĲê°Ģ</w>
k ill</w>
ser ver</w>
ëª ¹
ìĿ¸ìĬ¤íĥĢ ê·¸ëŀ
ê²½ ì£¼
íĺĳ ìĿĺë¥¼</w>
jo in</w>
ì¤ĳ ëıħ
contr act</w>
ìĥī ê¹Ķ
ìłģìļ© íķ´</w>
æ Ķ
ìĤ¬íļĮ ìłģ
ë» Ĺ
ìľł ìĹ°
ìŀĲìĦ¸ íŀĪ</w>
ìĭ¤ ìłģìĿ´</w>
ìĭľ íķľ</w>
ìłĦë§Ŀ ìĿ´</w>
ìĦ¸ íķľ</w>
ìĦłê±° ë¥¼</w>
íĥĢ ìŀħ
ìķĦëĭĪ ìĹĪ
see ing</w>
pr ise</w>
êµĲ ìĦŃ
ëĦ ¹</w>
ëıĮ ìĿ´</w>
ìĵ° ê¸°</w>
íĶ¼ ëĬĶ</w>
ìļ° ìĻĢ</w>
ìĬ¤íĤ ¨
ìĪĺ ìĭŃ
ìĦľ ë¥ĺ
ë§¤ ìĿ¼
æ Ħ
ìļ° ë¥¼</w>
ìŀ¥ ë©´ìĿ´</w>
ìŀĪ ìĿĮ</w>
ëĮĢíķĻ ìĥĿ</w>
ìķĬ ìĬµëĭĪëĭ¤</w>
ìĦľìļ¸ì¤ĳìķĻ ì§Ģ
ìĭ¤ ê³¼</w>
ëķĮ ìĹĲ</w>
íķĺìĹ¬ ê¸Ī</w>
ìĭł ìŀĦ</w>
ê¸Ī ê³¼</w>
ìĨĲ ìĿ´</w>
lan ds</w>
ë¹Ħ ë¡ľ
sal es</w>
r ates</w>
fun ding</w>
p ic</w>
foun dation</w>
ê³ł ëıĦ
ìĦ± íĸ¥
ãģ §
ìĪľ ì²ľ
ëĨĴìķĦ ì§Ģê³ł</w>
ì¡°ë§Į ê°Ħ</w>
ìľĦ íĹĺ</w>
ëĤ´ ëĭ¬</w>
ìŀĪìĹĪ ìĬµëĭĪëĭ¤</w>
pro pos
cl ick</w>
ì£¼ ì²´
fem ale</w>
ìĻĦ ìłĦ
pro jects</w>
ê²½ ìĿĺ</w>
ë°ĺ ìĿĦ</w>
re t
z y</w>
íĥĢ ê°Ģ</w>
con f
ìĺĪ ëĬ¥</w>
attem pt</w>
ë¯¸ ë§Į</w>
ê¹Į ì§Ģ
ìłľ ìłķ
ì» ¸ëĭ¤</w>
sv g</w>
ëıĦ ëª¨
ìĨĮ ê°ĲìĿĦ</w>
ëĬĶ ëĭ¤ê³ł</w>
ìĭ¤ ëł¥ìĿĦ</w>
tur ning</w>
ä ¿
vil le</w>
ë¹ĦêµĲ íķ´</w>
ëĭ¨ ëĭ¨
íķĺ ìĪĺ
gi ves</w>
ìłķíĻķ íķĺê²Į</w>
ëª¨ ìŀĲ
ì£ ½</w>
ë¬´ ëĮĢ
ë¨¸ ë¦¬ê°Ģ</w>
ì¤Ħìĸ´ ëĵł</w>
ìĸĺê¸° ëĭ¤</w>
ìłĦ ìŀĳ
ì¡°ìĤ¬ íķľ</w>
íķľ íķ´</w>
ìķĦëĭĻ ëĭĪëĭ¤</w>
ê´Ģ ìłĲìĹĲìĦľ</w>
ëĲĺìĹĪ ëĬĶëį°</w>
follow ed</w>
ê³¼ ê±°ìĿĺ</w>
at tr
ìŀĪ ëĤĺ</w>
eas ily</w>
ìŀ ¼
ìĭł ê³łë¥¼</w>
ìĥĿê°ģ ìĹĲ</w>
ì°½ ìĿĦ</w>
ìĨĮ ìľĦ</w>
e ve</w>
ìħ Ķ</w>
ê²½ìłľ ë¥¼</w>
ìĿ´ëĿ¼ ìĦľ</w>
ì¦ī ê°ģ</w>
ë¬´ ìļ©
ë¡ł ìĿ´</w>
ìĬ¹ ìĿ¸</w>
ìĤ¬ìļ© íķĺê³ł</w>
ë°° ìĹĲ</w>
su n</w>
ìĺģìĹħ ìĿ´ìĿµ</w>
tr ou
ìŀĥ ìĸ´ë²Ħ
ter ed</w>
ì§Ħ ìĹĲ</w>
ìĸ¸ ëįĶ
ë§ µ</w>
ëĳĺ ìĿ´</w>
commis sion</w>
ìŀ¥ ìĭĿ
ê¿ Ī</w>
íķľêµŃ ìĿ¸</w>
tu be</w>
ìŀĪ ëĭ¤ê°Ģ</w>
ë¿ ľ
ì£ ł
íĥĢ ìļ´</w>
ê³µ ìĽĲ
ëĤĺíĥĢ ëĤĺ</w>
ë³´ê³ł ìĦľ</w>
ey e</w>
íĻĶ íķ©
tu red</w>
reg ular</w>
ìħĺ ìĿĺ</w>
ì¢ħ ëª©</w>
cri tical</w>
ëĭ¹ ìĭľìĿĺ</w>
íķľ ê³Ħ
ìĺ¤ ìĿĺ</w>
ê°ĢëĬ¥ íķĺë©°</w>
ìŀĲìĭł ìĿĢ</w>
ëĮĢíĳľ ë¥¼</w>
ì§ĳ ìĸ´
the ory</w>
ìłľ ìŀ¬</w>
ì¼ĢìĿ´ ë¸Ķ
ì¢ħ ìĿĢ</w>
íķľ ìĿĦ</w>
spe aking</w>
ëĪĪ ìľ¼ë¡ľ</w>
ìķĦìĿ´ ëĵ¤ìĿĢ</w>
ì¤Ģë¹Ħ íķĺê³ł</w>
ëĮĢ ëĮĢ
ëį° ëĭ¤ê°Ģ</w>
m ill
lear ning</w>
dou ble</w>
ìĹ° ë´ī
le ts</w>
uni que</w>
se y</w>
êµĲìľ¡ ì²ŃìĿĢ</w>
ìĪĺìĪĺ ë£Į</w>
ë© Ķ</w>
ë³ĳ íĸī
ê³¼ ìłľ
ëĮĢ ì¤ĳ</w>
ec ting</w>
mater ial</w>
ëĲĺ ëįĺ</w>
p as
ëĨĴ ìķĦ</w>
ì¹´ ìĻĢ</w>
ëª¨ìĬµ ìĿ´ëĭ¤</w>
ìħ Ī</w>
ë¬¸ìłľ ìĿĺ</w>
ì·¨ ìĨĮ</w>
is land</w>
ë¹Ħ ìķĦ
ëĮĢì¶ľ ìĿĦ</w>
ëĭ Ľ
ì°¸ ê°Ģ</w>
ìĦ¤ ë¹Ħ</w>
ìĿĮ ìĦ±
íķ ı
p hi
ari an</w>
íį¼íı¬ ë¨¼
ìĿĺ ìĭĿ</w>
dec ades</w>
ì½Ķ ëĵľ</w>
ìĸĳ êµŃ</w>
ìĬ¹ ë¶Ģ
ìłĢëłĩ ê²Į</w>
ìķĦìĿ´ ëĬĶ</w>
favor ite</w>
ë£Į ëĬĶ</w>
go als</w>
ëģĿ ëĤĺê³ł</w>
ìłľìĻ¸ íķĺë©´</w>
benef its</w>
ì°¨ì§Ģ íķĺê³ł</w>
ê¹Ģ íı¬
ìĿ´ ê²¨
íĻĺ ìŀĲìĿĺ</w>
ê°Ģ ëł¤
ëĤĺ ìĦ°
mach ine</w>
ê³µëıĻ ì²´</w>
ìľĦíĹĺ íķľ</w>
ê¼¼ ê¼¼
custom ers</w>
blo g</w>
ë²Ħ íĬ¼
íĻľ ìķ½ìĿĦ</w>
ali ze</w>
ess ed</w>
ìļĶ ê¸Ī</w>
ë°Ķ ê°Ģ</w>
ë°©ë¬¸ íķľ</w>
kno wledge</w>
ê°Ģë³į ê²Į</w>
individu als</w>
ë³µìŀ¡ íķľ</w>
íĶ¼ ìĿĺ
ê³µê³µ ê¸°ê´Ģ</w>
ìĽĲ ìĿ¸ìĿ´</w>
íĮĲëĭ¨ íĸĪëĭ¤</w>
ìłľìĭľ íķľ</w>
ëĤ¨ ìĸĳ
ê±´ ì§Ģ</w>
å º
ìŀī ê¸Ģ
ëª° ëŀĺ</w>
íİ Į
ëĮĢë²ķ ìĽĲ</w>
íĸĪ ìľ¼ë©´</w>
ìĺĪ ìĻ¸
pat ter
ìĿ´ ê²ĥ
ê³Ħ ìłĪ
íĦ° ë¡ľ</w>
ê°ľìĽĶ ê°Ħ</w>
ìĭ¤ ì¢ħ
ëķħ ìĿĦ</w>
ìĭ¤ ìļ©
ë¨¹ ìľ¼ë©´</w>
ac i
ëł¨ ìĿĺ</w>
íļ¨ê³¼ ëĬĶ</w>
ìĹĨ ëıĦë¡Ŀ</w>
ãģ ¯
high ly</w>
s la
crimin al</w>
ëĭ¬ì½¤ íķľ</w>
ìľł ëł¥
ì»¨ ëĮĢ</w>
op tions</w>
y a</w>
íĶĮ ë£¨
íķł ëķĮ</w>
ìĨĮê°ľ íĸĪëĭ¤</w>
auth orities</w>
mit ted</w>
ëłĪ ìĬ¤</w>
as es</w>
ìĭ¬ íķĺê²Į</w>
ê·¸ëŁ¬ ëĭĪ</w>
ìĬ¤ ëıĦ</w>
ag ree</w>
pat h</w>
ìŀĦ ìĥģ
tr ust</w>
ì§Ģ ëĬ¥
ê³łê°Ŀ ìĹĲê²Į</w>
ft a</w>
shoo ting</w>
ë½ Ģ
ëħ¸ ëł¥ìĿ´</w>
ìĸ´ë¨¸ëĭĪ ê°Ģ</w>
ëŀ ©</w>
ìļĶ êµ¬</w>
ìĿ´ë¤Ħ ì§Ħ</w>
ëĬĲ ëĥĲ
l o</w>
ë°Ŀíĺ Ķ
æĹ ¥
ìĿ´ íĺ¼
ìĦ¸ ìļ°ê³ł</w>
ìĿĦ ëķĮ</w>
w are</w>
ê¸° ìĤ¬ë¥¼</w>
po st
f ying</w>
f antas
ãģ ¾
ì¶© ê²©ìĿĦ</w>
ìķĦëĭ Ĳ</w>
ê¸°ìĹħ ìĿ¸</w>
Ĳ ëĭ¤</w>
tain ed</w>
ë¹Ħ ëĶĶìĺ¤</w>
ï¼ Į</w>
ì¹ĺ íĤ¨
ê¸°íļį ìŀ¬
s tic
bor der</w>
íķĺ ëĵľ
am p</w>
íĥľìĸ´ ëĤľ</w>
mec han
ìĹĲ ìķ¼</w>
ì§Ħ ëĭ¨</w>
Ã ¢
ru by</w>
ë¶ĦìĦĿ íķľ</w>
ëł ´</w>
ëħ¼ ìĿĺë¥¼</w>
wal k</w>
æ ¬
ê° ¯
ãĤ ĵ
ìłľì¡° ìĹħ</w>
ëĳ ¥</w>
al le
ë¶Ħ íķł
íģ´ ëŁ¬
ìŀĲ ìĺģìĹħ
íĢ Ħ
o d
ëĭ¨ ìĨį
ì¶Ķìłķ ëĲľëĭ¤</w>
ëĦ¤ íĭ°
in ing</w>
ì§Ģ ìĹĪëĭ¤</w>
ì²´ ìłľë¥¼</w>
ìĺ¤ íİĺ
ëĦĪ ê°Ģ</w>
l ay
ëĤ¨ ìŀĲê°Ģ</w>
extre m
ê¸ī ëĵ±
a b</w>
j ack
progr ams</w>
i tion</w>
ê¸Ī ê°ķ
ìķĪ ëĲĺ
ìĻ ĵ
ìĺģ ëĤ¨
gh t
ëĵ¤ìĸ´ ìĦľ</w>
ìŀĲ ì¹
ìķĬ ìľ¼ë©°</w>
ë§ī ìķĦ
ìĿ¼ ìłķíķľ</w>
ë²ł ìĬ¤íĬ¸
ìĨĮ ì¤ĳ
ìķķ ìĪĺìĪĺ
ìĪĺì¤Ģ ìĿ´</w>
call ing</w>
sub scri
ë¸Į ë¡ľ
ì¶ķ ìłľ
ì¶ľ ìĤ°
ê·ľ ìłķìĹĲ</w>
ìĭ¤ ìŀ¥ìĿĢ</w>
ëł Ĳ
ìĦłìłķ ëĲĲëĭ¤</w>
lic en
attor ney</w>
ìķĪ ìĤ°
ë¹Ħ íĬ¸
ëįĶ íķ´</w>
ì¦ Į
íĻķìĭ¤ íķľ</w>
tec h
ëª¨ë¥´ ê²łëĭ¤</w>
ìĹĶ ì§ĢëĭĪ
or g</w>
ìĤ¬ìĹħ ìŀĲ</w>
ìłĦ ëĿ¼
ìĿ´ëģĮ ê³ł</w>
ìĺ¤ëŀľ ë§ĮìĹĲ</w>
ì§Ģ ëªħ
ëįķ ìĹĲ</w>
ì¶Ķ ìłģ
applic ation</w>
com par
ìļ° ëł¤</w>
ëĭ¹ ìĭł</w>
ëĵľë¦½ ëĭĪëĭ¤</w>
ãĢ Ĥ</w>
ëĭ¤íĸī íŀĪ</w>
ë°© ìĿĢ</w>
continu es</w>
ë§Įíģ¼ ìĿĢ</w>
ëĤĺëĿ¼ ê°Ģ</w>
ìĥģ ì²ĺë¥¼</w>
ì²Ń ì£¼
ë¶ĦìĦĿ ìĿ´ëĭ¤</w>
no tes</w>
íĻĶ ëĲĺê³ł</w>
íĺĳ ìłķ</w>
i ve</w>
ìķĦ ë²ł</w>
íĻķìĿ¸ íķĺê³ł</w>
ê´ĳ íĻĶ
ëıĦìĭľ ë¡ľ</w>
ë¿Ĳ ìĿ´ìĹĪëĭ¤</w>
win ning</w>
ìĨĮ ê·ľëª¨</w>
ë§Ĳ ìĿ´ìķ¼</w>
ë°Ģ ë¦¬
êµ¬ ìĥģ
ì§Ģ ëĤ´
ìĹĲëĦĪ ì§Ģë¥¼</w>
ìĸ´ ì°Į
ì¹ľ ìłĪ
ëĬĲëģ¼ ê³ł</w>
do g</w>
ìĿ´íĽĦ ìĹĲëĬĶ</w>
ìĭ ¹
ìĭľìŀ¥ ê³¼</w>
ë§ĪìĿĮ ìĿĺ</w>
ë¡Ģ ë¥¼</w>
s ses</w>
ëł¹ ìľ¼ë¡ľ</w>
ë¿Į ë¦¬
ìķĪ ê³¼</w>
ìĥģëĭ¹ ìĿĺ</w>
e ful</w>
n one</w>
ìĥĿê°ģ íķł</w>
ì£¼ëª© ìĿĦ</w>
ìĻľ ê³¡
íĿ ĳ</w>
ê³Ħíļį ìĹĲ</w>
ir an</w>
ëª¨ ìŀĦ</w>
ì§Ģ ëª©
ë²Ķ ìľĦë¥¼</w>
íĽĦë³´ ìĿĺ</w>
ëĭĪ ê¹ĮìļĶ</w>
ì¢ħ ë¥ĺìĿĺ</w>
ë´¤ ëĬĶëį°</w>
ê±¸ ëł¤</w>
ëĵ¤ìĸ´ ê°Ķ
photo s</w>
ê³¼ëıĦ íķľ</w>
ìĭĿ ìĤ¬ë¥¼</w>
ëł ĺ
ie ty</w>
cop y
stoc k</w>
ha ven</w>
ìĸ» ëĬĶ</w>
s pl
íĪ¬ ìĪĺ
ìĭľ ê³µ
ë¬¸íĻĶ ê°Ģ</w>
chic ago</w>
ìĻ¼ ìª½</w>
ali sts</w>
ìĹŃ ìłĦ
ëĨĴ ìĿ´ê¸°</w>
íĹĪ ê°Ģë¥¼</w>
íķ´ ê²°</w>
ìĻ¸êµŃ ìĿ¸
ìŀ¬ íĺĦ
ìĨĮ ëħĢ</w>
ìłľíĴĪ ìĿ´</w>
ìĭľ ê¸°ë¥¼</w>
f our
ìĿĮ ìĿĢ</w>
ìŀ¥ ìķł</w>
ì£¼ìĿĺ ìłģ</w>
ë§Īëł¨ íķ´</w>
ê» į
ê²ª ëĬĶ</w>
ëª¨ ë¥¸
ìľł ìĹĶ
im pres
ìĿ´ìĹĪ ìĬµëĭĪëĭ¤</w>
ë§Į ë§Į
ëĮĢíĨµëł¹ ìĿĦ</w>
ì¶ľìĭł ìĿĺ</w>
ìŀ¬ ìĤ°</w>
íĭ ±</w>
ê°Ģ íķ´
å Ĭ
ì£¼ëª© ëĲľëĭ¤</w>
sup pl
citiz ens</w>
. #</w>
ìŀ¬ ê±´ì¶ķ</w>
ëĳĲ ìĹĲ</w>
ç §
ë²ķë¬´ ë¶Ģ</w>
êµŃ ìłľê³µ
ìĦ¸ ë¶Ģ
ëıĦ ìķ½
ìĹħ ìĿĺ</w>
spe ak</w>
ê³µ ìĪĺ
ë¬¼ë¡ł ìĿ´ê³ł</w>
ìĥĿ ìĥĿ
ìĦłíĥĿ íķł</w>
ìĽĥ ìĹĪëĭ¤</w>
íĬ¹ë³Ħ íŀĪ</w>
lar ger</w>
ëł¸ ìĿĦ</w>
su pre
ho st</w>
le e</w>
ëĲĺìĹĪ ëĭ¤ëĬĶ</w>
tradi tional</w>
íĺ¸ ë¡ľ</w>
avo id</w>
ìµľ ìĭł</w>
ìŀĪìĹĪ ëĭ¤ê³ł</w>
fe et</w>
íĬ¸ëŀ Ļ
g m</w>
ë°ľ ë§¤</w>
ìĿ¸ ëł¥ìĿĦ</w>
ìĪĺ ìłķ</w>
ëĭ¤ ë¦Ħ
hill ary</w>
cre ating</w>
f an</w>
ê´Ģ ìĹ¬
ìļĶêµ¬ ë¥¼</w>
ì§ĳ íļĮ</w>
ëĮĢ ë¹Ħíķ´</w>
íİ Ħ
bro w
ê¸°ëıħ êµĲ
ê¸Ī ìķ¡</w>
íķ´ ëĿ¼</w>
ëĤĺ ëŀĢíŀĪ</w>
ìķĦ ëĵ¤ìĿ´</w>
ëĨį ìĸ´
ìĹŃ ìĿĺ</w>
ìĭł íĿ¥
dem and</w>
re ven
mem ory</w>
ì§ĵ ëĬĶ</w>
ìķĦìĿ´ íı°</w>
ê°Ģ ìĹĲìĦľ</w>
ìĹ° ìĥģ
ìĿ¼íĻĺ ìľ¼ë¡ľ</w>
ê¸¸ ë¡ľ</w>
êµŃíļĮ ìĿĺìĽĲ
s au
ë°©íĥĦ ìĨĮëħĦ
íĤ ·
laun ch</w>
p x</w>
ë¬´ ìĤ°
ë°Ķ ëĿ¼ëĬĶ</w>
ëĸł ëĤľ</w>
ìŀĲ ìĭĿ
ìĪĺ ë¦½</w>
ëĨĴ ê³ł</w>
pe ace</w>
ê³µ ìŀ¥ìĿĦ</w>
ìĿ´ ëĵĿ
ìĿ¸ êµ¬ê°Ģ</w>
ê°Ī ëĵ±</w>
fi gu
comple x</w>
ì£¼ ê³ł
ë¬´ ìĦŃ
ì§Ĳ ìĿĦ</w>
ìª½ ìĿĦ</w>
ìĹ¬ ìĦ±ìĿ´</w>
strate gy</w>
ê¸°ì¤Ģ ìĿ´</w>
episo de</w>
íĸī ìĤ¬ê°Ģ</w>
ë°° ë¡ľ</w>
ìĭł ê³¼</w>
ìĨ ľ
ìŀĲ ë¡ľìĦľ</w>
no ted</w>
ìľ Ī</w>
ìķĮ ë¦¬ëĬĶ</w>
ìĭłë¢° ë¥¼</w>
qu ali
ira q</w>
ëĿ¼ìĿ´ íĬ¸</w>
ãĤ Į
in o</w>
íĻķ ìłķ</w>
ìĭ¤ ë¦¬
i o</w>
ì§Ģ ìĪĺ
ëķĮë¬¸ ìĿ´ìĹĪëĭ¤</w>
prof essor</w>
ëħ¸ ìĤ¬
ì§ Ļ
íĽĦë³´ ìŀĲ</w>
dro p</w>
ìĪĻ ë°ķ
ìłģíķ© íķľ</w>
ìĦłë³´ ìĿ¸</w>
ëıĦ ìĭ¬
ë¯¸ íĦ°</w>
< /</w>
ê·ľ ìłķìĿĦ</w>
ê¸°ê´Ģ ê³¼</w>
ëħ¸ëıĻ ìŀĲ</w>
ì£¼ ìŀ¥ìĿ´</w>
ìŀħ ìĽĲ
ìĻ¸ êµĲ</w>
ëªħ ìĹĲìĦľ</w>
j un
bo w
aw are</w>
ìķĦ ë¹ł</w>
plat form</w>
ìłķ ìĿ´ëĭ¤</w>
ìŀĲ ìĭł</w>
ì±Ħ ë¥¼</w>
it ely</w>
ì£¼ ìłľ
eff ective</w>
ê°ĳ ìŀĳ
íĺķ ìĭĿ
ì±Ħ ìĽĮ
ë¶Ģ ìŀ¥</w>
ha w
on ed</w>
ì£¼ ì°¨</w>
mar ke
ìķł ì´ĪìĹĲ</w>
ê²Ģ ìĿĦ</w>
ë©Ķ ê°Ģ
ê·¸ ëĭ¤
ê±´ ìĿĺ
ëĮĢ ë¶ģ</w>
ì¹¨ ë¬µ
ìĸ´ë¨¸ëĭĪ ëĬĶ</w>
ëĬĶ ê±´</w>
ìłķ ìĽĲ</w>
ìĹ° ìĦ¤
n ine</w>
ìĹŃ íķł</w>
ë°ĶëŀĮ ì§ģ
ê±°ë¦¬ ìĹĲ</w>
ìŀħìŀ¥ ìĹĲìĦľëĬĶ</w>
êµ¬ ìĨį</w>
ë°ľ êµ´</w>
ëŁī ìľ¼ë¡ľ</w>
ëª¨ ë¡ľ</w>
ìĿ¸ê°Ħ ìĿĢ</w>
íķŃ ëª©
ìŀĪìĹĪ ê¸°</w>
íĬ¸ëŀ Ļ</w>
ëĺĳ ê°ĻìĿ´</w>
ë³¸ ëŀĺ</w>
íļį ëĵĿ</w>
ë¬´ ëįĶ
ìķĦìĿ´ ëĵ¤ìĿĺ</w>
íı¬ ìĬ¤íĬ¸
ìĦ¸ ìĥģ
cep tion</w>
ëĦ Į
ê·¸ë£¹ ìĿ´</w>
ëĤ´ ìħĶ
ìĦľ ë¶Ģ
ë¯¸ ëĭĪ</w>
ìĥĪ ìłķì¹ĺ
íĶ¼ íķł</w>
ìŀĲ ë©´</w>
bus h</w>
ìłķ ê·ľ</w>
ë¶Ħ ì¯¤</w>
ëĨĴ ìĿ¼</w>
ro ll</w>
ìĺ¤ë¥¸ ìª½</w>
íĮĮ íģ¬
ìŀĲì²´ ëĬĶ</w>
ìĹ° íľ´</w>
íı¬ ëŁ¼
gre at
ê¸° ìģĺ
ìº Ħ
ëıĻ ëĤ¨
ë©Ķ ëĶĶ
ê¹Ģ ìĥģ
íĮĮ ìĿĺ</w>
c k
ìĦľ ìĹĲìĦľ</w>
ìĥģê´Ģ ìĹĨìĿ´</w>
z one</w>
ë²Ħ ìłĦ</w>
ëıĻ ìĺģìĥģ</w>
ìĿĮ ìĦ±</w>
ëª© ìłģ</w>
íĻĺê²½ ìĿ´</w>
ìľł ìĿĺ
c um
ëĭ´ ìķĦ</w>
íķĺ íķĺ
ìĥĿ ìĿĺ</w>
ì¡´ ìŀ¬</w>
clo sed</w>
ìĿ´ë²Ī ìĿ´</w>
employe es</w>
ìľł ìĹĶ</w>
ëĭ´ ìľ¼ë¡ľ</w>
ìķĦìĭľ ìķĪ
íģ´ëŀĺ ìĭĿ</w>
íķĺëĤĺ ëĭĺìĿĺ</w>
ne go
ìĬ¹ ìļ©
re ached</w>
ìĽĢì§ģ ìĿ´ëĬĶ</w>
trav el</w>
ìĿĺ ìŀ¥</w>
íĨµ ìĥģ</w>
íĴĪ ìĿĢ</w>
ìĹĨ ëįĺ</w>
na tions</w>
indu stri
ê¸Ģ ëĿ¼
ì§Ħíĸī ëĲĺê³ł</w>
ê¸Īìķ¡ ìĿĦ</w>
be at</w>
ìĿĺ íķĻ
ë¹Ħ ìĹĲ</w>
bab y</w>
ëĤĺê°Ģ ê²łëĭ¤</w>
íĸī ìĤ¬ìĹĲ</w>
ìĪĺ íķĻ</w>
ìĬ¤íĨł ë¦¬
ìĿ½ ê³ł</w>
m m
eff ici
ìĺģ ìĹŃ</w>
ë£ ¸</w>
val ues</w>
ì°¨ë³Ħ íĻĶëĲľ</w>
we al
ëĵ± íĮĲ
ìĭł íķľ</w>
íĮĮ ë¥¼</w>
ì¦Ĳ ê¸°
ìļ´ìĺģ ìĹĲ</w>
ëŁ½ ê²Į</w>
ëĤĺíĥĢ ëĤľëĭ¤</w>
ìŀ¥ ë©´ìĿĦ</w>
mo stly</w>
ê·¸ë¦¬ ìĬ¤</w>
ìĺģíĸ¥ ìĿ´</w>
ì§Ħ ìĭ¬ìľ¼ë¡ľ</w>
ëĤ¨ ëħĢ</w>
íķ´ ì¤Ģ</w>
ëıĦ ë¯¼
ìĿ´ ëĤ´ìĹĲ</w>
pl ays</w>
sol di
ë¨¹ ìľ¼
ju d
kno ws</w>
ìĭĿ ë¯¼
ëĤĺ ìĿĢ</w>
ì°¸ìĹ¬ íĸĪëĭ¤</w>
ìĺ¤ëĬĺ ëĤł</w>
ê¸° íĥĢ
a ren
seem ed</w>
h it
ëģ Ŀ</w>
nego ti
ac ting</w>
íĴĪ ëª©
ìĨĮ ìĨ¡</w>
íķĺê³ł ëıĦ</w>
oper ations</w>
íĺĦ ìĥģìĿĦ</w>
æĸ ĩ
ìĨĮ íıŃ</w>
íķĺ ì§ĢëıĦ</w>
ìłĲ íı¬
ë§Į íĻĶ
íķĻìĥĿ ìĿĢ</w>
ëĤĺ ê°Ķ
ìĺģ ìĹŃìĿĦ</w>
ìĥģëĮĢ ê°Ģ</w>
ëĭ¬ëŁ¬ ìĹĲ</w>
íĺķìĦ± ëĲľ</w>
po p</w>
ê²½ìļ° ìĹĲëıĦ</w>
ë°Ģ ëł¤
mil es</w>
a st
ìĪĻ íķľ</w>
ìĿ¸ ìłķ</w>
fun d</w>
ìķŀ ìĦł</w>
ëĲĺìĹĪ ìĬµëĭĪëĭ¤</w>
íĽĦ ìĨį
inde ed</w>
ìĿĺ ìĻ¸ë¡ľ</w>
ê·ľìłķ íķĺê³ł</w>
ca used</w>
ar ms</w>
ëķĮ ë³´ëĭ¤</w>
bu s</w>
ìĨĮ ë©¸
ä¹ ĭ
ê°ľ íĨµ
íĺĦ íĻ©</w>
ëªħ íĴĪ</w>
mi r
ì¦Ĳ ê±°ìļ´</w>
ëĵľëŀĺ ê³¤</w>
ë³¸ ë¶ĢëĬĶ</w>
ìļ°ë¦¬ëĤĺëĿ¼ ìĿĺ</w>
íĨµíķ© ëĭ¹</w>
ëª¨ëį¸ ë¡ľ</w>
ìĿ´ ìĺģ
ê·ľ ìłķ</w>
ê¸° ìĿ¸</w>
thre at
gi c</w>
íĻķìĿ¸ íĸĪëĭ¤</w>
ê²½ì°° ì²Ń</w>
cro ss</w>
ë°¸ ëŁ°
flor ida</w>
metho d</w>
ìŀĲ ìłľ
produc ed</w>
c ars</w>
ë¹ ħ</w>
ëŀĢ ìĿĦ</w>
ìłĦ ìĪĺ
íŀĪ íĬ¸
ê³µê°Ħ ìĿ´</w>
there fore</w>
ê° ĩ
oc cur
æĹ ¥</w>
ê¸° ë¶Ģ</w>
appe ar
ê³¨ ëª©
ìĥģ ìĺģ
íĮĶ ìĿĦ</w>
ëª» íķĺë©´</w>
ìĿĺíĺ¹ ìĿ´</w>
ed ge</w>
m v
ëľ °
ìĨĮ ìĪĺ
ra ise</w>
k ë¦¬ê·¸</w>
ì° ¢
g ate</w>
pr ices</w>
ì¡°ìļ© íŀĪ</w>
jour nal</w>
k el
ì¤ĳ ê°ĦìĹĲ</w>
br an
ä¸ Ń</w>
mi st
ìĦ¤ ìłķ</w>
ìĺ¨ ëĿ¼ìĿ¸
íĮĲë§¤ íķĺëĬĶ</w>
ì¦Ŀê¶Į ìĿĢ</w>
ìĭľ ë§Ī</w>
ma ster</w>
ëĤ´ ë¹Ħ
mo d
ëĭĪ ìķĦ
leav ing</w>
des er
ë³´ê³ł ìĦľë¥¼</w>
íĺķ ìłľ
ìĬ¹ ê°Ŀ
íķľ ê³Ħê°Ģ</w>
bri dge</w>
ãħĭ ãĦ±
ì§Ģìłģ ìĿ´ëĭ¤</w>
ì½ĶìĬ¤ ëĭ¥</w>
ë°©ìĭĿ ìĿ´</w>
ê°ľ ê·¸
ìĽ¹ íĪ
invest ment</w>
íĥĢ ìĿ´ìĸ´
ê²ĢíĨł íķĺê³ł</w>
ìĪĺ ìĬµ
íĬ¹ ìĦ±</w>
ç İ
ê°Ħ ëĭ¤ëĬĶ</w>
ê°Ĳ ëıĦ</w>
oper ation</w>
ìĭŃ ìŀĲ
fr ance</w>
ìĮį ìļ©
telev ision</w>
ê°ľ ìĹĲ</w>
íĪ¬ìŀĲ ì¦Ŀê¶Į</w>
ëĤĺ ìĺ¨
íķ´ ë°©
ëª¨ íĦ°
ì¡° ìŀĳ</w>
ëĵ¤ìĸ´ ìĺ¨</w>
ëĭ¨ ë°±
ìľł ìłĦ
ìĬ¤ íİĻ
ìĺ¤íĶĦ ëĿ¼ìĿ¸</w>
eng land</w>
ê³ł ìĻĢ</w>
ìĭĿ ë¬¼
ë³µ ìĪĺ
ê¸°ìĪł ìĿĺ</w>
all er</w>
ìĻķ ìĿĢ</w>
ê±° ëĴĢëĭ¤</w>
st ood</w>
ë©° ì¹ł</w>
ìŀĲëıĻ ìľ¼ë¡ľ</w>
ë§Ī ì¹¨</w>
ëĮĢíķľë¯¼ êµŃìĿĺ</w>
ìķĦ ëĤ´</w>
ìĹĲ ëĶĶ
ê³µê°Ħ ìľ¼ë¡ľ</w>
ìķĺ ëĬĶëį°</w>
ì¤ĳêµŃ ê³¼</w>
ìķĦìĿ´ ëĵ¤ìĿĦ</w>
ìŀ¥ ìķħ
ìĹ ½</w>
íĶĦ ëŀĢ
ke pt</w>
íĻĺê²½ ìĹĲ</w>
ì¡° ëªħ
ë§Ī ìĿ¸
isra el
ëıĻ ë£Į</w>
ë¹Ħ ë¦¬</w>
er ship</w>
ìĸµ ìļ¸
op ening</w>
ìĤ¬ ìŀ¥ìĿ´</w>
ë¶Ģ ì°©
íļĮ ê´Ģ</w>
íĮĲ íĥĢ
ì¾Į íķľ</w>
progr am
ëĨ Ķ
ìŀ¥ ë¹Ħë¥¼</w>
íĪ¬ ë¥¼</w>
ë²Įìĸ´ ì§Ħ</w>
íĺĦ ì§ģ</w>
ìļ© íĴĪ</w>
ê¹Ģ ë¯¼
ëį ´</w>
ë°Ķ ë¡ľ
ìĹ İ
ìĿ¼ë³¸ ìĹĲìĦľ</w>
ìķĪ ìĹĲëĬĶ</w>
ìĦ± ë¦½
ga tive</w>
ì§ĢìĽĲ ìĹĲ</w>
íĳ¸ ë¥´
] ]</w>
íķ©ë¦¬ ìłģìĿ¸</w>
ç ķ
ê´Ģ ëĤ´</w>
ë¬´ ëł¥
ìķĦíĶ Ī</w>
ì¶ľ ë²Ķ</w>
than k</w>
ìłľì¶ľ íķľ</w>
ìĸ´ì¨Į ëĵł</w>
ìĸ ½
íĮĮ ë¦¬</w>
ìĿ´ ë¥¸</w>
ê±° ëĿ¼</w>
ëĮĢ ìĻ¸
ìĹĨ ìĸ´ìļĶ</w>
en for
ci a</w>
ë²ķ ìķĪ</w>
ì½Ķ ëĬĶ</w>
ëĤĺ ìĦľëĬĶ</w>
íĮ¨íĤ¤ ì§Ģ</w>
scienti sts</w>
íĤ ¥
sp end</w>
ë¶Ģ ì²ĺ</w>
ë¶Ī ê°ĢëĬ¥íķľ</w>
ãĤ Ĵ
ê°Ĳ ì¶Ķ
ì²ľ ìĽĲ</w>
ëĴ· ë°Ľì¹¨
ì§ĵ ìĿĦ</w>
mi ke</w>
ì¶Ķêµ¬ íķĺëĬĶ</w>
íĻĶ íıĲ
ê±´ê°ķ ìĿĦ</w>
el i
l un
íķľ ëıĻìķĪ</w>
ìĿ¼ ìĿ´ìĹĪëĭ¤</w>
ìłĦì²´ ìłģìľ¼ë¡ľ</w>
ìĸ´ ìļ°ëŁ¬
ëĮĢíķĻ ìĽĲ</w>
ìĨĮíĶĦíĬ¸ ìĽ¨ìĸ´</w>
ê¶Į ë¦¬ë¥¼</w>
ìłķ ë§Ĳë¡ľ</w>
un it</w>
íĻķ ëĮĢíķ´</w>
ìĦłìĥĿ ëĭĺ</w>
ìķ¼ ëĭ¹</w>
ìĺ¤ íĶĦ</w>
íĽĦ ë°°
ç ´
ìĿ´ ì§ĳ
ê¼½ ìķĺëĭ¤</w>
ì¤ĳ ê²¬
ì¡° íķŃ
ê¼½ íŀĪëĬĶ</w>
ìĦł ìłĦ
ìľĦìĽĲ íļĮìĹĲ</w>
ìĦľìļ¸ ìĿĺ</w>
ìĦ±ê³µ ìĿĦ</w>
íİĺìĿ´ìĬ¤ ë¶ģ</w>
ë§Īì°¬ê°Ģì§Ģ ëĭ¤</w>
w oo
ê³ł ìĬ¤
mo del
ì¤ĳ ìķĻ</w>
ëĤ¨ ê¸´</w>
ìŀĳ ê°ĢëĬĶ</w>
ë§¤ ë§¤</w>
bi o
ê³µ ìŀ¥
ìĥģ ìŀ¥</w>
êµĲ ë¥ĺ</w>
ê°Ī ëĵ±ìĿ´</w>
ì»¨ ìħī
mat h</w>
ë¬´ ê¸°ë¥¼</w>
ìĤ°ìĹħ ìĿĦ</w>
ë°Ŀ ìĿĢ</w>
ìĥĿ ê¸°ëĬĶ</w>
ë§¤ ìĽĶ</w>
appro pri
ë°¤ ìĹĲ</w>
ëĤ¨ ëıĦ</w>
ëŃĲ ê°Ģ</w>
sp ring</w>
ì·¨ íķľ</w>
ìĦł ìĸ¸</w>
char ges</w>
ìĥī ìĿĺ</w>
ìĸ´ ìĬ¤</w>
ìłĢ ê¸°</w>
ìĨĮ íĨµ</w>
sp r
ìĹŃ ëŁī</w>
ëĿ¼ ìĻĢ</w>
ë³Ħ ëıĦ</w>
ìĦ± ìļ°</w>
on a</w>
íĸī ìľĦìĹĲ</w>
ìłķìĥģ ìłģìĿ¸</w>
gir ls</w>
inci dent</w>
ìį °
pris on</w>
s old</w>
ìĥģìĬ¹ ìĦ¸ë¥¼</w>
ê¹Ģ ì§Ħ
íĮĲë§¤ ë¥¼</w>
ìłĦ ìĨ¡
ë¹ĦíĮĲ ìĿĦ</w>
ìĿ¼ë¶Ģ ëŁ¬</w>
d s
ìĥĿíĻľ ìĹĲ</w>
ìĪľ ìĿ´ìĿµ
ìĨį íŀĪ</w>
ê°ģ ìŀĲ</w>
pati ents</w>
ìłĦ ìĽĲ</w>
ìķĦ ìĽĥ</w>
ìĿ´ë¤Ħ ì§Ī</w>
ìŀĪìĹĪ ëĭ¤ëĬĶ</w>
ë§Īëł¨ ëĲĲëĭ¤</w>
am ent</w>
choo se</w>
ë°° ì¹ĺ</w>
ê³ł ëĮĢ</w>
n ames</w>
íĪ¬ ìŀĲê°Ģ</w>
ëłĪìĿ´ ìħĺ</w>
ìĿ´ ê¸°ìĹĲ</w>
? )</w>
ëĤĺìĺ¤ ë©´</w>
ìĭł ìĿ¸</w>
íĺķ ìĤ¬</w>
lo se</w>
actu al</w>
ê·¼ ëĮĢ
ë§¤ ìĪĺ</w>
íģ´ ëĿ¼
g ay</w>
ìķł íĶĮ</w>
íķĦìļĶ ë¡ľ</w>
under standing</w>
fe eling</w>
ë¶ĦìĦĿ ìĿĦ</w>
respon sible</w>
ìĹ¬ ê°ľ</w>
ìķ ¤</w>
spo t</w>
.. ...</w>
ìĸ´ ë§Ī
ì¤ĳêµŃ ìĹĲìĦľ</w>
ìĭľ ëĭ¬
ì²ľ ë§Į</w>
ë¬´ ìĹŃ</w>
ëħ¸ íĬ¸
íķĦ ìĪĺ</w>
ê³ł ìľĦ</w>
tem per
æ µ
íĿ ł
ë¶Ģ ë¥¸ëĭ¤</w>
íķľ ìĿĢ</w>
ëĭ¤ìĿĮ ëĤł</w>
íĶ¼ ê³¤
n es
ê¸°ëĭ¤ ë¦¬
íĻĶ ëĲł</w>
ìĿ¸ ìĥĿ</w>
f bi</w>
ë³´ ìĬ¤</w>
ê·ľ ìłľë¥¼</w>
ìĹ¬ íĮĮë¡ľ</w>
íķĻìĥĿ ìĿĺ</w>
ì¸ł ë¥¼</w>
adv oc
ìĤ¬íĥľ ë¥¼</w>
íİ¸ ì§Ģë¥¼</w>
âĳ £</w>
ê¸Ī ìĨį</w>
ìłĢ ìĨĮëĵĿ
ìĹħì²´ ìĹĲ</w>
week end</w>
gd p</w>
íĬ¸ ëŀľ
ëĤĺíĥĢ ëĤ¬
íĨµ íĻĶ</w>
íĻĶ íķł</w>
ìļ° ìĬ¤</w>
ëĤĺíĥĢ ëĤ´ëĬĶ</w>
d b
ê°Ĳ ìĥģ
ê³µ ëª¨</w>
ìŀ¬ ìĥĿ</w>
et c</w>
ì²ł ê°ķ
ëł Ľ</w>
ìĶ¨ ìĹĲ</w>
ëĭ¤ ë¦¬
ëĭ¤ íĪ
re fu
ëĬ ĳ
ãģ Ĩ
n or</w>
ìĿ¼ ìĿ¸</w>
ìĹĨ ëĭ¤ë©´</w>
ì¶Ķì§Ħ íķľëĭ¤</w>
resi dents</w>
ëĭ¹ êµŃìĿ´</w>
ëĲĺ ê¸¸</w>
ëĤ© íĴĪ
ìĹ° ëĭ¤</w>
ê°ľ ëĬĶ</w>
er c
ìĬ¤ íħ
na tion
requ est</w>
wor l
ìľłì¹ĺ ìĽĲ</w>
n c</w>
ìĭ¤ìĭľ íķĺê³ł</w>
!! !!
ìĿ´ìľł ëĭ¤</w>
and ro
h all</w>
ç Ł
íķľ ê°ķ
concer ns</w>
ë¬¸ ìľ¼ë¡ľ</w>
ë°Ľ ìľ¼ë©´</w>
ëª¨ë°Ķ ìĿ¼
en ly</w>
ì¹´ ëĵľëĬĶ</w>
ê²© ìľ¼ë¡ľ</w>
ëª©ìĨĮë¦¬ ë¡ľ</w>
ëŁ° ëįĺ
ë¹ĦëĮĢ ë©´</w>
ìŀ Ń
ì§Ģ ì¼
ãģ Į
ì´Ŀ ë¦¬ê°Ģ</w>
ë¶ģ êµ¬</w>
mas sive</w>
ï¼ ľ</w>
ê°Ħëĭ¨ íķľ</w>
íķ´ ëĭ¬ëĿ¼</w>
ê¶Į ìľ¼ë¡ľ</w>
ìĸ´ëłµ ê²Į</w>
ìłķìĭł ìĿ´</w>
ìĤ¬ ë¦½
ë°©ìĨ¡ ìĹĲìĦľ</w>
bot tom</w>
ì¶Ķ ì¸¡
ê±´ìĦ¤ ìĿĢ</w>
op position</w>
ìĪĺ íĺ¸
ìĪĺ ìĹ¬
dra ft</w>
ìĦł ë°ķ</w>
ëĳĺ ëŁ¬</w>
construc tion</w>
de ep
íĮĮ ìĽĮ</w>
institu te</w>
polic ies</w>
ëļ Ŀ</w>
ìµľ ëĭ¤</w>
b ay</w>
êµŃ ìłģ</w>
ì£¼ ëĭĪ
ê²½ ê¸°ëĬĶ</w>
ë¬´ ì²Ļ</w>
ì§ģìłĳ ìłģìĿ¸</w>
ëĭ¬ íĸĪëĭ¤</w>
ê±¸ ìĸ´</w>
br it
ë¯¸êµŃ ìĹĲ</w>
ìŀĳíĴĪ ìĿĢ</w>
pus h</w>
ìĦłìĪĺ ëĵ¤ìĿĺ</w>
ê·¹ ìŀ¥</w>
ìĭ¶ ì§Ģ</w>
ìĭľìŀĳ íķĺëĬĶ</w>
ìĹħê³Ħ ëĬĶ</w>
heav y</w>
ë°© ë©´</w>
ë³´ ëĭĪê¹Į</w>
ëĵ¤ìĹ¬ ëĭ¤
mi d</w>
pro duce</w>
ë¹Ħ ê³ł</w>
íĤ¤ ë¥¼</w>
ìŀĳ ìĿĦ</w>
ëģĿ ìľ¼ë¡ľ</w>
ìĤ¬ìĹħ ê³¼</w>
happ ens</w>
ìĥģ ë¬´
ì»¤ íĶĮ
ë¶Ģ ë¶Ģ</w>
ìĪĺ ìĭŃ</w>
íĻĺ ìŀĲ
íļĮìĤ¬ ìĿ¸</w>
am ing</w>
ê³µ ìłķ</w>
ç ī
ìķĪ ë³´</w>
ìĹħì²´ ëĬĶ</w>
íĺ¼ íķ©
dd dd
en ter</w>
ëĭ¨ ìĹĲìĦľ</w>
ë§Į íķĺëĭ¤</w>
ëĭ¤ ì±Ħ
ê³Ħ ì¸µ</w>
repres ent
ê·¸ëŁ¬ ëĭ¤</w>
o ther
ìµľ ìłģ
íĨł ìļĶ
ë¬´ìĹĩ ìĿ¸ê°Ģ</w>
ë¹Ħë¡ľ ìĨĮ</w>
bu tt
ìĻ¸ ìĹĲëĬĶ</w>
str ing</w>
ë¶Ħ ìĤ°
ìĬ¤ íĤ¤</w>
ìĭľ ìłĲìĹĲìĦľ</w>
ê¹Ģ ìļ©
ìĹ° ê²°</w>
íļĮ ìŀ¥ìĿĦ</w>
ver si
ê°Ģë§Į íŀĪ</w>
åľ ĭ
ìĻĶ ëĬĶëį°</w>
ìĭ¤ìĭľ íķľëĭ¤</w>
ê°Ģì¡± ìĿĺ</w>
íĳ¸ ë¥¸</w>
b es</w>
u red</w>
ì§Ģ ìĿĢ</w>
ìķ½ìĨį ìĿĦ</w>
ìĽĮ ëĵľ</w>
ë® ¬
ì» ¨</w>
ãĤ Ĥ
ì£¼ë³Ģ ìĿĺ</w>
íģ Ĳ</w>
Ð °
ìĻ¸ ë©´
ìĭľìĬ¤íħľ ìĿ´</w>
op pon
ìĪľ ìĭĿ
ë½ Ĳ
ë±ħ íģ¬</w>
ìĿĮ ì£¼
ì§ĢëĤĺ ì§Ģ</w>
ëĭ¹ìĹ° íķľ</w>
ë§ī ëĮĢíķľ</w>
íĮĲê²° ìĿĦ</w>
ë¬¸ìłľ ìĻĢ</w>
camer a</w>
ar ies</w>
hun dre
ìĬ¤íİĺ ìħľ</w>
re ti
ë¶Ģ ìĥģ</w>
christi an</w>
ë°Ģ íŀĪ</w>
ê°Ĳ ìľ¼ë¡ľ</w>
è »
ìĺģ ìĽħ</w>
ìłľ ëıĦê°Ģ</w>
em p
ìĿ¸ ìĽĲ</w>
íĳľ ê¸°
ìĦ±ëĬ¥ ìĿĦ</w>
ìŀĲ ì±ħ
ëĪĦêµ¬ ëıĦ</w>
ìŀĳ ì¤ĳ</w>
ì½Ķ ìĿĺ</w>
ì§Ģ ìĸ´
ro bert</w>
ìŀĪìĹĪ ìľ¼ëĤĺ</w>
dr ag
ìĭĿ ìĹĲìĦľ</w>
íıī ìĨĮ
ì§ĢíĤ¤ ëĬĶ</w>
ê²Ģ ì¶ľ
íķĻìĥĿ ìĿĦ</w>
pal est
ìĹ¬ ìľł
ìĦ¸ ëł¥
ìĿ¼ ëŁ¬</w>
ìĭľê°Ħ ìĿĺ</w>
ìĦľ ìĦľ
su s</w>
ìķĦëŀĺ ë¡ľ</w>
ì§Ħíĸī ëĲł</w>
íĸī ìľĦê°Ģ</w>
ìĥģ ìĨį
dd en</w>
# #
prin t</w>
pai r</w>
agre ed</w>
ìĿ´ ìłģ
íĶĮ ëłī
ê¹Ģ ê²½
ê¹Ģ ê¸°
ìĿ´ ìĪĺ
ëĬĲ ëĿ¼</w>
ìĸ» ìĸ´</w>
íķĻìĥĿ ëĵ¤ìĿĦ</w>
íķĻêµĲ ê°Ģ</w>
c in
ìĹ° ìĪĺ
ìĨĮìĨį ìĤ¬</w>
å ĳ
ê¸°ìĪł ê³¼</w>
íİĺìĿ´ ìĬ¤</w>
ëĮĢ ë¶ģ
ë§Į ëĭ¤</w>
ëª¨ë¥´ ê²ł
ë§¤ ì¹ĺ
ìĭľ ìĿĺíļĮ</w>
íĨł ë¥¼</w>
ìĿ´ ë°ĸìĹĲ</w>
ë¨¸ ìĬ¤</w>
ì§Ģ ëĿ¼</w>
ìłĦëŀµ ìłģ</w>
ì»¨ìĦ¤ íĮħ</w>
ì§Ģ ë¶Ħ
ê±°ëŀĺ ê°Ģ</w>
ì¡°ì§ģ ìĿĦ</w>
m l
m ale</w>
ë°ĶëĿ¼ ë³´ëĬĶ</w>
ì»¬ ëłī
ì§Ģ ìĭĿìĿĦ</w>
ëĮĢ íķŃ
ë¡ł ìĿĺ</w>
ìĦ¸ê³Ħ ìłģ</w>
ad o</w>
ëª© ê²©
ìĬ¹ ìĿ¸ìĿĦ</w>
m es</w>
k ia</w>
ê±°ê¸° ìĦľ</w>
dre am</w>
âĶĢ âĶĢ
íŀ Ļ
ë§¤ ì²´</w>
ì¹´ ìĿĺ</w>
ìŀ¥ ìĨĮ</w>
marri age</w>
âĺ Ĩ</w>
ëĪĪ ì¹ĺ
ëħ¸ë¬´ íĺĦ</w>
ìķĪíĥĢ ê¹Ŀ
cle ar
fil es</w>
vehic le</w>
albu m</w>
tri al</w>
ãİ ı</w>
ìĿĺ ì§Ģ
ê·¹ ìŀ¥
ëĨĴ ìĿ´
ìĿ¸ ëĵ¤</w>
íĮ¨ ë¡ľ</w>
ì£¼ë¯¼ ëĵ¤ìĿĢ</w>
ìĽħ ìĽħ</w>
ëıĮìķĦ ìĻĶëĭ¤</w>
dddd dd</w>
en sure</w>
ëĨ Ī</w>
ë§¤ì¶ľ ìķ¡</w>
ê²ĥ ìĿ¼ê¹Į</w>
ë¬´ íļ¨
ëĬĺ ìĸ´</w>
êµ¬ ê¸Ģ</w>
ìĽĲ ì²ľ
ìłĲ ëł¹
íĶĦë¡ľ ìķ¼êµ¬</w>
ì£¼íĥĿ ìĿĦ</w>
ì°į ìĿĢ</w>
íķ´ìķ¼ ë§Į</w>
íĻĶ ìŀ¬
íı¬ ê´Ħ
ìłľ ìŀ¬
ìľłíĬľ ë¸Į
íĺ¸ ìĻĢ</w>
ëįĶìļ± ìĿ´</w>
com man
ê°Ļ ìĬµëĭĪëĭ¤</w>
ìłĦë°ĺ ìĹĲ</w>
ë°©ìĭĿ ìĿĺ</w>
impl em
demon str
ìķĦìĿ´ ì½ĺ</w>
ing ing</w>
ê°ĢëĬ¥ íķĺê²Į</w>
ëĦ£ ìĿĢ</w>
ìĿ¸ ê¶Į</w>
ê·¸ ëĵ¤</w>
par ties</w>
íĥľìĸĳ ê´ĳ</w>
ì½Ķ ê°Ģ</w>
ìŀĥ ê³ł</w>
ë¶Ģ ìĭ¤
ìłľíĴĪ ìĹĲ</w>
ìĸ¸ê¸ī íĸĪëĭ¤</w>
ìĤ¼ êµŃ
ìĿ¼ë³¸ ìĿ´</w>
dev ices</w>
ìłĦ ìĽĲ
and re
hundre ds</w>
ì°¸ìĦĿ íķ´</w>
ëĿ¼ ìĿ¸ìĿĦ</w>
ìĤ´ ê¸°</w>
ãħ ħ
ëĦ ¬
l eng
ëĮĢ ê°ķ</w>
ìŀĲ ìľł</w>
u r</w>
ìŀĲìĭł ê³¼</w>
ë°Ķ ëĭ·
ìĿ¸ íķĺ</w>
íķĺìĿ´ ë¸Įë¦¬
ë²łíĬ¸ ëĤ¨
ë§Ī ì¼ĵ</w>
as king</w>
ì°¨ ê²Į</w>
ê¸°ì¡´ ìĹĲ</w>
gener ally</w>
ìĦ¸ íĬ¸
ì°¨ë¡Ģ ìĹĲ</w>
ìĥģ ëĮĢë¥¼</w>
ì²ĺ ë¶ĦìĿĦ</w>
ìłĦ ë°ĺ</w>
ìļ© ìĿ´</w>
ìĺ¤ ì¼Ģ
ìĽĲ ìłķ
ìľłë¦¬ íķľ</w>
ìķĪ ìĸĳ
íļĮ ìĪĺ
ìĤ¬ ëª¨
ì°¨ íĬ¸</w>
íľ´ ê°Ģ</w>
ê°Ģ ìļ´</w>
ê³µ ìĺģ
ìĥĿ ëªħìĿĦ</w>
íķĻìĥĿ ëĵ¤ìĹĲê²Į</w>
ëıĦìĭľ ë¥¼</w>
as sum
coun t</w>
ë¶ĦìĦĿ ìĿ´</w>
ì¶Ķ ì²¨
ë¹Ħ ìĬ¤</w>
ëıĮìķĦ ìĺ¤
ìĬ¹ ë¶Ģë¥¼</w>
ë¯¸ ìĨĮë¥¼</w>
lg ìľł
ë°° ìĨ¡
ì½Ķ ìĬ¤</w>
ëģĿ ëĤ´</w>
ëħ¼ìĿĺ ê°Ģ</w>
ì´ ī</w>
ë¬´ ì§Ģ
requi re</w>
íİ ĳ
íı¬ íķŃ</w>
ìĵ ´ëĭ¤</w>
ìĻĦ ìłĦíķľ</w>
ìĭľ ê·¸
íķ© ë³ĳ</w>
protec tion</w>
ëıħ ìĦľ
ì¤ į
ë¶Ī ë§ĮìĿĦ</w>
en ting</w>
ê²½ ë§¤
ë¡ľ ìĬ¤</w>
re d
resp ect</w>
ê°Ģì¡± ê³¼</w>
êµ µ
ìĥģ íķľ
ìŀ¡ ì§Ģ</w>
ìĦ± ì·¨
john son</w>
íĴ ĭ
ë°ľ íļ¨
êµĲìľ¡ ê³¼</w>
ê´Ģê´ĳ ê°Ŀ</w>
ì°¨ ìłģìľ¼ë¡ľ</w>
a e</w>
ìĸ´ ëĵľ
ëĳĲ ëĵľëŁ¬
ê¸°ë¡Ŀ íķĺê³ł</w>
ê¸Īìľµ ê°Ĳëıħ
reve aled</w>
speci fic
de fe
p g</w>
c ate
ìľĦ ë¡ľ
ìļĶ ìĭľ
n fl</w>
ìĭł ì²´</w>
ìłĲ ìĪĺ</w>
íķŃ ìĨĮ
ìłľìķĪ íĸĪëĭ¤</w>
ê°Ħ ì£¼
ìĪĺ ìĿµ</w>
ìĨĲ ìĭ¤ìĿĦ</w>
lab or</w>
íĺ Ī</w>
ì§Ĳ ìŀĳ
ç Ī
ìłķ ë¹Ħ</w>
ìĤ¬ìļ© ëĲĺëĬĶ</w>
ëĬĺìĸ´ ëĤ¬ëĭ¤</w>
c ool</w>
influ ence</w>
ìļ© ìĤ°
e z</w>
ë¬¸íĻĶ ìłģ</w>
ë³´ ë¬¼
f air
c g
copy right</w>
ìĦłìĥĿ ìĿĺ</w>
ìĤ´ìķĦ ê°ĢëĬĶ</w>
íķĺìĸ Ģ</w>
n g</w>
íķĺ ê²Į
wor se</w>
ìŀ¡ ê¸°</w>
ìĦłë³´ ìĿ¼</w>
ê°¤ëŁŃ ìĭľ</w>
ìŀĩ ëĬĶ</w>
confir med</w>
ìĦ± ê²©ìĿĦ</w>
ìłķëıĦ ë¥¼</w>
ì³Ĳ ìķ¼</w>
ë¦¬ëįĶ ìĭŃ
ëª© ìłģìĿĦ</w>
de man
íķĺìĿ´ ëĭī
íĿ ©
íİ¸ ìŀħ
ë§Ī ìļ´
ë§Ĳ ëĿ¼</w>
íĴį ìĿĦ</w>
ë©´ ìĿĢ</w>
chr is</w>
gr and</w>
ì¶Ķ ëª¨
ê°ľ íİ¸</w>
íĳľ ìłķìĿĦ</w>
ìłľ ìķķ
po ol</w>
ìŀ £
ì°¸ ìľ¼ë¡ľ</w>
ëĿ¼ ë©´ìĦľ</w>
profes sional</w>
ìłģ ëĭ¹
r on</w>
h oo
ì£¼ ìľł
off ered</w>
tr af
pre ci
ìĭľ ìłķ
ëŀį ëĭĪëĭ¤</w>
ì¡° ì¹ĺê°Ģ</w>
ëª¨ ë¥´ê²Į</w>
ìłĪ ë¡ľ</w>
high est</w>
chri st
ãģ ĵ
ìĺģíĻĶ ìĿĺ</w>
ìĭł ëĿ¼
ê·¼ê±° ë¡ľ</w>
f ish</w>
tri c</w>
ìĭ¸ ìĽĢìĿĦ</w>
ìĨį ìĿ´</w>
íĭĢ ë¦¼
ëıķ ëĬĶ</w>
ìŀ¥ ìĨĮ
ìĪľìĭĿ ê°ĦìĹĲ</w>
ì¤Ħ ìĿ´</w>
íĥķ íĽĦ
íĻĶìĿ´ íĬ¸</w>
ìĹ´ ìĿ´</w>
íĻķ ìĭł
ìĤ¬íļĮ ëĬĶ</w>
ë³ĳ ìĽĲìľ¼ë¡ľ</w>
in ion</w>
íİĺìĬ¤íĭ° ë²Į</w>
ë¡ľ ë§Ī
ìĦ¸ ëł¨
ju ana</w>
ëĴ¤ ëĬ¦ê²Į</w>
ìĸ¸ê¸ī íķľ</w>
ìĹ¬ ë¶ĢìĹĲ</w>
ìĺ¤ íķ´
ìĪĺ ë°±
ê·¼ ìłĳ
ìļ°ëł¤ ë¥¼</w>
ìŀĳíĴĪ ìĿ´</w>
íĥĿ ìĭľ
te dly</w>
íĥĦ íĥĦ
ìĺĢ ëĭ¤ê³ł</w>
ìĬ¹ ê°ķ
coun ter</w>
cha in</w>
ìļ´ìĺģ íķľëĭ¤</w>
ê¸° ìĪĻ
ap er</w>
ë¥´ ê¸°</w>
ac cur
ë°ĶëĢĮ ìĹĪëĭ¤</w>
Ã£ Ã¢
b o</w>
ë¹Ħ ìĭ¸
ëĤł ì¹´
ê³¤ ëŀĢ
ìĦ¤ëªħ ìĿĦ</w>
ìĸ´ ì§Ģê³ł</w>
ìĿ¸ ëĵ¤ìĹĲê²Į</w>
ìĦłíĥĿ íķľ</w>
ìĨĮ ëıħ
ê°ĸ ì¶°
ay ed</w>
ãĦ ´
ì¹´ ëĬĶ</w>
ìĻĢ ì¤ĳìĹĲ</w>
ì´Ī ë¶ĢíĦ°</w>
Ã£Ã¢ Ã£Ã¢
ëª©ìĨĮ ë¦¬</w>
ê°ľëħĲ ìĿĦ</w>
ë¡ľìĿ´ ëĵľ</w>
ìĸ¸ ìĸ´</w>
ì¡Į ìĿĦ</w>
ë¥ Ļ</w>
íķĺ ìľĦ
íĽĦ ì¿ł
ìĤ¬ ë¬¼
ëª¨ìľ¼ ê³ł</w>
ì¶ľ ìĤ°</w>
ê´Ģ ìĦ¸
anc y</w>
ì¡¸ ìĹħ</w>
ëĤł ìĹĲ</w>
íĺĦ ìĿ´</w>
ë°ľ ìĿĺ</w>
ìĨį ìĹĲìĦľëıĦ</w>
ë¸Ķ ë¦¬
jo ined</w>
op ened</w>
who m</w>
ë°°ê²½ ìľ¼ë¡ľ</w>
v ul
ìĭľê°Ħ ê³¼</w>
cle an</w>
ë°ķ ìĤ¬</w>
benef it</w>
intere sted</w>
íķľ ì°¸</w>
ì§ĢìĹŃ ìĿ´</w>
ìĿ¸ ìĥĿìĿĦ</w>
êµĲ ìĭ¤</w>
ì§ĢìĽĲ ê¸Ī</w>
ìĦłê±° ìĹĲ</w>
ìĿ´ ìĿĢ</w>
fir m</w>
íı¬ìĿ¸ íĬ¸ë¥¼</w>
ìĭł ê²½ìĿĦ</w>
ì¹´ ë¥¼</w>
believ ed</w>
ëĤ¨ ê²¼ëĭ¤</w>
me ant</w>
ìĦľìļ¸ ìĹĲìĦľ</w>
al o
s i</w>
ìķĪ ëĲľëĭ¤</w>
íİ¼ ì³¤ëĭ¤</w>
ê³³ ê³³ìĹĲ</w>
ë¹Ħ ì£¼
ê°ĳ ëĭĪëĭ¤</w>
impro ve</w>
lear ned</w>
cha ir
ç «
ì» ´</w>
ë§Į ëĵľ
ê³¼ ìłľë¥¼</w>
ëĮĢ ë°ķ</w>
ë°Ľìķĺ ê³ł</w>
ìĤ¬ ê²©
ìĿ´ ê±°
z en</w>
âĢĻ .</w>
ë¬¸íĻĶ ì²´ìľ¡
ì¶ĺ ì²ľ
ìĬ¤íģ¬ ë¦°
ìĭľ íĬ¸</w>
qu ick</w>
ìłķ ê¸°</w>
ìķĪ ëħķ
ìľłì§Ģ íķł</w>
íħĮ ëĿ¼
mil lions</w>
lin ed</w>
íĥĢ ìĿ´ìĸ´</w>
j av
ê¹Į ëĭ¤
ìĸ¼êµ´ ìĹĲ</w>
ìĥĿê°ģ ë³´ëĭ¤</w>
dri ving</w>
ìłĦ íĺķ</w>
ìĨį ëıĦ
ê¸°ì¤Ģ ìĹĲ</w>
ì¤ĳêµŃ ìĹĲ</w>
ê²°ìłķ íķł</w>
ì§Ħ ìĥģ
ë¸Ķ ëłĪìĿ´
dec is
ìĿ´ íķ´</w>
ê²ĮìŀĦ ìĿĺ</w>
ìĹŃëĮĢ ê¸ī</w>
ë¬¼ ê±´
gu ard</w>
ìłĪ ê°Ĳ
íĹĪ ìľĦ
op inion</w>
íģ¬ ëŀĺ
é «
sur face</w>
ìĿ´ ëŀĺ
ë¡Ń ê³ł</w>
ex t</w>
ail ed</w>
ê±° ëł¸ëĭ¤</w>
ìłľíĴĪ ìľ¼ë¡ľ</w>
arre sted</w>
êµ¬ ë³Ħ
ë¶ĢëĵľëŁ¬ ìļ´</w>
ìĤ½ ìŀħ
ìŀĲìĭł ëıĦ</w>
ìķĬëĬĶ ëĭ¤ê³ł</w>
ëĤ´ ìĸ´</w>
íķ´ê²° íķł</w>
ë¬´ ëĭ¨</w>
ìłĪ ëĮĢë¡ľ</w>
è «
ìĤ¬ìĿ´ ë²Ħ
t our</w>
ì§ģìĽĲ ëĵ¤ìĿĺ</w>
deb t</w>
ê¸°ìĹ¬ íķł</w>
ë°ĶëŀĮ ìĿĦ</w>
run s</w>
ëĤ´ ë¡ľ</w>
ë²Į ìĿ¸</w>
ìĺ¤ëŀĺ ëĲľ</w>
ìĭľìŀĳ ëĲĲëĭ¤</w>
suppor ted</w>
ëĤĺ ëħ¸
en cies</w>
ar ity</w>
íıĲ ì§Ģ</w>
ìĦľìĦľ íŀĪ</w>
ìĸ´ëłµ ëĭ¤ëĬĶ</w>
ìķĦìĿ´ ëĵ¤</w>
vic tory</w>
ìĦľ ê³ł</w>
ìĬ¤íĬ¸ ëĿ¼ìĿ´
ê°Ģë²¼ ìļ´</w>
ê²° ë¡łìĿĦ</w>
ê°Ī ëĿ¼
íķĺ ìĭľëĬĶ</w>
spec ies</w>
ìĵ°ëłĪ ê¸°</w>
ë³´ ëĤ¼</w>
ìĺ¤ ìĤ¬
ìĦľìļ¸ ìĭľëĬĶ</w>
ãħĭãħĭãħĭãħĭãħĭãħĭãħĭãħĭ ãħĭ</w>
ê°Ħ ë¶Ģ
ìĭł íĺ¸ë¥¼</w>
ìĤ¬ìĹħ ë¹Ħ</w>
ìĹĩ ê°Ī
musli m</w>
ëĤł ìĶ¨</w>
mean ing</w>
Â· Â·
íį¼ ëŁ°
ëıĻ ê¸°
ëħ¸ ëıĻ</w>
ìĸ´ë¦°ìĿ´ ì§ĳ</w>
oc cas
ë§ĪìĿ´ íģ¬ë¡ľ
ê¸Ī ë¦¬ê°Ģ</w>
ëĤ¨ íİ¸</w>
ìłĦ ì§Ģ</w>
æ³ ķ
ìķĦì§ģ ê¹Įì§Ģ</w>
íį¼ ìĦ¼
íķĦ ëĵľ</w>
ìķĶ íĺ¸
íī ģ
ë¸Į ëłĪ
ë¯¸ ëĵľ
auth ority</w>
ìĬ¤ íĦ´
ìĦł íı¬
íĮĲ ìĤ¬</w>
ì§ģ ë©´
íĮĲ ëĭ¨</w>
ìĥĿ ê¸¸</w>
ãĤ ī
ëĲĲ ìĿĦ</w>
íĻ© ìĿ´</w>
ìĹħì²´ ëĵ¤ìĿ´</w>
ê°Ģ ìļĶ
ëª¨ íĹĺ
ê´ĢëŀĮ ê°Ŀ
ê¸Ģ ìĿ´</w>
ìĹ¬ëŁ¬ ë¶Ħ
ìļĶ ë¦¬</w>
íĺĦ ìĿĺ</w>
ë§Ī íģ¬
ë§¥ ì£¼</w>
ê±° ê°Ļ
ì°¨ ìłĦ</w>
ìŀĳìĹħ ìĿ´</w>
ê¸ī ëĿ½
ìĦľ ìĸĳ
ê°Ģ ì§Ģë¥¼</w>
ëĭ¤ ìĿĺ</w>
ìłĢ ê±°</w>
ìłĳ ëª©
ìĸ´ëĸ» ê²Į
ìŀ¬ ë£Į</w>
ìłľìĻ¸ íķĺê³ł</w>
ê´Ģ ëħĲ
ìĭ¤ ìłĲ</w>
ìĹ° ëıĦ</w>
ëĵ¤ìĸ´ ê°Ħëĭ¤</w>
íĺ¸ ê¸°
ëĨĢëĿ¼ ìļ´</w>
ëĭ¤ ëĵ¬
dis ease</w>
ìľĮ ë¦¬
ë¯¼ì£¼ ëĭ¹ìĿ´</w>
ë¯¼ ìĽĲ
sho wing</w>
ìĤ¬ ê³¼</w>
ê´Ģ íķ´</w>
ë³´ ê¸°
íĥĢ ê²©ìĿĦ</w>
ëıĻ ìĿĢ</w>
ê³¼ íĥľ
ê°Ĳ ìĪĺ
íĮĮ ë¦¬
br and</w>
ìĿ´ë¤Ħ ì¡Įëĭ¤</w>
ëĳ ¬
ìĪĺ íĻķ
provi des</w>
ì£¼ ë¬¸</w>
ëª¨ ëŀĺ
íķł ë¨¸ëĭĪ</w>
ë¦¬ ì¦ĺ
prev ent</w>
ìĭľ ìĿĺ
ê°ĢìĬ´ ìĿ´</w>
t elling</w>
ìĥģ ëĭ¹</w>
ìħĺ ìľ¼ë¡ľ</w>
leg isl
ê²° ìĿĦ</w>
fi f
h ill</w>
ì¹ĺ ìľł
ë°° íĭĢ
ìĿ´íķ´ ê°Ģ</w>
ê¹Į ëĭŃ
ê´Ģ íĨµ
ì» ·</w>
c ell</w>
ëĮĢíĳľ ìĻĢ</w>
ì°¬ ìĦ±
ess ing</w>
ëĸ¨ìĸ´ ëľ¨
ìĪĺ ëł¨
ëĤ´ ë©´</w>
sp ac
ìłľ ìĸ´</w>
squ are</w>
mari juana</w>
ë³´ ëĭ¨</w>
ìķĬìķĺ ëĭ¤ëĬĶ</w>
ìĹĨìĹĪ ê³ł</w>
ê´Ģê³Ħ ëĬĶ</w>
ìłĳ ì¢ħ
ìĺĪìĥģ íĸĪëĭ¤</w>
par li
ìĺģ ìĥģìĿ´</w>
íĿ ł</w>
é ĥ
strai ght</w>
íķĺë£¨ ìĹĲ</w>
st ars</w>
ìĽĲ ëĵ¤ìĿĺ</w>
ìŀĲ ë¶Ģ
ê¸Ī ë°©</w>
íļĮ íĶ¼
ê³µê°ľ íķľ</w>
ëĵł ê°Ģ</w>
exi sting</w>
íŀĪ ì§Ģ</w>
ëĮĢ íļĮìĹĲ</w>
íĨł ì§Ģ</w>
ìľĦìĽĲ ìŀ¥ìĿĦ</w>
ìĨĮìŀ¬ ë¡ľ</w>
ê¸īê²© íŀĪ</w>
advant age</w>
ìĻĦë²½ íķĺê²Į</w>
doll ars</w>
behavi or</w>
ìłķìĭł ìłģ</w>
car ds</w>
íĻķë³´ ë¥¼</w>
ìĪĺ ê°ķ
ì¹´ íĥĢ
ìĥī ìľ¼ë¡ľ</w>
ì¤Ħ ìĿ¼</w>
ë¯ ¹</w>
dis play</w>
ìĺģíĻĶ ëĬĶ</w>
ìŀ¥ ì¹ĺë¥¼</w>
ìĤ°ìĹħ ëĭ¨ì§Ģ</w>
ex change</w>
ìľĦ íķ´ìĦł</w>
de st
ìŀ¥ ë¡Ģ
ìĹĪ ìľ¼ë©°</w>
c p
ë°° íı¬
centr e</w>
íĮĲëĭ¨ ìĿĦ</w>
ìĭ±ê°Ģ íı¬
b on</w>
ê±°ë¦¬ëĳĲ ê¸°</w>
íķ´ ìĦ¤
íĻĶ íıĲ</w>
ìłĦ ìĤ¬
sand ers</w>
ê²½ìłľ ìĹĲ</w>
ke y
íģ´ ëłĪ
ìĥģëĮĢ ìĿĺ</w>
ob ject</w>
n av
ê´Ģ ë¦¬ê°Ģ</w>
ye ah</w>
íĺĳ ë°ķ
foo t</w>
êµĲ íļĮ
f es
ëĶĶìĬ¤ íĶĮëłĪìĿ´
ë¹ĦêµĲ íķĺë©´</w>
ëĭ¬ ìĿ´</w>
ìĿ¸ ê±´
ë§¤ ëıĦ</w>
ì§Ģ ì§Ħ</w>
ë§Į ëĤ¬ëĭ¤</w>
ì¶ľ ëıĻ
ê¸¸ ê²Į</w>
wa iting</w>
ìľł ì¡±
ìĭľ ìľĦ
ìĤ¬ëŀĮ ëĵ¤ëıĦ</w>
ê¶Įíķľ ìĿĦ</w>
ìĹĶ ëĶ©
ìłĳ ìĪĺ</w>
íĤ¤ ìĿĺ</w>
ë¹Ħ ìľ¨ìĿĦ</w>
writ er</w>
ar ily</w>
ìĹ° ë§Ĳ</w>
zer o</w>
ëıĮ ëł¤</w>
lead ership</w>
ê°ľ ë´ī</w>
ì£¼ ê°ĢëĬĶ</w>
ê°Ĳ íŀĪ</w>
ë°° ìļ°ëĬĶ</w>
ëħĦ ëĮĢ
è Ń
z ing</w>
ì§Ħ íķĻ
ë§ĪìĬ¤íģ¬ ë¥¼</w>
ëıĦ ì¶ľ
gres sive</w>
gu il
ìŀ¬ íķ´
ìłĦ ìĦ¸ê³Ħ</w>
ìĥĿê°ģ íķĺì§Ģ</w>
ìĭ¬ ìŀ¥
íŀĪ ìĸ´
ìĥĿ ìĿ´</w>
c m
ìĤ° ì¶ľ
ë§ŀ ëĭ¤</w>
du le</w>
ìĸ´ëł¤ ìĽĢìĿ´</w>
ìłķìĥģ íļĮëĭ´</w>
ìĺģìĹħìĿ´ìĿµ ìĿĢ</w>
ë¶Ģ ìĸĳ
r ick</w>
ê²ĥ ìĿ¸ëį°</w>
ìĿ¼ìĸ´ ëĤĺëĬĶ</w>
ìĻ ł
go tt
ìĭ¤ ìłģ
ìłĦì²´ ê°Ģ</w>
ë§Ī ëĿ¼</w>
íĮ Ŀ</w>
ëª¨ëĵ Ī
ë§Į ìĿ´ëĭ¤</w>
ìĦ¸ ìĻĢ</w>
êµ¬ìĨį ìĺģ
ìĿĳ ìĭľ
íĨł ë¡ľ
ìĬ Ĳ
ëıĦì¿ Ħ</w>
ëĭ¨ ëĭ¤</w>
ì¢ħ ë¡ľ
íı ´</w>
ëĭ¨ ìľĦë¡ľ</w>
ìĬ¬ ëĿ¼ìĿ´
íķľ ê³Ħë¥¼</w>
ë¯¸ëŀĺ ìĹĲ
comp on
ëĭ´ ê²¨</w>
insur ance</w>
w is
ìĤ° ê³¼</w>
ìĽĲì¹Ļ ìĿĦ</w>
ìĿ¼ìĸ´ ëĤĺ</w>
íĥĢ ìĽĮ
ìĽĶ ìĿĺ</w>
ê´Ģ ìłĪ
ìĺĪ ìķ½</w>
l am
íĿ ĺ</w>
ìľĦíĹĺ ìĿĦ</w>
v oc
ë§ī ìĿ´</w>
wat ching</w>
canadi an</w>
ì§Ģ ëĮĢ</w>
íı¬ìĿ¸ íĬ¸
íĻķ ë¥łìĿ´</w>
êµ¬ ê²½
ìĿ¸ ëĶĶ
ê´Ģìĭ¬ ê³¼</w>
ìĿ¸ëıĦëĦ¤ ìĭľìķĦ</w>
ëª¨ ë²Ķ
ì» ¸
p el
ë³µ ìĽĲ
ê·¸ ë¦ĩ
te sting</w>
ëĭ¹ ëĭ¹
pl ant</w>
ì¹ľ íĻĶ
ê²°ìłķ íķĺëĬĶ</w>
sho p</w>
ì¤ĳ ëıĦ
ë²½ ìĹĲ</w>
islam ic</w>
ìŀħ ìĹĲ</w>
ëķħ ìĹĲ</w>
ìŀĲìĽĲ ë´īìĤ¬
ì»¤ë®¤ëĭĪ íĭ°
ìĭľ ê¸ī
ac tiv
ëĭ¨ ìĪľ</w>
char ged</w>
ìĤ¬ ëĤ´
ëįĶ êµ¬ëĤĺ</w>
ëĭ¨ íĸī
achi ev
pu s</w>
gr an
ë§¤ì¶ľ ìĿĦ</w>
l en
ëĤĺ ìĻĢìĦľ</w>
ìĪĺ ìĨ¡
ìłķ ë°Ģ
ë©´ ìĦľ
is es</w>
ìĦ¸ ë¬´
ìĿ½ ìĸ´
ìĬ¤ ëłĪ</w>
ì£¼ ìŀĲ</w>
ê³µ ìľł</w>
ri es</w>
ë¬¸ ê³¼</w>
ëĲĺ ìĸ´ë²Ħ
beau ti
ì¶Ķì§Ħ íķ´</w>
êµ° ìĹĲìĦľ</w>
ri ver</w>
ê¸°ê´Ģ ìĿĦ</w>
ê°ķ ë¦ī
íļĮìĿĺ ìĹĲ</w>
ìĭ¤ ìŀ¥</w>
íĻĪíİĺìĿ´ ì§Ģë¥¼</w>
ìĽĲ ëĵ¤ìĿĢ</w>
ëħ¸ì¡° ëĬĶ</w>
ëĤĺ ëīĺ
ì² ©</w>
man i
íĻ ķ</w>
ìĹ° ìķł
ëĤ´ ë¦´</w>
ë§¤ ìŀ¥
ëĵ±ìŀ¥ íĸĪëĭ¤</w>
ê½ĥ ìĿĦ</w>
íķĺìĺĢ ìľ¼ëĤĺ</w>
ì¡° ê¸°
il legal</w>
ìĭ¤ íĹĺ</w>
ëķĮ ë¡ľëĬĶ</w>
we a
ê·¸ëĭ¤ ì§Ģ</w>
ìĹĲ ë¥´
ëĤł ìĿ¸</w>
ìĦ±ê²© ìĿ´</w>
vic tim
se as
ì°¾ ì§Ģ</w>
sp on
ìķłíĶĮ ë¦¬ì¼ĢìĿ´
ëª¨ ìĿ¸</w>
ì£¼ ëł¥</w>
ì¶ľìĹ° íķ´</w>
ì¼Ģ ë¯¸
ë°©ìĭĿ ìĿĢ</w>
ìĦľë¹Ħ ìĬ¤ê°Ģ</w>
flo or</w>
ki a
ê¸°ìĸµ ìĿ´</w>
gr ade</w>
i ble</w>
ìĿ½ ëĬĶ</w>
ëħ¸ ìĦł
ìłľ ìŀĦ
ëĤ´ ëĨ¨ëĭ¤</w>
íģ¬ë¦¬ìĬ¤ ë§ĪìĬ¤</w>
ìĹŃ ìŀĦ
ê±° ì£ł</w>
ìĿ¸ ì¹ĺ</w>
ãİ ľ</w>
ê³¨ ëĵł
gen cy</w>
ìĺĪ ë¡ľ</w>
ìłĦ ë©´
ìĹ°êµ¬ ê°ľë°ľ</w>
ë¶Ģ ì²ľ
ëĬĺìĸ´ ëĤĺëĬĶ</w>
ìłĲ ìĭ¬
ë¡ł ìĿĢ</w>
j ec
four th</w>
ìķĺ ëĭ¤ê³ł</w>
ìĨĮ ìħľ
íĮĮìķħ íķĺê³ł</w>
íĻķìĿ¸ íķľ</w>
ìĥģ íĸ¥
sha red</w>
j ones</w>
pl a
ì§ĢìĹŃ ê²½ìłľ</w>
ì¹ĺ íĤ¨</w>
ìľĦ ì£¼ìĿĺ</w>
íĨµ íĸī
êµŃëĤ´ ìĹĲ</w>
il s</w>
âĢĶ âĢĶ
ìĿ´ ìĨ¡
ìĪĺ ìĭľë¡ľ</w>
ìĺĪìłķ ëĲľ</w>
ìĦ¸ì¢ħ ìĭľ</w>
he at</w>
ê¾ Ģ
ë§Į ìĿ¸</w>
ìºĲë¦Ń íĦ°ë¥¼</w>
competi tion</w>
ê´ĳ ê³łë¥¼</w>
íķľ êº¼
ì¡° ë¡Ģ</w>
cas h</w>
minu te</w>
ê²°ìłķ ìĹĲ</w>
car ry</w>
ìĿĺ ì§Ģê°Ģ</w>
ì°½ ìĽĲ</w>
ì¶ķ ìĿĦ</w>
ëĤĺìĦľ ê³ł</w>
ìŀ¥ê´Ģ ìĿĺ</w>
pu tting</w>
cam p</w>
íķĺëĬĺ ìĿĦ</w>
ï¼ ŀ</w>
expl ained</w>
íĺĦ ê¸Ī</w>
ìłľ íľ´
ì§ĵ ê³ł</w>
coll ection</w>
íĺģìĭł ìĿĦ</w>
ìľĦì¹ĺ ìĹĲ</w>
ê²½ ìĦł</w>
ìĸ´ ì§ĢëĬĶ</w>
. ãĢį</w>
êµŃ ìŀ¥</w>
Ð µ
ìŀł ìĪĺ
ìĿ¸ ìĿ¸</w>
> (</w>
respon sib
j ected</w>
s r
fin ding</w>
ë¯¸ëŀĺ ìĿĺ</w>
ìĭ¤ íļ¨
ìĪĺ ë¦¬</w>
ìĥģ ìĭ¤
ëĭ¤ìĿĮ ìľ¼ë¡ľ</w>
ìĦł ì°©
ìķĦìĿ´ëĶĶ ìĸ´ë¥¼</w>
ìķ Īëĭ¤</w>
ëĭ¹ ìĭľ
ìĭľë¦¬ì¦Ī ìĿĺ</w>
ëĮĢ ëª©
ê²Ģì°° ìĿĺ</w>
us a</w>
ãħĭãħĭãħĭãħĭ ãħĭ
ìķĦìĿ´íħľ ìĿĦ</w>
micro soft</w>
ìĬ¤ ë¯¸
íĨµ ìĤ°</w>
ìķł ë§¤
to ols</w>
ëł ¬</w>
ìŀĲì¹ «</w>
se tting</w>
íķĺ ê¸¸</w>
ì¤ĳê³µ ìĹħ</w>
íĪ¬ìŀħ íķ´</w>
is s</w>
ìĬ¤íĭ ±
ìłľ êµŃ
ìŀ¬ íĮĲ</w>
lo ts</w>
ê²Ģ ìĿĢ
ìĸ´ë¨¸ëĭĪ ìĿĺ</w>
ê²½ ì£¼</w>
ìĤ¬ìļ© íķĺì§Ģ</w>
fri end
ìĹ¬ìĿĺ ëıĦ</w>
ìĹ £
ìĦ¸ ê¸Ī</w>
ëĨį íĺĳ</w>
docum ents</w>
ì¤ĳ ë¶Ģ
ìľ¼ ë¡ł</w>
ì¢ħ ìĿ¼</w>
ìħĭ ì§¸</w>
ìłĦ ì§Ģ
ë¶ģ ë¯¸
w ol
ëĭ¤ëĭĪ ë©°</w>
ë°° ìłķ
ìŀĲ ìĽĲìĿĦ</w>
poli tici
ê±°ëŀĺ ìĨĮ</w>
keep ing</w>
pro gress</w>
ëĲĺ ê¸°ë¥¼</w>
íı¬ ì°©
ì¤Ģ ìĪĺ
íķľ ìĿ´</w>
íĮĲë§¤ íķľëĭ¤</w>
ì¤Ħ ìĿ´ê³ł</w>
k il
corpor ate</w>
re r</w>
b le
ë°©ìĭĿ ìĿ´ëĭ¤</w>
ëħĦ ìĿĢ</w>
íħĮ ìĬ¤íĬ¸</w>
de p
ëĿ½ ìĿ´</w>
ê²½ì°° ìĿĺ</w>
ë¬¸ ìŀĲ
ìĿĺë¯¸ ë¡ľ</w>
smar t</w>
ìĪł ìĹĲ</w>
sta ur
ìĿ´ëģĮ ìĸ´</w>
sc ore</w>
ê·Ģ ì°®
ê¸°ìĹħ ëĵ¤ìĿĢ</w>
íħĮ ìĬ¤íĬ¸
ì£¼ ëıĦ</w>
íķľêµŃ ìĭľê°Ħ</w>
ve ter
ì§Ģ ëĿ¼ëıĦ</w>
ìļ° ìĹ°íŀĪ</w>
ath le
íĻĪëŁ° ìĿĦ</w>
ë¶Ħ ìľ¼ë¡ľ</w>
ì§Ģ ìĺ¥
ê¸ī ìĹ¬</w>
ëĸ ¡</w>
m ail</w>
ë§Īëł¨ íķľ</w>
íķľêº¼ ë²ĪìĹĲ</w>
ãĢį ,</w>
ìŀĲìľł ë¥¼</w>
ann ual</w>
ë°ĺëĮĢ íķĺëĬĶ</w>
ë°± ìĦ±
ëĮĢ ë°ķ
ìħĺ ìĹĲ</w>
ë¡ľ ë§Ī</w>
ë¶Ģ íķ©
ê³ł ìľł
ê°Ģì§Ģ ë¡ľ</w>
íĻĶ íķ´</w>
re staur
íĻķëĮĢ íķĺê³ł</w>
ãģ ı
fal se</w>
all ed</w>
ban ks</w>
ì²Ń ê³¼</w>
ìĿ´ë²Ī ìĹĶ</w>
íĥľ êµŃ</w>
ì¸µ ìĿĢ</w>
ìŀĲ ë§¤
ìĨĮ ìŀ¥</w>
ìĹ¬ ìŀĲëĬĶ</w>
ìĪĺì¹ĺ ëĭ¤</w>
ì§ĢëĤľ ì£¼</w>
ë°Ķê¿ Ķ</w>
ìŀĦ ì°¨
wor st</w>
ê±°ì£¼ íķĺëĬĶ</w>
off ers</w>
dri ver</w>
ëĮĢ ê°ľ</w>
ê²½ íĹĺ</w>
su st
andro id</w>
íħĮ ëŁ¬</w>
ìķĬëĬĶ ëĭ¤ë©´</w>
ìłľ ì²ł
ì¤ĺ ìĦľ</w>
mak ers</w>
ìķĦìĿ´ ëıĮ
ìĿ´ë¥´ ê¸°ê¹Įì§Ģ</w>
ê´Ģëł¨ ìĿ´</w>
ëħ¼ëŀĢ ìĿĦ</w>
ë§¤ ëĭ¬</w>
íĻķëĮĢ íķł</w>
ì²ł ê±°
plan ned</w>
ë§ ¥</w>
ê²© ë¦¬
ìĹĶíĦ°íħĮìĿ¸ë¨¼ íĬ¸</w>
ìłĦ ì§ģ</w>
ë¯¸ ë£¨
con sequ
ìľłì§Ģ íķĺëĬĶ</w>
bo ys</w>
íıī íĥĿ
extrem ely</w>
íĺ¸ ëŀĳ
Ð ½
ë§ŀ ìķĺëĭ¤</w>
pro posed</w>
ê·ĢìĹ¬ ìĽĮ</w>
ë³Ģíĺ¸ ìĤ¬ëĬĶ</w>
ìĨĮ ìĭĿìĿ´</w>
ë²Į ìĺĢëĭ¤</w>
ë¶Ģ ëıĦ</w>
ê³łìļ© ëħ¸ëıĻ
ãĥ¼ ãĥ
ëĨį ë¦¼
êµ¬ìĦ± íķ´</w>
ìĨĶë£¨ ìħĺ</w>
íĻĶ ë©´</w>
lg ìłĦìŀĲ</w>
ë³´ ìŀ¥</w>
ì»¤ ëħķ</w>
i ot</w>
ë°Ķê¹ ¥
ìĿ´ ë¥´ë©´</w>
ë§º ê³ł</w>
ìĥ Ģ
íķ© ìĿĺë¥¼</w>
ë¶Ģ ì±Ħ</w>
ìĭł íĺķ</w>
ë³´ ëĿ¼</w>
ìĦ¬ ìľł
ëĶ ĺ</w>
íĥĦ íķµ
íħ į</w>
ë¹Ħ ë°Ģ</w>
ëĭ¨ê³Ħ ìĹĲìĦľ</w>
ë¶Ģ ìĥģìĿĦ</w>
ìĭł ë¹Ħ
ìłľ ìķ½</w>
ëĤ ¼
canc er</w>
ur ing</w>
íĻĢ ìĹĲìĦľ</w>
ê¸Ī ìĹĲ</w>
ìĥģëĭ´ ìĿĦ</w>
ê³µ ì²ľ</w>
íķ´ê²° ìĿĦ</w>
ìĨĮ ë§¤
ê·¸ ëķĮ
plan ning</w>
ìķĪ ìłķìĿĦ</w>
ëĤ ¡
ìĺ¬ íķ´ëıĦ</w>
traf fic</w>
ê¸°ìĪł ë¡ľ</w>
ì¢ģ ìĿĢ</w>
ê³¨ ëĵľ
ìľł ë§Ŀ
íĢ ´</w>
ëĭ¤ë£¨ ëĬĶ</w>
j t
you tube</w>
dra w</w>
æ ±
ì¤Ģ ìĿĢ</w>
ìľĦ ìĿ¸</w>
ëıĻ ìĹĲìĦľ</w>
comm and</w>
ra m</w>
ëª¨ ëĬĶ</w>
ìķ¼ ë§Ī</w>
íŀĺ ëĵ¤ìĸ´
íĤ ´
ê°Ħëĭ´ íļĮë¥¼</w>
c old</w>
ë²Ī ìĿ´ëĤĺ</w>
ìķĦ ëĵ¤ìĿĦ</w>
t ol
ìĿ¸ ìĭĿìĿĦ</w>
íİ¸ìĿĺ ìłĲ</w>
ti tu
ë°ķ ìĤ¬
becom ing</w>
ë©´ìĦ¸ ìłĲ</w>
mis s</w>
ìĥĿìĤ° íķĺëĬĶ</w>
ìĸ ĩ
ìĺĪìĥģ ëĲĺëĬĶ</w>
dang erous</w>
ter y</w>
ì¡°ì§ģ ìĿĺ</w>
ëħ¸ ëĬĶ</w>
ì£¼ì°¨ ìŀ¥</w>
w illing</w>
ro y
íķĻ ìŀĲ</w>
ëĤĺíĥĢ ëĤĺê³ł</w>
ìºĲ ìĬ¤
íĻķ ë¦½
ë°ķëŀĮ íļĮ</w>
ëĬĺìĸ´ëĤĺ ê³ł</w>
íĻľìļ© íķĺëĬĶ</w>
ê³¨ ëĵľ</w>
bas is</w>
ë°Ķê¾¸ ëĬĶ</w>
tr ain</w>
victim s</w>
íİ¼ ì¹ĺê³ł</w>
ë¯¸ ì¹ĺ
ë§ī ëĬĶ</w>
ì§ĢëĤ ¸</w>
ë¸Ķ ë£¨</w>
ë¸Į ë£¨
ê³ĦìĹ´ ìĤ¬</w>
ë¶Ģ ëĵľ
ëĭ´ ìķĺëĭ¤</w>
des i
f light</w>
ìĭľìŀĳ íķł</w>
ìĿĺë¬´ ë¥¼</w>
hous ing</w>
ìĺģíĸ¥ ëł¥ìĿĦ</w>
mag az
ìĨĮ ëħĦ</w>
iz ation</w>
ë¬´ ìŀĳ
h d
ìłģ ìĿ´ë©°</w>
c ab
ì¶Ķ ê²©
gro w</w>
ëħ¸ ë¥´
graph y</w>
ìĸ´ëĸ ¤
e ds</w>
ãħ Į
ê´Ģë¦¬ íķĺëĬĶ</w>
ìµľ ìĪľ
ì°¨ ìĽĲ
ë¬´ ìĦł</w>
ëĭ´ëĭ¹ íķĺëĬĶ</w>
ëıĻ ìĦ±
ëĵ± íķľ</w>
ì§ĢìĹŃ ìĤ¬íļĮ</w>
ë³¸ ìĿĦ</w>
ëĭ¨ ìĿ¼</w>
ìłĦ íĽĦ
de ad
s ac
ë¶Ī êµĲ
c d
ìŀĲ ì£¼
ë§¤ì¶ľ ìķ¡ìĿĢ</w>
m ass
ê·¸ ë¡ľ</w>
sup porters</w>
hol ding</w>
con cept</w>
enfor cement</w>
ëįĶ ëĬĶ</w>
ìłģ ìĿ´
ê°ľíĺģ ìĿĦ</w>
å Ľ
ëª¨ ìĸĳ</w>
ëĮĦ ìĬ¤</w>
ì£¼ ê¸°
re duce</w>
ê·¸ ëłĪ
ìĦ¸ ê¸ĪìĿĦ</w>
ì¤Ģë¹Ħ íķĺëĬĶ</w>
íľ ł
ê³¼ ìĦ¸
ë§Ĳ ê³¼</w>
ë³ĳ ìĽĲìĿĦ</w>
u te</w>
ëĤł ìĿĢ</w>
ìĸ´ ë¦´</w>
it ems</w>
dru gs</w>
ìĭľì²Ń ë¥ł</w>
ìłĦ ìĤ¬</w>
íĸĪ ëĬĶ
ow ner</w>
ìĨĮ ìŀ¥ìĿĢ</w>
ë¨¹ ê³ł
ê°ĢëĬ¥ íķł</w>
ìĿ¸ íķĺìĹ¬</w>
mis sing</w>
ë¬» ìŀĲ</w>
ê±¸ ìĿĮ
ê¹ ¨ìĸ´
i ously</w>
ëıĻ ìķĪìĿĺ</w>
comm unities</w>
ìĦ± ì¶Ķ
ìĿĺ ìĽĲìĿĦ</w>
ëĿ ł</w>
ìµľ ê°ķ
íķĻ ìĽĲ
ì²´ ê²°</w>
ë²ł ìĬ¤íĬ¸</w>
ëĬĲê¼ Ī
ìĤ´ ëł¤
ab ilities</w>
ìĤ¬ë¬´ ìĨĮ</w>
ê¸°ìĪł ìĿĢ</w>
íķĺ ëĭ¤ë©´</w>
ìĽĲ ìľł</w>
ì¤ĳ ìĨĮ</w>
ê²½ìļ° ë¥¼</w>
defin itely</w>
ìłĦìŁģ ìĿ´</w>
ìĿ¸ ì¦ĿìĿĦ</w>
ìĥĮ ëĵľ
ìĥģ ê°Ģ</w>
ëĵ¤ ë§Į</w>
ìħ ĭ</w>
legisl ation</w>
ìĹħ ì¢ħ</w>
ë¨¼ íĬ¸</w>
ê°Ħ ìĿĦ</w>
ìĿ´ìķ¼ ê¸°ëĬĶ</w>
ë¬¸ ìĹĲìĦľ</w>
íĥľ ê·¹
ê±°ëĵ Ń</w>
di vision</w>
k u
ë§İ ìĿĢëį°</w>
ë¹ħ ëį°ìĿ´íĦ°</w>
íĻĺ ìŀĲëĬĶ</w>
ê³µ ìĹħ
ìĪĺ ìĦ±
ìĭľ ëĮĢê°Ģ</w>
incre di
ìķĮ ë°Ķ
audi ence</w>
ìĿ´ ê³³ìĹĲ</w>
ìĸ ¹
fam ous</w>
ìłĦ ëł¥ìĿĦ</w>
ìŀ¥ ìĪĺ
ê²½ íĸ¥
æ ĥ
íķĺëĤĺ ëĭ¤</w>
ìĿ¼ ëªħ</w>
in nov
ìĿ´ ê³³ìĹĲìĦľ</w>
ur ies</w>
becom es</w>
ë°ĺ ìĦ±
st ated</w>
ìłķ ë¬´
íĶĦë¡ľê·¸ëŀ¨ ìĿĢ</w>
ìĹŃ ìĿĢ</w>
pro secu
ê¹ Ĳ
ëģ Īëĭ¤</w>
ìĬ¤íĥĢíĬ¸ ìĹħ</w>
ì±ħ ìľ¼ë¡ľ</w>
ê³µìłķ ê±°ëŀĺ
re u
ëıĮ íĮĮ</w>
ìļĶ ìĨĮë¥¼</w>
ìķĺ ìĿĦ</w>
ë¹¼ ê³ł</w>
íķĦìļĶ ìĦ±ìĿĦ</w>
d aughter</w>
ìł ĵ
ê°Ģ íĨ¨
ìŀ¬ìĤ° ìĿĦ</w>
ëł¸ ì§Ģë§Į</w>
ìĹŃ ìĤ¬ìĿĺ</w>
íŀĺ ìľ¼ë¡ľ</w>
gre en
ê°Ĳ ìĤ¬ë¥¼</w>
ë°ľ ì£¼
ìĺ ´</w>
ë¸Įëŀľ ëĵľë¥¼</w>
ìķĪ ì²łìĪĺ</w>
íĬ¹ íĻĶ
ì£¼ ìłĢ
ì»´íĵ¨ íĦ°
íĬ¸ ìĿ¸</w>
ëı¼ ìĦľ</w>
ì£¼ë¯¼ ìĿĺ</w>
ìĵ° ë©´</w>
ìĿ´ìĹĪ ëĭ¤ê³ł</w>
ìŀ¥ ê°ĳ
ë©ĺ íĨł
us ual</w>
ëıĦ ìĸ´</w>
ê³ł ë¡ľ</w>
ìľł ìŀ¬
íķ© ìĦ±
ìĭľ ëĤĺ</w>
cover age</w>
ìŀĳìĹħ ìĹĲ</w>
ìģ ľ
ë©Ķë¥´ ìĬ¤</w>
êµŃë°© ë¶Ģ</w>
ëıĻ ìĭľ</w>
ê°ľ ëħĲ</w>
men tioned</w>
ìĿ¼ ì°į
ìķĮ íĮĮ
ëĦĺ ìĿĢ</w>
anim als</w>
ìĹ¬ ìĦ¯</w>
ëĭ¤ íķ´</w>
ìĥģ ê¸°
inst ance</w>
ê³łìĸĳ ìĿ´</w>
de tec
íĶĦë¡ľê·¸ëŀ¨ ìĿ´</w>
ìĽĢ ê³¼</w>
ãĤ ¤
íĮĲ ê²°</w>
ë¯¿ ìĿĦ</w>
ëĮĢíķĻ ìĹĲ</w>
íĺĦ ìĹŃ</w>
ãħ ¡
ìķĬ ìķĦìĦľ</w>
ì§Ħ ìľ¼ë¡ľ</w>
ë¦¼ ìĿ´</w>
ë³´íĺ¸ ë¥¼</w>
ìļ´ëıĻ ìĿĺ</w>
imag ine</w>
ìĿ¸ ìĭĿìĿ´</w>
ë°Ķê¿ Ģ</w>
** **
ëŁī ê³¼</w>
ìłķì¹ĺ ë¥¼</w>
ê°ĸ ëĬĶëĭ¤</w>
ìĦ¸ ë¶Ģ</w>
re stric
ë¹Ħ ê·¹
ìĻķ ìĿĦ</w>
ëĭ¨ì²´ ê°Ģ</w>
ìŀĲìĭł ê°ĲìĿĦ</w>
ë§ī ê³ł</w>
ìĿ´ íĥľ
ìłĪ ë§Ŀ
der ing</w>
ë¯¼ ì¡±</w>
israel i</w>
êµ¬ ë¦¬</w>
ê³¼ìłķ ìĿĢ</w>
ëĨĵ ìĿĦ</w>
reg im
other wise</w>
ìĿ´ ëĭ¬
thom as</w>
m ol
bre ak
ìĹ¬ ëªħ</w>
ëĶĶ ëĬĶ</w>
ex erc
ell ed</w>
ìŀħ ì£¼</w>
eas ier</w>
ìĦ± ëªħìĿĦ</w>
ê³ł ê¸°ë¥¼</w>
ìĿ´ ëĵ¤ìĹĲê²Į</w>
ìĬ¤ íĮĮìĿ´
ë¶Ģ íĮ¨
am i</w>
ë£¨ ê°Ģ</w>
f ted</w>
ìĦł ê³ł</w>
ë¬´ ëĬ
ë°ľìłĦ ìĨĮ</w>
ìĿ´ ë¦¬
ì§Ģ ìĪĺê°Ģ</w>
ë¶Ī íıī
ë¬´ ìĦł
ëĶĶìŀĲ ìĿ¸ìĿĦ</w>
ìĬ¤ ë°Ķ
jap an
ê±¸ ìĹĪëĭ¤</w>
he aring</w>
ìĺģ ìĿĦ</w>
íķĻ ê¸°</w>
nor thern</w>
ë°©ì¹¨ ìĿĦ</w>
ëĵľ ë¬¼
ì²ĺ ë²Į</w>
j i
ëĭĺ ê³¼</w>
ìĹ° ëıĻ
íľ ĺ</w>
acc used</w>
ë²Ħ ë¦´</w>
immigr ation</w>
ëıĦ ìļ°
ê¶Į ëł¥ìĿĦ</w>
ë¬´ìĦľ ìļ´</w>
bal ance</w>
ìĭł ìĹĲ</w>
ìŀĲ ê¸ĪìĿ´</w>
ìĽĥ ê¸°
íĿĲ ë¥´ëĬĶ</w>
ë²ł ëĦ¤
ë¹ł ë¥´
ìĻĶ ê³ł</w>
íķĺ ìľĦ</w>
ni e</w>
environ mental</w>
dy nam
ìķŀ ìĿĺ</w>
air s</w>
sit es</w>
ë°©ë²ķ ìĹĲ</w>
ë¨¸ ë¦¿
íķ´ ìłľ</w>
ìķ¡ ìħĺ</w>
ê±°ë¦¬ ë©°</w>
ìłľì£¼ ëıĦ</w>
ì£¼ ìĭł</w>
ter ri
ë¨¸ ë¦¬ìĹĲ</w>
ëª¨ ìĿĢ</w>
ëĭ¹ êµŃìĿĺ</w>
ë¶Ģìłķ ìłģ</w>
obvi ously</w>
íĮĲ ìĿĺ</w>
ìĹħì²´ ë¥¼</w>
ìķĦ ìĤ¬
ìĦľ ë¡ľìĿĺ</w>
íĥĢ ìĿĺ</w>
ì§ģ ìŀ¥</w>
íĥĦ ìĨĮ</w>
ìĳ ¤
p ain</w>
te sts</w>
íĺ¸íħĶ ìĹĲìĦľ</w>
ì½ §
ing er</w>
employ ment</w>
ë± ī
ìĹ¼ ëĳĲìĹĲ</w>
íĳľ ìłķìľ¼ë¡ľ</w>
ê°ľ ìĭľ
o ec
ìŀ¥ ë©´</w>
ìĿ¸ ê°Ģ
ì°¨ ë³Ħ</w>
ìľĦìķĪ ë¶Ģ</w>
ì¡° ë¦¬</w>
ëłĪ ìĬ¤íĨł
ì¶ľ ë§Ī</w>
ìłķë¶Ģ ë¥¼</w>
ê·Ģ êµŃ
ìĹ¬ ì§Ģê°Ģ</w>
ìĭ±ê°Ģíı¬ ë¥´</w>
ë¹ł ì¡Įëĭ¤</w>
ìķĦ ëª¬
ìĦ±ìŀ¥ íķł</w>
v ice</w>
brit ain</w>
ì¤ĳ ìĹĲìĦľëĬĶ</w>
ed itor</w>
r at
un fortun
ëį° ìĹĲ</w>
ëĴ Ģ
h an</w>
ìĺģìĽĲ íŀĪ</w>
ë¬¸ ìŀĲ</w>
ëª¨ íĨł</w>
ìĺģ ëĵ±
ë²Ī ìĿĢ</w>
ìĭł ì²ľ
hum an
ìĿµ ìĿĦ</w>
ë³Ģíĺ¸ ìĤ¬
ì± Į
champi on
ì²´ ê°Ĳ
ìĭĿ ìĤ¬</w>
íĥĦ ìĨĮ
enjo y</w>
il ed</w>
it ors</w>
ì½ĶìĬ¤ ëĭ¥
aliz ation</w>
ë°Ķ ìĿ´</w>
ëıħ íķľ</w>
ë¦¬ ëĭ¤</w>
ki m</w>
ìĿ´ ì¹ĺ
ar med</w>
ìĿ¼ìĸ´ ëĤ¬
ëħĦ ìľ¼ë¡ľ</w>
am ed</w>
win d</w>
ìĿ¸ê·¼ ìĹĲ</w>
íĺķ ìĭĿìľ¼ë¡ľ</w>
ëĭ¨ ì§Ģ
ê³ł ìłĦ
ë°©ìķĪ ëıĦ</w>
ëĤ´ ë¦¬ê³ł</w>
ìĸ´ëĳĲ ìļ´</w>
ìŀĲ ê°Ģê²©
ìĤ¬ëĿ¼ ì§Ħ</w>
ëĳ¥ ìĿ´</w>
ê²ł ëĦ¤</w>
ë³ĳ ìĹĲ</w>
íĶĦëŀľì°¨ìĿ´ ì¦Ī</w>
ëĮĢìĿĳ ìĿĦ</w>
cn n</w>
ì§ĢíĤ¤ ê³ł</w>
ä ¼
íİ¸ íķĺê²Į</w>
v it
ê·Ģ ì¡±
equ i
ìĿ¸ ìĿ´ëĭ¤</w>
ê²½ ëł¥</w>
ìĬ¨ ìĿĢ</w>
ìĹ ®
ë¦¬ ëª¨ëį¸
ëĵĿ íĳľ
ìŀ¥ ì¹ĺ
ëĶ ´</w>
ì§Ģ ë¶ĦìĿĦ</w>
ëıĦ ìłĢíŀĪ</w>
êµŃë¯¼ ëĵ¤ìĿĺ</w>
ê±°ë¦¬ ìĹĲìĦľ</w>
pur pose</w>
ìłĦ ìĹĲìĦľëĬĶ</w>
mo de</w>
ì¡° ìĤ¬ê°Ģ</w>
ìĹ° ëĮĢ
ìĬ ´
ìĹŃìĤ¬ ìĥģ</w>
íıī ê°ĢëĬĶ</w>
ìŀĳ ê°Ģê°Ģ</w>
ê·ĢìĹ¬ ìļ´</w>
ìļ° ë¦°</w>
íĥľ íĴį</w>
sou thern</w>
ë°Ľìķĺ ëįĺ</w>
ì¹ ©
ë³´ ìłĦ
ëģ¼ ë¥¼</w>
ì§Ħ ìĭ¤ìĿĦ</w>
ì¹´ ê°Ģ</w>
c s</w>
ìĦ±ê³µ ìłģìĿ¸</w>
íĭ° ì¼ĵ
issu ed</w>
a ìĶ¨</w>
cha p
ìłĳ ì¢ħ</w>
back ground</w>
ëģĿ ëĤ¬
ê²ĮìŀĦ ìĿ´</w>
ê´ Ħ</w>
ìĤ°ìĹħ ìĿ´</w>
ê°Ģì¡± ìĿĦ</w>
separ ate</w>
neigh bor
êµŃ íļĮìĹĲ</w>
ë©´ ìłĳ</w>
íķ´ ìķĪ
ê¸° ì¦Ŀ
deli ver
ì»¬ ëŁ¬</w>
chang ing</w>
ìłĦ ìĦ±
íĴĪ ìľ¼ë¡ľ</w>
ligh tly</w>
un less</w>
ê²° ìĭ¬
ëĬĲê¼ Īëĭ¤</w>
ëıħ ìĿ¼ìĿĺ</w>
ìĿ´ ìĤ¬ëĬĶ</w>
sh all</w>
ëĮĢìĥģ ìĹĲ</w>
æ ²
ìĿ¸ ë¥ĺ
ìķĦëĭĮ ëį°</w>
ìĹĨ ëĬĶ
tech ni
ìĺģ íĸ¥</w>
ëĭĪ ìĬ¤
íĿ¬ ìĿĺ</w>
ìŀĲìľł íķľêµŃëĭ¹</w>
n d</w>
s in
ìµľ ìłĢ</w>
ì±ĦëĦĲ ìĿĦ</w>
êµ¬ ì²Ń</w>
ìĤ´ìķĦ ëĤ¨
ìĦł ë³´ìĿ´ëĬĶ</w>
ëĨį ìĹħ</w>
ìĤ¬ìĭ¤ ìĹĲ</w>
ì¡° ìłķìĿĦ</w>
ëł µ</w>
c ëĬĶ</w>
sh el
== ==
ë¦° ëĭ¤ëĬĶ</w>
ë´Ĳ ìļĶ</w>
degre e</w>
ë¡ľ ë²Ħ
íļ¨ê³¼ ìłģìľ¼ë¡ľ</w>
ëĭ¤ ìĪĺ
ì¤ĳ ìĿĦ</w>
requ e
ìļ° ì£¼</w>
ê±´ ë¦½</w>
ê±¸ ì¹ľ</w>
dec ade</w>
ìĿĺ ëĬĶ</w>
ì»¨íĬ¸ ë¡¤
ìĺ¬íķ´ ìĿĺ</w>
íķ´ ìĹĲ</w>
dis covered</w>
ê¸° ë¦Ħ
ê³¡ ìĿ´</w>
> <</w>
íģ¬ ê¸°</w>
par ti
íķľ íİ¸
ìĿ¼ì£¼ ìĿ¼</w>
.. ....</w>
ì§Ģ ì¹¨
ìĿ´ë¤Ħ ì§Ģì§Ģ</w>
ì¤ĳ ë¦½
bre aking</w>
re mar
ê²°ê³¼ ìłģìľ¼ë¡ľ</w>
ìĿĺ ìĤ¬ê°Ģ</w>
ëĭ¨ ìľ¼ë¡ľ</w>
ëĲł ì§Ģ</w>
ëĵĿ ìłĲ
íĶĦë¡ľìłĿ íĬ¸ë¥¼</w>
ëĵ±ìŀ¥ ìĿ¸ë¬¼</w>
ste ps</w>
stri ke</w>
apparen tly</w>
ìĺ ´
íķĻ ëħĦëıĦ</w>
ìĭľ ë©´</w>
pri or</w>
íľ´ëĮĢ íı°</w>
ë¹Ħìłķê·ľ ì§ģ</w>
ê°Ļ ìĿ´
íķ´ ì²´
ëĦ¤íĭ° ì¦Į
ë§Ĳ íķĺë©°</w>
ìľłëŁ½ ìĿĺ</w>
è ²
ê³Ħíļį ìĿĢ</w>
ê¸ī ìĭĿ
ëĲĺ ë¯Ģë¡ľ</w>
identi ty</w>
c j</w>
ìłľ ëıĦìĿĺ</w>
es cap
ìĪĺìļĶ ë¥¼</w>
ê°ľë°ľ ìĿ´</w>
ê°ľ íĹĮ
re turned</w>
is la
íıī íĻĶ</w>
ê½ĥ ìĿ´</w>
ëĭ¹ êµŃ
ann a</w>
m on</w>
y ers</w>
direc tion</w>
íķ´ ë§Īëĭ¤</w>
ë¶Ī ëłĢëĭ¤</w>
ëį° ë¯¸</w>
íķ´ëĭ¹ íķľëĭ¤</w>
reas on
ê³łìĬ¤ ëŀĢíŀĪ</w>
íĳľ ê°Ģ</w>
íķľ ë¯¸</w>
íħĮìĿ´ ë¸Ķ
tran si
ìłĦ êµŃìĿĺ</w>
liber al</w>
phil os
íĨµ ìĿ´</w>
ìķĺ ëĭ¤ëĬĶ</w>
ìĭľìĦ¤ ìĿĺ</w>
ìĬ¤ì¹´ ìĿ´
íĺ¼ìŀĲ ìĦľ</w>
supre me</w>
ìłĦ ë¶Ģ
ì°¾ìķĦ ê°ĢëĬĶ</w>
ne gative</w>
ì¹´ëĵľ ê°Ģ</w>
ìĹ¬ ëĭ´ìľ¼ë¡ľ</w>
ìĤ¼ìĦ± ìĿĢ</w>
t es
ìłķëıĦ ìĺĢëĭ¤</w>
laun ched</w>
g ain</w>
ic a</w>
ëĬĲëĤ Į</w>
ìĸ´ ëĶĺ
íĮĲë§¤ ê°Ģ</w>
ë°Ķ íĢ´</w>
ìĦłíĥĿ ìĿĦ</w>
ë³´ íĸī
ê²ĥ ëĵ¤ìĿ´</w>
ol der</w>
ìķ½ ìĹĲ</w>
ìĿĺ íķ´ìĦľ</w>
ë¶Ī ê°ĢëĬ¥íķĺëĭ¤</w>
devel op</w>
Ã ©</w>
ìĭľìĦ¤ ìĹĲ</w>
ìŀĲ ëĿ¼ëĬĶ</w>
be er</w>
íģ´ëŀĺ ìĬ¤</w>
mar tin</w>
tion ary</w>
ìºłíį¼ ìĬ¤</w>
íķĦë¦¬ íķĢ</w>
íĨµ ê³¼</w>
ak ed</w>
d av
ìĥĪ íķ´</w>
ë³µ íķ©</w>
ìĦ¸ íı¬</w>
ìĿĺ ë¬´</w>
i o
re n</w>
ìµľ ìĨĮíķľ</w>
bl ing</w>
ëĳĲ ë¥¼</w>
ëĬ Ħ</w>
ì²Ń ìĤ¬</w>
ë°ĿíĺĢ ì¡Įëĭ¤</w>
ëĭ¨ ê¸°</w>
ro bo
lin e
ë³Ģ ìĿĦ</w>
ìĦľ ë¡ľë¥¼</w>
ìĥĪ ë¡ľ
ëª ½</w>
ëĳĲëł¤ ìĽĮ
ìķĬìķĺ ìĿĦ</w>
j es
ìĨĮ íĻĺ</w>
concer ned</w>
íĪ¬ìŀĲ ìŀĲ</w>
íĸ¥ ìĥģìĿĦ</w>
ìĿ´ ê³³
ac ity</w>
dom es
ëª© ë¡Ŀ</w>
ëŀŃ íĤ¹</w>
ìºł íĶĦ
ê³¡ ìľ¼ë¡ľ</w>
n ings</w>
ì£¼ ì£¼</w>
ìķĦ ìķĦ</w>
ëħĢ ìĦĿ
ëĵ¤ ìĹĲê²ĮëıĦ</w>
ì¤ĳìļĶ ìĦ±ìĿĦ</w>
er ror</w>
êµĲìľ¡ ìĿĢ</w>
ìĿ´ìĬ¤ëĿ¼ ìĹĺ
ìĿ´ìĸ´ ê°Ķëĭ¤</w>
ì¡Į ìľ¼ë©°</w>
ì¸ Ħ
ëģĿ ìĿ´</w>
ê°ľ ìĨĮ</w>
íĨł ë§Ī
ì¸ł ëĬĶ</w>
ãģ ł
íıīê°Ģ ëĭ¤</w>
ìµľ ëĮĢìĿĺ</w>
ë³¸ ìĤ¬</w>
ãĤ Ĭ
ê³ł ìĭľ
êµĲìľ¡ ìĿ´</w>
ì°¨ ìĽĲ</w>
japan ese</w>
ëĮĢëĭ¨ íŀĪ</w>
ìĭ¤ ëĤ´</w>
ëĿ¼ìĿ´ ìĸ¸
ê¹ ¨</w>
ab use</w>
ê³µ ìłķíķľ</w>
loc ated</w>
êµŃë¯¼ ìĿĦ</w>
lab our</w>
ì²ĺ ë¦¬ë¥¼</w>
íĻĺ ìľ¨</w>
ëģ Į</w>
íķĺ ê²ĮëıĦ</w>
ë²Ħ ìĬ¤ë¥¼</w>
íĨ °
ìĬ¤íĥĢ ìĿ¼ìĿĦ</w>
ëį°ë¯¸ ì§Ģ</w>
ìĹ¬ ëĬĶ</w>
ê·¼ë³¸ ìłģìĿ¸</w>
ìĦľë¹Ħ ìĬ¤ëĬĶ</w>
ì§ ĸ
ë°ķ ì§Ģ
ëĤĺ ëĵ¤
ë§Į ìĹ¬</w>
d m
ì£¼ìĿ¸ê³µ ìĿ´</w>
ê´ĳ ìŀ¥</w>
ë¦¬ ëĤĺ</w>
argum ent</w>
bl ack
confl ict</w>
ëģĮ ëł¤
ì¶ľìĭľ ëĲľ</w>
ìĥģ íķľ</w>
ëĮĢëĭµ íĸĪëĭ¤</w>
ìĶ Į
ì¼Ģ ìĸ´</w>
ìĿ¼ë³¸ ìĹĲ</w>
ìĻĦ ê³µ
ë¹Ħ íķĺë©´</w>
ë°ĺ íķ´</w>
è ģ
ìľł ëŀĺ
establ ished</w>
ê³µ íķĻ
ëĭµ ëĭĪëĭ¤</w>
ê°ľë°ľ ê³¼</w>
bl ed</w>
tt ers</w>
ãħľ ãħľ
íĤ¤ ìļ°ëĬĶ</w>
ëĭ¹ ëĤ´</w>
íķĺëĬĶ ê±°</w>
ê·ľëª¨ ëĭ¤</w>
ì¡°ê¸Ī ë§Į</w>
ì§Ģ ë§Ī</w>
íģ¬ ì§Ģ</w>
d un
v ince</w>
c ing</w>
requi res</w>
a a
ìłľ ìķĪìĿĦ</w>
ç¾ İ
ìĿ´ìĸ´ ê°Ģê³ł</w>
ìĿ´íĽĦ ìĿĺ</w>
ê°Ģ ëįĺ</w>
ìķĦ ì§Ģ
ë¹Ħ ì¶Ķ
uk ra
pro to
af gh
ìłĪ ì°¨
k bs
su pp
ì·¨ ë¥¼</w>
ìĿ´ë£¨ ëĬĶ</w>
b our
íķ´ íĶ¼
ìĿ¼ ë¦¬
ì²ĺ ëĬĶ</w>
âĢľ âĢĺ</w>
ìĿ´ìķ¼ ë§Ĳë¡ľ</w>
ê°Ĳëıħ ìĿĦ</w>
ìłľ ìĻ¸</w>
ìŀĪ ê²łëĭ¤</w>
ëĤĺëĪ Ķ</w>
sco tt</w>
ë´ī ìĤ¬</w>
ìķĬìķĺ ëĭ¤ê³ł</w>
íķ´ìķ¼ ì§Ģ</w>
ìĿĳ ìĿĳ</w>
indi an</w>
vie wed</w>
ac tor</w>
mi x</w>
ë¥ĺ íĺĦ
d ance</w>
ëĭ¬ ìĦ±</w>
ìĸ´ëĸ ¨
ìĿ´ ë¡Ģ
ë§Īì§Ģë§ī ìĹĲ</w>
ëĲĺ ëĤĺ</w>
æ ¯
connec tion</w>
ëıĻ ê³¼</w>
ëĵ±ê¸ī ìĿĦ</w>
ìŀĲ ê¸°ìĿĺ</w>
anim al</w>
f ra
ìŀĲëŀĳ íķĺëĬĶ</w>
ìŀĪ ëĭ¤ë©°</w>
no tice</w>
ë¯¸ ì¹ĺì§Ģ</w>
expl ain</w>
ì§ ¤
ì¡° íķľ</w>
je wish</w>
ìŀĪ ê±°ëĤĺ</w>
ìķĬ ìĿĢ
ì»¨ íħĮìĿ´
ë°©ìĨ¡ ëĲľëĭ¤</w>
plan et</w>
ìĿ¸ ìĦ¼
sugge sted</w>
sol ar</w>
ë£¨ ë¯¸
ë§Ī ìĤ°
an o</w>
ìĺĢ ìľ¼ëĤĺ</w>
cont ext</w>
ìĽĥ ìĿĮ</w>
íķŃ ëª©</w>
ìłĦë°ĺ ìłģìľ¼ë¡ľ</w>
ìĹ¬ëŁ¬ ë¶Ħ</w>
foc used</w>
ë¬´ ëĤľ
ìķĦìĭľìķĦ ëĤĺ
ìĦ± ìĤ¬
tar ge
ë¶Ģë¬¸ ìĹĲìĦľ</w>
ut ely</w>
ë°° ê³ł
p ak
meas ure</w>
mis sed</w>
ìĺĪìĤ° ìĿ´</w>
ìĿ´íķ´ íķĺê³ł</w>
ì¢ħ êµĲ</w>
ìļĶ ìĨĮê°Ģ</w>
ì¹ĺ ìĨŁ
ì´Ī ëĮĢ
Ð ¸
ìĤ¬ìĹħ ìĿ´ëĭ¤</w>
âĨ ĳ</w>
ì£¼ íĮĮ
ê³ł ë¬´
ad ap
ìĽĶ ê¸ī
ìĿĦ ì§Ģ</w>
pe ter</w>
ìŀĲ êµŃ</w>
ç µ
ë°ĶëĢ Ĳ</w>
ì°¾ìķĦ ê°Ģ</w>
sm aller</w>
ìŀĳíĴĪ ìĿĺ</w>
ìĶ ¹
ê¸ī ìĭĿ</w>
op pos
êµ° ìĪĺ</w>
ou l
íĬ¸ ëŁ¬
ìłĦ ìĪł
ìĨĶ ë¡ľ</w>
tv ë¥¼</w>
initi al</w>
ç Ĳ
ant a</w>
y n
con ver
ìŀ¬ë¯¸ ìŀĪëĬĶ</w>
f i</w>
grad u
ëľ ©</w>
b oun
ê³Ħ ìĬ¹
d l
g all
ë³ĳ ìĿĺ</w>
ë£¨ ìĻĢ</w>
ìĽĮìĭ± íĦ´
ë¹¨ ëĿ¼
con sul
ëĨĵ ëĬĶ</w>
ê³¼ ë¥¼</w>
ëĵ¤ìĸ´ ìĻĢ</w>
ìŀ¥ ëł¤
ì±Į ë¦°
j am
ì´Ī ê³ł
in spi
ìĦ¸ ë¸Ĳ
ë§ĲìĶĢ ìĿĦ</w>
ë°ľíĳľ ëĲľ</w>
ëĭĪ ìĿĺ</w>
ar m
ìĺĢ ìľ¼ë©°</w>
p al</w>
ë µ
ë©ķìĭľ ì½Ķ</w>
ìĺĢ ëĭ¤ëĬĶ</w>
íħĮ ëĭĪ</w>
ìļĶêµ¬ íķĺê³ł</w>
ì¢ħ ë¥ĺ</w>
íľ´ ê²Į
ìłĦíĨµ ìłģìĿ¸</w>
ê¸°ë°ĺ ìĿĺ</w>
ëĵ¤ ë³´ëĭ¤</w>
ë³´ ìĿ¸
ëĵ¤ìĸ´ ìĺ¤ëĬĶ</w>
ìĿ¼ìłľ íŀĪ</w>
ë¶Ģ ëģĦëŁ¬
ìłĦêµŃ ìĹĲìĦľ</w>
ìłĦë°ĺ ìłģìĿ¸</w>
vo ted</w>
ìŀĳ ìłĦ</w>
íķľ ìĸĳ
ìĸ´ìļ¸ ë¦¬ëĬĶ</w>
íĿ¥ íĸī
ry an</w>
ì¤Ħ ìĿ´ëĬĶ</w>
ëĤ´ ìłķ
s low</w>
ë¬¸íĻĶì²´ìľ¡ ê´Ģê´ĳ
ìĦł ìĪĺëĬĶ</w>
íĥĢ ìĽĮ</w>
ë§Ĳ ëĿ¼
ìŀĲ ë³¸</w>
fam ili
ë°ĺìĺģ íķ´</w>
ëĭĪ ê¹Ĳ</w>
ìŀ¬ë¯¸ ë¥¼</w>
car ol
ê±° ê¸°</w>
ìĤ°ìĹħ íĨµìĥģ
ë°ķ ìĽĲ
íĳľíĺĦ ìĿĦ</w>
ë¬¸ìłľ ìłĲìĿĦ</w>
ìĦł íĸī
ëĤ´ìļ© ìĹĲ</w>
ìĺĪ ë¹Ħ</w>
ìļ´ëıĻ ìĹĲ</w>
ìĤ¼ìĦ± ë¬¼
z i
ëª©íĳľ ëĬĶ</w>
ìĦľ íı¬
ëĭ¤ìĸĳ íķĺê²Į</w>
ultim ately</w>
ìĨ¡ íĮĮ
íĬ¸ìľĦ íĦ°</w>
ìĤ¬ê±´ ìľ¼ë¡ľ</w>
íĪ¬íĳľ ë¥¼</w>
ë§ŀì¶ ĺ</w>
activi ties</w>
ë¶ģ ëıĦ</w>
ì´Ī ìĽĶ
íķ´ êµ°</w>
ëĤĺë¬´ ë¥¼</w>
ìĿ¸ìĥĿ ìĿĺ</w>
ìĬ Ľ
ë°ķ ìĬ¤
ê²© ìĿ´</w>
ed y</w>
f are</w>
ì±ħ ìĿĺ</w>
ìŀĲìĤ° ìļ´ìļ©
ìī½ ê³ł</w>
ìĦł ë¬¼ìĿĦ</w>
ë²Ī íĺ¸ë¥¼</w>
ë¬´ìĹĩ ìĿ´</w>
ìĨ Ķ</w>
íĮĮ ìĿ¼
ëª¨ ìĪľ
íĪ ´
ìłĦ ìĽĶ
ìĿ´ ëĭĪê¹Į</w>
ê°Ħ ìłĪ
ìĬ¤íĬ¸ ë¡ľ</w>
ëĭ´ ìķĦ
êµ¬ ë§Į</w>
ëĲł ê¹Į</w>
ëĮĢ ë¶Ģ
ish ment</w>
ëŁī ìĹĲ</w>
ë°ĶìĿ´ ëĵł</w>
ìĪĺ íĺľ
ìłģ ìĿ´ìĹĪëĭ¤</w>
ê°ķ íĸī
ëĮĢ íļĮëĬĶ</w>
ëĲĺìĹĪ ì§Ģë§Į</w>
ë¯¼ì£¼ ì£¼ìĿĺ</w>
ëĲĺ ìĸ´ìĦľ</w>
ëĭ¤ ë£¬</w>
ê·ł íĺķ</w>
ìķĦ ìĦ¸
ì²Ń ì£¼</w>
ê²°íĺ¼ ìĿĦ</w>
ëį° ìĦľ</w>
ìĨĮìĥģê³µ ìĿ¸</w>
íķŃ ìĿĺ
ëģĦ ëįķ
ê³ł ëł¤</w>
ìŀĲë¦¬ ë§¤
ê²½ê¸° ìŀ¥</w>
spo ke</w>
ì¶ľ ìĥĿ
ìŀĦ ìĽĲ</w>
ìłķ ë¥ĺ
tic es</w>
íĺ¸ íķľ</w>
li ghts</w>
bro ther</w>
ê´Ģê³Ħ ìĹĨìĿ´</w>
ìĿ´ë£¨ ê³ł</w>
ëĴ¤ ìĹĲìĦľ</w>
ë³´ ìĦ¸ìļĶ</w>
ëĭĿ ìĿĦ</w>
ëĤ´ ëħĦë¶ĢíĦ°</w>
ê°ķ ê²½
cri tic
ë¶Ħ ëªħíķľ</w>
cl in
r d</w>
ë³´ ìĹĲ</w>
ìį¨ ìķ¼</w>
ìĤ´ ìĿ¸</w>
ìŀ ¼</w>
ì²´ ëł¥ìĿ´</w>
ì¦Ŀê°Ģ íķĺëĬĶ</w>
mo di
ç ¦
palest ini
supp ly</w>
ï¼ Ĥ</w>
êµŃë¯¼ìĿĺ ëĭ¹</w>
ë¹Į ëł¤
new sp
ìµľìłĢ ìŀĦê¸Ī</w>
ìĹ° ë§Ĳ
ëª¨ íĭ°ë¸Į
íħį ìĤ¬
ê²ĥ ìĿ´ê¸°</w>
ìķ½ìĨį íĸĪëĭ¤</w>
íĶĦë¡ľê·¸ëŀ¨ ìĹĲ</w>
ëıĪ ìĿĢ</w>
íķĦìļĶ íķł</w>
ê¹Ģ ê´ĳ
ë§İ ìķĦìĦľ</w>
ëħ¸ëł¥ íķĺê³ł</w>
ëª¨ ìĿĺ</w>
ê±´ ë¬¼ìĿĦ</w>
ìĹĲìĦľ ëĭ¤</w>
govern or</w>
ëĤĻ ëıĻ
her o
t ask</w>
ìŀĦ ìĭľ</w>
ê²¬ ìĿĦ</w>
t ations</w>
mean while</w>
w o
tion ing</w>
ê¹Ģ ìĹ°
fa ith</w>
ëıĦ ë¡ľë¥¼</w>
ê°ķíĻĶ íķĺëĬĶ</w>
in struc
ëĨ ¨
ë°Ķ ì§Ģ</w>
ì¡°ê±´ ìľ¼ë¡ľ</w>
íı¬ êµ¬</w>
kt ëĬĶ</w>
ê²ĥ ëĵ¤ìĿĦ</w>
ëĿ¼ìĿ´ íĶĦ
cau ght</w>
ëĪĦ ë¦´</w>
busin esses</w>
mag ic</w>
ìĹĦì²Ń ëĤĺê²Į</w>
íĬ¹ íĹĪ</w>
r is</w>
ë©´ ê³¼</w>
ãİ ŀ
ìķĦì¹´ ëį°ë¯¸</w>
h ate</w>
íĺ¸ìĿĳ ìĿĦ</w>
íĸīìłķ ìķĪìłĦ
ê±¸ ë¦¬
ëĳĺ ì§¸
ëĭ¨ì²´ ìĿĺ</w>
ìłĦëĭ¬ íĸĪëĭ¤</w>
ìĹ¬ ê¸°ëĬĶ</w>
ì¹¼ ìĿĦ</w>
ìĿ¸ ë¬¼ìĿ´</w>
ê¸° êµ¬
commer cial</w>
íĳ¸ ëĵľ</w>
íģ¬ ìĻĢ</w>
ìĬ¤íĬ¸ ëĬĶ</w>
íķŃ ë§Į
ìĺµ ëĭĪëĭ¤</w>
sk i</w>
f is
ìį¨ ìĦľ</w>
ê°ķëĤ¨ êµ¬</w>
bi a</w>
ë§¤ ìŀ¥ìĿĦ</w>
ìľ¼ ëł¤ê³ł</w>
ìĵ° ìĿ´ëĬĶ</w>
ì°° ìĿĦ</w>
ìĦł ê´Ģ
è ³
kill ing</w>
ëĤ¨íİ¸ ìĿ´</w>
ì§ķ ê³Ħ</w>
windo w</w>
ëĮĢ ì¡°
beauti ful</w>
ìĽĢì§ģ ìŀĦìĿĦ</w>
ê´ĳ ìĸĳ
æ ´
íļ¨ìľ¨ ìłģìĿ¸</w>
libr ary</w>
íı¬ ìĬ¤íĬ¸</w>
ì¤ĳ ëıĻ</w>
ëĭ¤ìĿĮ ìĿĢ</w>
ì¶¤ ìĿĦ</w>
ìłĦ ë³´ëĭ¤</w>
ë¦¬ ìĸ´
m ent
ìķĮ ìķĦìĦľ</w>
ow ners</w>
ê±´ ëĦ
go p</w>
ë¹ĦíĮĲ ìĿ´</w>
min e</w>
ì½Ķ ëĦĪ
íĭ° ëĵľ</w>
ëį° ìĬ¤
ìļ´ìĺģ íķł</w>
ë³´ ì¡°ê¸Ī</w>
ìĺĽ ëĤł</w>
fin ished</w>
b bc</w>
ì§Ģìłģ ëıĦ</w>
ë¥´ ìĿĺ</w>
ap ped</w>
ìĪ ¨</w>
ìĺģíĻĶ ìłľ</w>
ìŀĳ ìĦ±</w>
ì´Ī ì½ľ
ê°Ļ ìķĦìĦľ</w>
ëĭ´ ë°°</w>
ìŀĪìĹĪ ìĿĦ</w>
íķĺ ë¥¼</w>
ëŀĺ ìĿĺ</w>
a ìĶ¨ê°Ģ</w>
ë¹Ħìļ© ìĿĢ</w>
ë©´ íĹĪ
candi dates</w>
introduc ed</w>
ë¶Ħìķ¼ ë¥¼</w>
ì¤ĳ ìĹĲëıĦ</w>
ìĹ´ ë¦´</w>
ëª© ë¡Ŀ
íĺĪ ìķ¡
sh er
ìĨĮìŀ¬ ë¥¼</w>
x x
ìŀĦ ìĥģ</w>
ìĭ¶ ëĭ¤ëĬĶ</w>
ìĦ± ìĿ¸
ê²½ ìľł
ìĿ¼ê°ģ ìĹĲìĦľëĬĶ</w>
ìłľ ë¡ľ
ê±° ëĳĶ</w>
ë°ľ ê²¬</w>
h in
ë¯¼ ìĥĿ
tou ch</w>
ì¤ĳêµŃ ìĿĦ</w>
ë§¤ ë²Ī</w>
êµ¬ì²´ ìłģ</w>
ê¸°ìĸµ ìĿĦ</w>
ëĭĪ ë¥¼</w>
ì¶ľ ë°ľ</w>
ëĤ ©</w>
ê³µ ìŀĳ
ë§Īìĭľ ê³ł</w>
ë¬¼ ê°Ģ
ë¶Ģëª¨ ê°Ģ</w>
ë³´ìĹ¬ ì¤¬ëĭ¤</w>
ëĤ¨ ìŀĲëĬĶ</w>
ìĺ¤ ë¥¸ëĭ¤</w>
íĿ¬ ë§Ŀ</w>
fac es</w>
ê°Ģ ëĬĶ
ê°ķ ìłľ</w>
ëıħ ìłĲ
ê²ĮìĿ´ íĬ¸</w>
ìĦłíĺ¸ íķĺëĬĶ</w>
íĥĦ ìĿ´</w>
ìĭľ ìķ¼
ìĨĮ ì§Ģ
ì£¼ ìĹĲìĦľ</w>
ê°ķ ìĹĲ</w>
ìłĦ ìĹ¼
com mon
ìĭ¬ ê³¼</w>
ìĺĪ ì»¨ëĮĢ</w>
ë¬¸ìłľ ëĭ¤</w>
íļ¨ê³¼ ìłģìĿ¸</w>
allow ing</w>
ìķĦ ìķ¼
ì¤Ģ ê³µ
discus sion</w>
larg ely</w>
ê´ĳ ëªħ
afric a</w>
ìĤ¬ ìłķìĿ´</w>
ëı¼ ì§Ģ</w>
enti rely</w>
ìľł ì¶ľ</w>
may or</w>
ìĹ°ê²° íķĺëĬĶ</w>
ëıķ ê¸°</w>
ê°ľ ìĿ¸ìĿ´</w>
ì¡° êµŃ</w>
ë¯¸ ì³¤
ì¹´ëĵľ ë¡ľ</w>
amaz ing</w>
reu ters</w>
ìłķì±ħ ê³¼</w>
ëĭ¬ ê³ł</w>
ìłľíĴĪ ìĿ´ëĭ¤</w>
íķ´ìĸĳ ìĪĺìĤ°
ëģĶ ì°į
íĨł ìĿĺ</w>
ìĤ¬ìļ© íķĺë©´</w>
g on
ê±´ ìłĦ
tru ly</w>
ë¬´ìĹĩ ìĿ¸ì§Ģ</w>
scienti fic</w>
ëŁ° ëįĺ</w>
f it
ëĬ¦ ìĿĢ</w>
ë¶Ģ íļĮìŀ¥ìĿĢ</w>
ad op
ìĦľ ë¥ĺ</w>
íĥĢ ê³ł
ë³´ ëĿ¼
ìķĪìłĦ íķĺê²Į</w>
ì²ĺìĿĮ ìĹĲ</w>
ê³µê¸ī íķĺëĬĶ</w>
fun ds</w>
ìĺĪ ìĦł</w>
compl ain
íĺķ ê³¼</w>
c ells</w>
ì¡´ìŀ¬ íķĺì§Ģ</w>
j r</w>
ìĤ°ìĹħíĨµìĥģ ìŀĲìĽĲ
ìĭľ ëĤ´</w>
ë°ĳ ìĹĲ</w>
ìĸ´ ë§ģ</w>
it able</w>
dou bt</w>
ëĮĢë¶Ģë¶Ħ ìĿĢ</w>
êµ¬ ëıĻ
ë¬¼ ëŁī</w>
su me</w>
ìĪľ ìĪĺ
íķ´ ë³¼</w>
b ac
ëĿ¼ìĿ´ ëįĶ</w>
íĹĪ ëĿ½
sp read</w>
ìķĪ ëĤ´</w>
ì°¨ ìĿ´ëĬĶ</w>
íĸī íĥľ
he ar
ìľłëªħ íķĺëĭ¤</w>
ìłĲìľł ìľ¨</w>
chan nel</w>
íĮ¬ ëĵ¤ìĿ´</w>
ag ent</w>
ï ¿
ëĮĢíķĻ ìĿĦ</w>
> ,</w>
l au
r on
ìļ´ëıĻ ìĿ´</w>
ìĿ´ìłĦ ìĿĺ</w>
sel ling</w>
pres ence</w>
íĦ° íĤ¤</w>
ìĺĪ ìĪĺ
ë°Ķ íĢ´
ìĭľ ì¤ĳ
ìłĢ íĿ¬</w>
íĻķë³´ íķľ</w>
ìĽĢ ìĹĲ</w>
ìķŀ ìĦ¸ìĽĮ</w>
ë·° íĭ°</w>
ê°ķ ë¦ī</w>
ë²¨ íĬ¸</w>
ê°ģ ë³Ħ
k ing
ê±¸ ìĿĮìĿĦ</w>
ê±± ìłķ</w>
ëĸ ł</w>
æ ł
ìłĦ êµĲ
ê´Ģê³Ħ ë¡ľ</w>
cl usion</w>
ë¶Ļ ìŀ¡
ëĪĦ ìłģ
ë§Į íĻĶ</w>
ì¹Ļ ìĿĦ</w>
å ½
ê³µ ê³ł
ëĭ¤ ìĬ¤
ìĿ¼ìľ¼ íĤ¨</w>
f ly</w>
vol un
ëĨįìĤ° ë¬¼</w>
dn a</w>
s ely</w>
t am
por ts</w>
ìĹ° íľ´
ìĿ´ ë³ĳ
ë°© ìļ¸
eng ine</w>
m as</w>
ìĤ° ìĭľ</w>
ì£¼ìŀ¥ íķĺê³ł</w>
n ba</w>
ë°ľ ê°Ħ
ë²Į ìĿĦ</w>
êµĲìľ¡ ìĹĲ</w>
ìłľìŀĳ íķľ</w>
ì¶ľìĭľ íķľ</w>
ë°© ìķĪìĿ´</w>
meas ures</w>
enter tain
ìĬ¤íħĮ ìĿ´ì§Ģ</w>
ë¦¬ ìĦľ
ìķĺ ìĬµëĭĪëĭ¤</w>
re moved</w>
prof ile</w>
ëıĻ ìĭľ
ë§ŀ ìĦľ</w>
model s</w>
ê·ł íĺķìĿĦ</w>
ìĭł ìłľíĴĪ</w>
ìķĬ ëĤĺ</w>
grap hi
ë°Ķ ìĻĢ</w>
íĿ °</w>
ì¶ľ ìłĦ</w>
we i
ë¹Ħ ìłĦìĿĦ</w>
ìĽĲ ìĿ¸ìĿĢ</w>
ì²ĺ íķľ</w>
êµĲ ì°¨
ëª¸ ìľ¼ë¡ľ</w>
ë²ķ ì¡°
íĺķíĥľ ë¥¼</w>
ìĦ¼íĦ° ê°Ģ</w>
is co</w>
concer n</w>
ê³¼ ëª©
ì´Ī ë¥¼</w>
ê·Ģ íķľ</w>
ìĿĢíĸī ê³¼</w>
o ce
ë¯¸ëŀĺìĹĲ ìħĭ
tri p</w>
ë°© ê³¼</w>
afric an</w>
absol utely</w>
ìĥĿ ëªħìĿĺ</w>
íĮĲ ìĿĢ</w>
ag s</w>
ìºĺ ë¦¬íı¬
íĶ¼ ìķĦ</w>
ì£¼ ìĸ´ì§Ħ</w>
religi on</w>
ì¤ĳ ìĿ´</w>
ëĮĢíĳľ ìłģ</w>
cap tion</w>
Ñ ģ
b in
promis e</w>
ìµľê³ł ê²½ìĺģ
ìĻĦ ë£Į</w>
coun ter
ìĥ ¤</w>
ìĿĢ ìĿĢ</w>
êµ¬ë§¤ íķł</w>
ìĥĿíĥľ ê³Ħ</w>
ë°ĺìĺģ íķľ</w>
íĻķ ìŀ¥</w>
ë°ľê²¬ ëĲľ</w>
ê³¼ê±° ìĹĲ</w>
íķ´ ìĸĳ</w>
ëĭ¤ì±Ħ ë¡ľìļ´</w>
ëĶ± íŀĪ</w>
êµĲ ìĪĺìĿĺ</w>
al ty</w>
ìĪ¨ ì§Ħ</w>
ë³´ ëįĺ</w>
ìºĲë¦ŃíĦ° ê°Ģ</w>
ë°ĺ íĻĺ
ì£½ìĿĮ ìĿĺ</w>
ì°¨ ëŁīìĿ´</w>
{{ {
grap h</w>
quar ter</w>
ìĺ¤ë¦¬ ì§Ģ
sup posed</w>
ë¬¼ ëŁīìĿ´</w>
ì²ĺ ê°Ģ</w>
ëĤĺë¦Ħ ëĮĢë¡ľ</w>
ê¸° ì§Ģ
ì£½ ìĸ´
jo e</w>
ëĭ¹ ìĭľìĹĲëĬĶ</w>
mexic o</w>
ë©´ ìłľ
ê¸°ê´Ģ ìĿ¸</w>
ê²½ì°° ìĦľ</w>
ìĨĲ ìī½ê²Į</w>
ê±°ëŀĺ ìĿ¼</w>
ì£¼ ëĲľ</w>
mar kets</w>
ëĦ£ ëĬĶ</w>
ìłķ íķ´
ê·¸ë¦¬ íķĺìĹ¬</w>
ì£¼ ê°Ħ
se ts</w>
ari o</w>
ë¬´ ëłµ</w>
ìĨĶ ë¡ľ
^ ^</w>
ìłĲê²Ģ ìĿĦ</w>
manag ed</w>
pre c
êµŃ ìĿ¸</w>
ìĤ¬ëŀĮ ëĵ¤ê³¼</w>
ìĬ¤íĭ ¸
íĮĮ ìĥĿ
ëľ ¬
ê³µ ê³µ</w>
ê³³ ëıĦ</w>
ë¯¼ ì£¼</w>
ëĮĢíķľ íķŃê³µ
convers ation</w>
ì´Ī ëĮĢ</w>
íĸĪ ì§Ģ</w>
ìļ´ íķŃ
p r</w>
decis ions</w>
provi ding</w>
ëĭ´ ë°°
íĺĳ íļĮëĬĶ</w>
ìłģìļ© ëĲľëĭ¤</w>
ìłĦ ëĭ¬</w>
ãħĭãħĭãħĭãħĭãħĭãħĭãħĭãħĭ ãħĭãħĭ</w>
ìĦ¸ ìĥģìĿĺ</w>
ìłĦíĺķ ìłģìĿ¸</w>
ìĥģ ê¸Ī</w>
íĮĮ íĭ°</w>
íĺ¸ ë¥´
di a</w>
ìĿ¸ ìĩĦ
ì¤Ģë¹Ħ ê°Ģ</w>
figu res</w>
clear fix</w>
ìĿĮ ë£Į</w>
ë³´ ì¶©
ìĪĺíĸī íķĺëĬĶ</w>
heal thy</w>
ìĭľ ì¹´
è ©
e at</w>
re ment</w>
íļĮìĤ¬ ìĹĲìĦľ</w>
íĨł ê°Ģ</w>
inj ury</w>
ì±ħìŀĦ ìĿ´</w>
ìĺ Ĩ</w>
ì¦Ī ìĻĢ</w>
ìĨĮë¹Ħ ìŀĲëĵ¤ìĿĺ</w>
ìĤ¬ìĿ´ ë²Ħ</w>
ìĿ´íķ´ ë¥¼</w>
ìķĪ ëĲĺëĬĶ</w>
ex cept</w>
ê±´ ëĦ¤
ëĭ¤ ê°ģ
ìŀĲë£Į ìĹĲ</w>
ëħ¸ ëł¥</w>
ìĸ´ ì¡Įëĭ¤</w>
ìŀĦ ì§ģìĽĲ</w>
ici al</w>
ìĭľê°Ħ ëıĦ</w>
ë²Ķ ìľĦ
ëĤ´ ë°Ģ
ìĹĨ ìľ¼ëĭĪ</w>
ìĪĺ ìĤ¬ìĹĲ</w>
ma xim
ìļĶêµ¬ ìĹĲ</w>
identi fied</w>
ï¼ ģ</w>
ê°Ģ ìłĦ
ì¶ľ ê°Ħ
ì£¼ ë¨¹
íļĮ ìĹĲìĦľëĬĶ</w>
ìĸ´ëĶĶ ìĹĲ</w>
ìĿ´ ëª¨
ìĦľ ë¸Į
íı¬ ìĬ¤ì½Ķ</w>
ìĥ Ĳ
cul tural</w>
çĦ ¡
t ool</w>
con sci
íķŃê³µ ê¸°</w>
íĻľë°ľ íķľ</w>
p ag
believ es</w>
sch em
prof it</w>
ìŀ¬ íĻľ
ìľĦìĽĲ íļĮìĹĲìĦľ</w>
ìĪ į
ë¬´ ìĨĮìĨį</w>
ëķĮë¬¸ ìŀħëĭĪëĭ¤</w>
íķ´ê²° íķĺê¸°</w>
h o</w>
íĮ¨ ìĭľ
ë²Ī íĺ¸
ìŀĲ ëĦ¤
ìĨĮ ëł¨
ìłĦ ëĭ¹
íı¬íĬ¸ íı´ë¦¬
ìłľ êµŃ</w>
su c
ac ci
ê¸° ë»Ĳ
ìŀ¥ ìłĲìĿ´</w>
ëĦ£ ìĹĪëĭ¤</w>
ê¸° íļĮ</w>
angel es</w>
re form</w>
ìĹĦ ê²©
offen sive</w>
ë¬¸ìłľ ëıĦ</w>
ìŀĲìłĦ ê±°
ìĿ¸ ê°ĢìļĶ</w>
ìĮĵ ìķĦ
íĹ ¤</w>
ìŀĲ ëĵ¤ëıĦ</w>
cu ts</w>
ìķĦ ë¯¸
ëĶĶ ê°Ģ</w>
ëħĦ ìĹĲëıĦ</w>
ìĭ¤ ëł¥
ìĤ° ì±ħ
ì§Ģìłķ ëĲľ</w>
ë§Ĳ íķĺìŀĲë©´</w>
correc t</w>
ê°ľë°ľ íķ´</w>
ìłķë¶Ģ ìĹĲìĦľ</w>
ëħ ¼</w>
ëıĻ ìĦľ
ë¶Ī ê°Ģ</w>
ê±´ êµŃ
ë¥´ ë©°</w>
ê°ģ ê¸°</w>
ë¶Ħ ìĹ´
êµĲ ê°Ģ</w>
ê¸° ë¶ĢíĦ°</w>
ë°Ķ ìĹĲ</w>
ê½ ¤
ìĺģíĻĶ ê°Ģ</w>
ack no
ì½Ķ ë¥¼</w>
íļĮ ë§Ĳ</w>
íĨµ ìĿ¼</w>
ê²°ìłķ ìłģìĿ¸</w>
ster ed</w>
ë³´íĹĺ ë£Į</w>
t ells</w>
ë¹Ħ ëĶĶìĺ¤
ê²½ ëł¥
ìĦ¸ ì¢ħ</w>
ëį° ìĬ¤</w>
lo g
stan ds</w>
ëĳĲ ë²Īì§¸</w>
êµ° ìľ¼ë¡ľ</w>
ëĤĺ ê¸°</w>
ê²¬ ìłľ
íĹĮë²ķ ìŀ¬íĮĲ
ëĪĪ ë¬¼ìĿ´</w>
sco t
ong s</w>
ì¶ĺ ì²ľ</w>
íĭĢ ìĿĦ</w>
ì§Ģíķĺ ì²ł
ìĭ¤ìĭľ íĸĪëĭ¤</w>
íĪ¬ìŀĲ íķĺëĬĶ</w>
ë§Īëł¨ ëĲľ</w>
ff s</w>
ìĭ¶ ìĸ´ìļĶ</w>
di vi
th es
le gen
íĹ¬ ìĬ¤ì¼Ģ
éĩ ĳ
ìľł ê°Ģ
terr it
ë¨¹ ìĸ´</w>
ph ones</w>
ê³łë¯¼ ìĿĦ</w>
íķĻ ë¶Ģëª¨</w>
inf ra
ëĿ¼ìĿ´ ë¸Į
ë°Ģ ì§ĳ
ê³ł ë§Į</w>
íĸī ìľĦëĬĶ</w>
ì¶ľìĭł ìĿ¸</w>
cal cul
ìŀĲ ìĦ¸ë¥¼</w>
ì¡° ìĤ¬ëĬĶ</w>
ëıĪ ìľ¼ë¡ľ</w>
intere sts</w>
ìĿĢíĸī ìĹĲ</w>
ëĬ¥ëł¥ ìĿĢ</w>
fail ure</w>
ìĭłìĨį íķĺê²Į</w>
ë§¤ ì²´
êµ¬ìĦ± ëĲĲëĭ¤</w>
êµŃë¯¼ ëĵ¤ìĿ´</w>
ë²ķ ìĽĲìĿĢ</w>
ì°¨ ìĿ´</w>
íĪ¬ ê¸°
ìĹŃ ê³¼</w>
ìĿ´ ìĤ¬íļĮ</w>
íĬ¸ ëŁŃ
ê³ł ì¡°
ìļ© ìĿĺ</w>
ê³¼ ìĭľ
ìķĦë²Ħ ì§Ģë¥¼</w>
ìļ© ìĿĦ</w>
ìķĦìī¬ ìļ´</w>
ë¬´ ëĮĢìĹĲìĦľ</w>
íı¬ ìĬ¤</w>
íĨł íĬ¸
bir th</w>
ê³³ ê³³ìĹĲìĦľ</w>
ìķĦë¥´ íĹ¨
streng th</w>
ê°ķ ëł¬íķľ</w>
ëĮĢíĳľ ìĿ´ìĤ¬</w>
ìĭ¤ìłľ ë¡ľëĬĶ</w>
wh er
ë³´ ìĿ´ì§Ģë§Į</w>
ac cept</w>
ì´Īë°ĺ ìĹĲ</w>
ìĦł ìĪĺë¥¼</w>
sur roun
íıŃ íĸī
ëĤ¨ ìŀĲìĿĺ</w>
ìľł ìĥģ
ëĤ´ìļ© ìľ¼ë¡ľ</w>
ì¶Ķ ìĦ¸
sig n
ë¶ģ ë¶Ģ
ìĤ¬ìļ© ìĿ´</w>
ë°Ľìķĺ ëĭ¤ê³ł</w>
ê¸° ìĸ´
tur ing</w>
ëĭ¨ê³Ħ ìĹĲ</w>
ë²łìĿ´ ì§ķ
ìĥģ ìĦ¸</w>
ìĭłìĨį íķľ</w>
ëĨĴ ìĹ¬</w>
ìĹŃíķł ìĿ´</w>
ë¶Ģ ë¥¸</w>
tw ice</w>
re ci
ìĭł ì¶ķ
ë Ĺ
bro ken</w>
surve y</w>
am bi
ìĭ± ê¸Ģ
ëł¹ ìĿĺ</w>
ëĬĶ ëĭ¤ë©´</w>
ê³µ ìłľ
ìĥģíĴĪ ìĿĢ</w>
f ell</w>
ë§Ī ëĥ¥</w>
íĺĳ ìĹħ
ìłķì±ħ ìĿĢ</w>
ex clusi
ìķĪìłķ ìłģìľ¼ë¡ľ</w>
ëĭ¹ ìĦł</w>
sk ills</w>
íĻĶ ìłľë¥¼</w>
ë§Ĳ ìĿĺ</w>
ê°Ģ êµ¬ê°Ģ</w>
íıŃ íĥĦ</w>
ìĤ° íķĻ
ìħĢ ë¡ľ
s m</w>
íĦ°ë¯¸ ëĦĲ</w>
r out
ìĹŃ íķĻ
ê³µ ê¸°</w>
li ved</w>
ê¹Ģ ë³ĳ
ì¹ĺ ë§¤
t end</w>
ëıĦ ì§Ģ
ìĭ ¼
ìľł ê´Ģ
te en</w>
rela tions</w>
ì°į ìĸ´
l te</w>
ìĿ¼ ê³ł</w>
íķĺëĤĺ ìĹĲ</w>
ìĿĺìķ½ íĴĪ</w>
ìĿĺìĽĲ ê³¼</w>
íĥĢìĿ´ ë°į
ìĿ´ ìģĺ
ê°ģ ìŀĲìĿĺ</w>
ìľĦìĽĲ ìŀ¥ìĿĺ</w>
sk íķĺìĿ´ëĭī
su ggest</w>
â Ĥ
ìĬ¤íĬ¸ ê°Ģ</w>
and a</w>
å ł
ìĨĮ íĺķ
ìŀĦ ëĮĢ</w>
ì¶ľìĭł ìľ¼ë¡ľ</w>
alter native</w>
ìĭľìŀĳ ëĲľëĭ¤</w>
íķľ ìłķ</w>
ëķ ¡
fu el</w>
ìĥĿ ê¸´ëĭ¤</w>
ê³ł ë¦¬</w>
ë²łìĿ´ ìĬ¤</w>
ìľł ë¦¬</w>
ê¾¸ì¤Ģ íķľ</w>
ric hard</w>
ê³µ ì£¼
íĬ¹ ë¡Ģ
as ia</w>
spokes man</w>
ëĶ ´
ì£¼ ìħĶìĦľ</w>
ìłĦ ìłľ
ëĤĺ ìĿ´ìĹĲ</w>
ì¤ĳ ëĮĢíķľ</w>
ìĹ¬ ëĭ¹</w>
ì§ ±</w>
ê´Ģ íķĺìĹ¬</w>
ìľł íĺ¹
ìĿ´ ìĺ¤</w>
íĮĲ ìĹĲìĦľ</w>
ëģĿ ëĤĺë©´</w>
ìĿ¼ë°© ìłģìľ¼ë¡ľ</w>
ì§ģ ìĽĲìĿĦ</w>
s ke
ìĹĲ ê¹Įì§Ģ</w>
ìķĬ ëĭ¤ê³ł</w>
ê¸° ê°ģ
f low</w>
íļĮ ìłĦ</w>
íĥľ ìĸ´ëĤĺ
ë¬´ ê±°ìļ´</w>
ì§ĳ ê¶Į
ë¯¸ ë¡ľ</w>
crow d</w>
ìĸĺ ê¸°ê°Ģ</w>
ìļ°ë¦¬ ëıĦ</w>
íĶĦëłĪ ìŀĦ
ìĭ¬ ìĹĲìĦľ</w>
ëĤĺëĪĦ ëĬĶ</w>
íĨµ ìłľ</w>
ëª© íı¬
stand ards</w>
secon ds</w>
ìķĦë¥´íĹ¨ íĭ°
ê°ľ ë§ī</w>
íĳľ ìĭľ</w>
ë¬´ìĹĩ ë³´ëĭ¤ëıĦ</w>
ëª¨ ë¹Į
a ward</w>
ìĿ¼ìĸ´ ëĤł</w>
ëº ı
íĥĢ ìľ¨</w>
ì¡° ìĦ±ìĿĦ</w>
ê±´ìĦ¤ ìĿ´</w>
ê°ľ ìĻĢ</w>
ê¸°ëĮĢ ê°ĲìĿĦ</w>
ìĦ¼íĦ° ìĹĲ</w>
ìĤ¬ìĿ´ ëĵľ</w>
sta tis
êµŃê°Ģ ë¥¼</w>
ìłķ ìĦ±
ë¯¸ ìķ¼
ìĺ¤ ìĬ¤</w>
s sing</w>
ì¸¡ ìĹĲìĦľ</w>
ê³µ ë¶Ģ</w>
ìĹ° ëĤ´</w>
he ight</w>
am end
ìķĮ ì½Ķ
ê¸ī íŀĪ</w>
ëĶĶ ìķĦ
ëĬĲëĤ Ģ</w>
hum ans</w>
s in</w>
down load</w>
ëĤĺ ìĺ¬
ìĭł íĺ¼
ê°ĢìĬ´ ìĿĦ</w>
ë§Į ê¸°</w>
ì§ĳì¤ĳ ìłģìľ¼ë¡ľ</w>
ëĮĢëĭ¨ íķľ</w>
êµĲê³¼ ìĦľ</w>
íĺķ ìĹĲ</w>
inter pre
ë¹Į ëĶ©
ëİ ħ</w>
ìĿ´ ëĵ¬
ìłĢì§Ģ ë¥¸</w>
ç ¤
el ements</w>
ìĸ¼êµ´ ë¡ľ</w>
condi tion</w>
ìĿĺìĽĲ ëĵ¤ìĿĢ</w>
hom es</w>
ëĦĪ íĿ¬
ìĿ´ ìĪľ
ìľ ¼</w>
íķĺ ëĦ¤ìļĶ</w>
ìķĪíĥĢ ë¥¼</w>
ìĪĺ ìĦĿ</w>
íĮ¬ ëĵ¤ìĿĢ</w>
ì²´ê²° íĸĪëĭ¤</w>
ê³µìĭĿ ìłģìľ¼ë¡ľ</w>
íķĺ ì£ł</w>
íĹ Ŀ
ë°ľìĥĿ íķĺì§Ģ</w>
ìĹĪ ìľ¼ëĤĺ</w>
ë¯¼ì£¼ ëħ¸
ë³ĳ ìľ¼ë¡ľ</w>
ê²½ ê³¼</w>
ë³¸ ìĿ¸
ë§Į ìľ¼ë¡ľëĬĶ</w>
ë³´ ì¡°</w>
b ly</w>
ëĦ£ ìĸ´
ìĿĺ ìĭĿìĿ´</w>
ë°ľ ìĤ¬</w>
ìłķë³´ ëĬĶ</w>
stop ped</w>
mur der</w>
ì© ¡
d or
ë¨¹ ì§Ģ</w>
ìķ Ĺ</w>
ner ship</w>
s low
ê°Ģ ëĭ¤</w>
exper ts</w>
ãĢı (</w>
ìĿ´ë§Ī íĬ¸</w>
ìŀĲìľł ë¡ľìļ´</w>
ê´Ģ íķł</w>
ìĽĲ ëıĦ</w>
ìķ¼ ìĥĿ
ìķ± ìĿĦ</w>
ì¤Ģ ìĿ´</w>
ìľ¡ ìķĦ
ìĹĦë§Ī ëĬĶ</w>
ì¢ħ ìĹħ
ìĭ¤ ìłķìĿ´ëĭ¤</w>
íĽĦ ìĨį</w>
ìĸ´ë¥´ ìĭł
ste ph
ëĭ¤ íķł</w>
ê°¤ëŁŃìĭľ s</w>
ìĿ´ ìľ¤
ì§ĢíĤ¤ ê¸°</w>
ìłľê³µ íķ´</w>
ë¬¸íĻĶ ìŀ¬</w>
íķł ìĪĺ</w>
íķ´ ëĭ¬ëĿ¼ê³ł</w>
th ou
ëĮĢíĳľ ë¡ľ</w>
m c</w>
val u
ê¹ ¡
ì¢ħ ì¡±
e th</w>
cu sto
ê°Ģ ìłĦ</w>
ìľł ê³µ
ë¶ģíķľ ìĹĲ</w>
.. ?</w>
ì§Ģ ëĤĺê°Ģ
ìĿ¼ ìĿ¼</w>
ì¡´ìŀ¬ ë¥¼</w>
ë¬¼ ë¦¬</w>
ëĺĳ ëĺĳ
ìĦľ ëªħ
ëıĮìķĦ ê°ĢëĬĶ</w>
ìĭłë¬¸ ìĿĢ</w>
íķĺìŀĲ ê³ł</w>
ëŁ¬ ë¸Į
ìĽĲ íĶ¼
ìĬ¤ìľĦ ìĬ¤</w>
ì¹ĺë£Į ìłľ</w>
ìĤ ¶</w>
ìĹ° ë§¹
ë¦¬ê·¸ ìĹĲìĦľ</w>
or ial</w>
fre sh</w>
t ree</w>
b is
ë§Ī ê°Ĳ</w>
ì¶ľìĭľ íĸĪëĭ¤</w>
possib ly</w>
adv anced</w>
ì°© ê°ģ
commit ted</w>
ìĭľê°Ģ ì´Ŀ
ìĹ°ê³Ħ íķ´</w>
ìłĲ ìĿ¸</w>
m ìĿĺ</w>
ãģ Ĥ
ë°ĽìķĦëĵ¤ ìĹ¬
li es</w>
âĸ ¼</w>
increas ing</w>
ë§ĪìĿĮ ìĿĢ</w>
doc tor</w>
ìĿ´ ëĮĢ
ëĭĪ ìĻĢ</w>
ë¤ĺ ëĭ¤</w>
anc ing</w>
ìłľ ë²ķ</w>
íĹ¤ ëĵľ
ë¹ Ķ
êµŃ ë¹Ħ</w>
íĭ° ìħĶ
ìĪĺ ì£¼</w>
wa ve</w>
ë°Ģ íķĺê²Į</w>
ìŀĲ ë¦½
ìłĢ ì§Ī
ìĺ¬íķ´ ë¶ĢíĦ°</w>
ëĨĪ ìĿ´</w>
íĹĮ ë²ķ</w>
ìłĦ ìĦ¤</w>
ì²ł íļĮ
ë¦Ń ìĬ¤</w>
ìĿ¼ ë¶ĢëĬĶ</w>
ê³µê²© ìĿ´</w>
ìĸ´ëĶĶ ìĦľ
ìĤ°ìĹħ ìĿĢ</w>
dis h</w>
origin ally</w>
ëĮĢ ìķĪ
ìĿĺìĽĲ ëĵ¤ìĿ´</w>
íıī ì°½</w>
íķĺ ì²ľ
ìĺ¤ ëįĺ</w>
ìĦ± ìłģìĿ´</w>
ì§ĢëĤĺ ë©´</w>
ìĺ¤ë¡ľ ì§Ģ</w>
ë°ĸ ìĹĲìĦľ</w>
ì¤ĳ íĻĶ
ëĭ¬ ë¦¬ëĬĶ</w>
ì¹´ë©Ķ ëĿ¼
ê°ķíĻĶ íķ´</w>
ë³¸ë¶Ģ ìŀ¥</w>
refu ge
ìĤ¬ ê±°ë¦¬</w>
w ars</w>
ì§Ģ ìľĦë¥¼</w>
ëĵ¤ìĸ´ ìĻĶëĭ¤</w>
å £
ea stern</w>
ë²ķ ìĽĲìĹĲ</w>
se t
ìĿĮ ìĿĺ</w>
íĥĢ ìĪĺ</w>
ëĩ Į</w>
ëłĪ ë¥¼</w>
íŀĺ ëĵ¤</w>
ìĿ´ ìĶ¨ëĬĶ</w>
ë¯¸ ìħĺ</w>
h asn</w>
ê²°ìłķ ìĿ´</w>
ìķĬ ê²łëĭ¤</w>
ì¤Ģ ëĭ¤ëĬĶ</w>
ê¸¸ ëŀĺ</w>
ass ault</w>
ìºł íķĳ
ìĨĮ ë¬¸ìĿ´</w>
al u
íĶĮëłĪìĿ´ ìĸ´
ì²« ë²Īì§¸</w>
ë³´ ê°ķ
ìĭ¤ ìĭľê°Ħìľ¼ë¡ľ</w>
ol ic</w>
ìĿ¸ê°Ħ ìĿĦ</w>
ì°© ê³µ
ìĭľì¼ľ ìķ¼</w>
ëĤ´ ë¶ĢìĹĲ</w>
ë¶Ģë¬¸ ìĿĺ</w>
ë°©ë²ķ ìĿ´ëĭ¤</w>
ìī¬ ëĬĶ</w>
specific ally</w>
ìĿ´ëĿ¼ ìĿ´
ë²Ħ ëĬĶ</w>
ë®¤ ì§ģ</w>
ì§Ģë°© ìĦłê±°</w>
domes tic</w>
êµĲ ë¶Ģ
obvi ous</w>
g ers</w>
íıŃ ìľ¼ë¡ľ</w>
el ed</w>
s anc
ìĿ¸íĦ°ë·° ë¥¼</w>
cir cum
auth or
êµ¬ íķł</w>
ë§Īëł¨ íķł</w>
ìĺ® ê²¨</w>
íĳ ¼
å¤ ©
íĴĪ ìĹĲ</w>
ëıĦ ë°ķ
ì°¨ì§Ģ íķľ</w>
íķĺëĤĺ ìĶ©</w>
ë¡ľ ìĽĮ
eff ec
s ounds</w>
? !</w>
col or
ìĨĮë¹Ħ ìŀĲìĿĺ</w>
ìķĮ ìķĺëĭ¤</w>
ìļ° ë©°</w>
ë§Į ëĤ¨
i als</w>
l ying</w>
ex ist</w>
ê±¸ ë¦¬ëĬĶ</w>
ê°Ĵ ìĿĢ</w>
ì¤ĳ ìĪľ
íİ¸ ìĹĲìĦľ</w>
ìĿ´ìĤ¬ ìŀ¥</w>
ëª¨ëĳĲ ë¥¼</w>
ì¤ĳ ìĿ´ë©°</w>
e ding</w>
íĺĦ ìĥģ</w>
co ff
ìŀĶ ëľ©</w>
íĥ ¬
ì¡° ìĦ¸
ë³´ ë¡ľ</w>
ë²Ħ ê·¸</w>
ì§ĢìĽĲ íķ´</w>
ìĿĮ ë£Į
ì§ģ ìĽĲìĿĺ</w>
ê°Ģ ìŀ¥
ëħĦ ë³´ëĭ¤</w>
ëįĶ ëŁ¬</w>
fe els</w>
ë²ł ë¥¼
ìĪľ ìľĦ
Ñ Ĥ
êµ¬ ë¦¬
ë¹Ľ ëĤĺëĬĶ</w>
ëĤľ ìĿ´ëıĦ</w>
êµ° ìĤ¬</w>
ëĭ¬ ëŀĺ
ìĦłìłķ íķ´</w>
ìĭ¤ íĮ¨</w>
ì£¼ ìĤ¬
lgìłĦ ìŀĲëĬĶ</w>
ì£¼ ê±°</w>
ë°ľ ìĸ¸</w>
ëĤĺ ë¦Ħ</w>
tin y</w>
s ale</w>
amaz on</w>
ëĸł ëĤĺëĬĶ</w>
fes tiv
b es
ë¶Ļ ìĹ¬
no w
ë£ ¬
ìĭľìĦ¤ ê³¼</w>
íļĮ ê³Ħ</w>
ìĭł ìľ¼ë¡ľ</w>
ê½ ī</w>
ìĤ¬íĥľ ë¡ľ</w>
ì§Ħ ìĭ¤
ë§Į ìĽĲìĿ´</w>
ìĺĢ ìĬµëĭĪëĭ¤</w>
ë°Ķ ìģĺ
ãģ į
íļį ê¸°
ìļ© ìĦľ
ë¬¼ ë¥ĺ</w>
íĮĮ ìļ´
ì²Ń êµ¬</w>
fel low</w>
ì²Ń ìĿĦ</w>
ë°ľ ëĿ¼
oper ating</w>
ë²Į ìĿ´</w>
êµŃìłķ ìĽĲ</w>
ìĦ± ê²©</w>
le gi
rela tively</w>
íĻĶ ìłľê°Ģ</w>
u x</w>
ìĤ¬ëŀĮ ìľ¼ë¡ľ</w>
ìĬ¤íĬ¸ëłĪ ìĬ¤</w>
ìĿĺë¯¸ ìĹĲìĦľ</w>
ë¥´ ëħ¸
íĽĦ íļĮ
ol ed</w>
ra in</w>
ëĤł ì§ľ
l h</w>
ë¹Ħ êµĲ</w>
ë¶ĦìĦĿ íķ´</w>
graphi c</w>
ëª¨ ìĿĺ
ë¯¼ ìĦł</w>
ì½Ķ ìĿ¸</w>
appropri ate</w>
b ad
fil ed</w>
ìķĦ ëĤ´ê°Ģ</w>
íķĺ ëĬĺ</w>
ëª° ëŀĲëĭ¤</w>
ìĹ¬ìĦ± ìĿĢ</w>
ëį°ìĿ´ ë¹Ħ
) -</w>
ìĤ¶ ìĹĲ</w>
ìķĦë¦Ħ ëĭµ
ê³Ħ ìĹĲìĦľ</w>
ëĨį êµ¬</w>
ìĺ¬ë¦¬ ë©°</w>
ìĤ¼ ê³ł</w>
con vic
ìĦ¤ì¹ĺ íķ´</w>
bo ston</w>
ê³¼ ìŀ¥
spec tive</w>
ì¢ĭ ìķĺëĭ¤</w>
íĮ¨ íĦ´</w>
ul ts</w>
ìĿĮ ê³¼</w>
cor ru
ìĪĺ ëĭ¹</w>
ëĭ¨ ìľĦ
ur ban</w>
j a
organiz ations</w>
Ñ Ģ
ìķĪ ìĦ±
s lightly</w>
inter nal</w>
ê¸°ëĭ¤ ë¦¬ëĬĶ</w>
ìŁ Ī
ë²Ī ìĿĦ</w>
ìĹ¬ ê±´</w>
magaz ine</w>
ì¤Ģë¹Ħ íĸĪëĭ¤</w>
con clu
ìĿ´ìĸ´ ì§Ħ</w>
ê°ķíĻĶ íķł</w>
ì¤ĳ ëĮĢ
ìĺĪ ê¸Ī
ë¥´ ì§Ģ</w>
íĥĢ ìļ´
ìŀĦ ê¸°</w>
ìķĮ ëł¸ëĭ¤</w>
si des</w>
ê¸° ëĤĺ</w>
ìĺ¤íĶ¼ ìĬ¤</w>
Ð¾ Ð
regar ding</w>
ê°ľìµľ íĸĪëĭ¤</w>
ê·¸ëŁ° ì§Ģ</w>
ìŀĲ ê²©ìĿĦ</w>
íĸ¥ ìĥģ</w>
íĺķ íĥľ</w>
ìłľê¸° ëĲĲëĭ¤</w>
ìľ¼ ëł¤</w>
ìĦ¸ ìĥģìĹĲìĦľ</w>
íķ´ ìĿĺ</w>
ìĭľíĤ¤ ì§Ģ</w>
ì»¨ ëĶĶ
ì§ĳ íķ©
ìĨĮíĨµ ìĿĦ</w>
ap ply</w>
ê°ĢëĵĿ íķľ</w>
sp ar
ìĹĪ ê¸°</w>
ìĿ¸ìłķ íķĺê³ł</w>
ì§ĳ ì°©
ìłķ íĸĪëĭ¤</w>
ë§ĮëĤĺ ê²Į</w>
part ner</w>
ìĭł ëĭ¤</w>
sh ir
hus band</w>
ìĦľ ë¥ĺë¥¼</w>
ìĿĺ ë¬¸
ë³´ ìĿĺ</w>
ìĸ¸ ìĿ´</w>
expen sive</w>
ìĤ¬ìļ© ìĿĦ</w>
ì¤ĳêµŃ ìĿ¸</w>
ê±¸ ìĿĮ</w>
star ts</w>
ì§Ħ ë¡ľ
ìľ¼ë¡ľ ìĦľëĬĶ</w>
ê¸įìłķ ìłģ</w>
win ter</w>
ìķł ê°Ģ</w>
ëĪĪ ë¬¼
êµĲìľ¡ ë¶Ģ</w>
ìĤ¼ìĦ±ìłĦ ìŀĲê°Ģ</w>
t ough</w>
ë¹Ľ ìĿĺ</w>
l s
ê°Ĳ ì¶ķ
ë©Ķëª¨ ë¦¬</w>
ìĤ¬ë§Ŀ íķľ</w>
ìĤ´ íĶ¼
ìĭľ ìłĲìĹĲ</w>
ë°ĺ ìĿ´</w>
íĻĢ ëĶ©
ê°Ģ ìĤ°
ê¸° ì´Ī</w>
ê¹Į ë´Ĳ</w>
ìĿ´íķĺ ë¡ľ</w>
ê°Ĳ ìĺ¥
t n
ìĨĲ ìĭ¤</w>
gen e
ê°Ĳ ìłķ</w>
us eful</w>
fun dam
? ãĢį</w>
ex ist
ëŀŃ íģ¬</w>
p aying</w>
ëĭ¤ ë©´ìĦľ</w>
ì§ĢìĹŃ ë³Ħ</w>
rele v
êµ¬ ìĤ¬
íģ¬ ë¦¼</w>
ìĽĲìŀĲ ëł¥
ìĿ´ ê¸¸</w>
ë°ĺ ì§Ŀ
ìĿĺê²¬ ëıĦ</w>
pres sion</w>
ìłģ ìĹĲê²Į</w>
ì¶ķ ìĨĮ</w>
ìļ° ìķĦ
scri pt</w>
ê¸°ìķĦ ì°¨</w>
íĨł ë¦¬</w>
íĥģ ìĽĶíķľ</w>
ê±° ìļ¸
ìŀĪìĹĪ ìľ¼ë©°</w>
ìŀĦ ë¬´ë¥¼</w>
vo tes</w>
ëĬĲ ëĥĲëĬĶ</w>
ë°ĺë°ķ íĸĪëĭ¤</w>
ê¸°ë¡Ŀ íķ´</w>
mis s
ê³łëł¤ íķĺë©´</w>
ì¦Ĳ ê²ģê²Į</w>
ë°° ëŁ´
ëĵ¤ ë©´ìĦľ</w>
íıŃ ë°ľ</w>
ì²łìłĢ íķĺê²Į</w>
ìłķ íĨµ
var iety</w>
ìĺĪ ìłĦìĹĲ</w>
ë¶ Ĳ
ìĹĪ ìĸ´ìļĶ</w>
b en</w>
ìĹŃ ìĦ¤
ê¶Į ëł¥</w>
tax es</w>
ê½¤ ëĤĺ</w>
" [</w>
ì¶ ¤</w>
ë°°ìļ° ê³ł</w>
ë²Į ìĿ´ëĬĶ</w>
v ement</w>
tal ks</w>
ëĬĲëģ¼ ê²Į</w>
ëĩ ¨</w>
ì¶ľ ë§Īë¥¼</w>
ì¤Ģë¹Ħ íķľ</w>
ì»¤ë®¤ëĭĪ íĭ°</w>
ëĤĺíĥĢ ëĤł</w>
ì£¼ìŀ¥ íķľëĭ¤</w>
conn ected</w>
êº¼ ëĤ´
ìĪĺ ì§ģ
íİĺ ìĿ´</w>
pi re</w>
- ></w>
ë² Ļ
famili ar</w>
ë§Į ëªħìĿĦ</w>
ìłĦ ë¬´
ëįĶ ë¸Ķ</w>
ë¬¸ ìĦľ
ë¬¼ ê³ł</w>
ìĹĲ ì½Ķ
ì²´ ìłľ
ë¹¨ ê°Ħ
ìĬ¤ ìĬ¹
ì£¼ìĿĺ ìĻĢ</w>
ìĪĺëĭ¨ ìľ¼ë¡ľ</w>
c el
arri ved</w>
ìľł ëıħ</w>
ì¶ķ ìłģ
ìłľ êµŃìĿĺ</w>
íŀĪìĸ´ ë¡ľ
ìĤ¼ ì§Ħ</w>
ìłĦëĤł ë³´ëĭ¤</w>
ìĿ¼ ìĪĺë¡Ŀ</w>
ìĭ¤íĹĺ ìĿĦ</w>
ìĭľë¯¼ ìĿ´</w>
ìĪĺ ì°¨ë¡Ģ</w>
ëĭ¨ê³Ħ ëĬĶ</w>
priv acy</w>
ìķĮ ëłĪ
ë¬´ ëĿ¼</w>
f ed</w>
íŀĲ ë§ģ
ì¶Ķ íĽĦ</w>
bas ically</w>
ëĵľ ë¡ľ
ìĭ¬ ìĹĲ</w>
ëĲĲ ëĬĶëį°</w>
ìĤ¬ë¬´ ìĭ¤</w>
ì°¾ìķĦ ë³¼</w>
ìłľê¸° íķľ</w>
íĶĦ ë¦¬</w>
ëıĻ ìľ¼ë¡ľ</w>
ìĭĿ ìĤ¬
ste ve</w>
ëĭ¤ ë¬¸íĻĶ
ì°¸ ìĤ¬</w>
íķĦìļĶ ëĬĶ</w>
ì§Ģ ìłĲ</w>
ìķĬ ìĿĦ
vide os</w>
íķľë§ĪëĶĶ ë¡ľ</w>
ëıĻ ìĿ¼</w>
ìĦ± íĺķ
ed ul
ìĥģ ìĭľ</w>
ìŀ¬íĮĲ ìĹĲ</w>
ìĥģíĴĪ ìĿĺ</w>
ê°Ģê²© ìľ¼ë¡ľ</w>
wil d</w>
ì±ĶíĶ¼ ìĸ¸</w>
ìľĦíķ´ìĦľ ëĭ¤</w>
ìĦ¸ ëł¥ìĿ´</w>
íĺ¸íĿ¡ ìĿĦ</w>
tr a</w>
íķĻìĥĿ ê³¼</w>
ëĿ¼ìĿ´ íĶĦ</w>
ìĬ¹ ì§Ħ
ê°ĢìĬ´ ìĹĲ</w>
íĹĪ ë¦¬
ëĵľ ëł¤
ê°ĲìķĪ íķ´</w>
t ally</w>
ìłģ ìľ¼ë¡ľëıĦ</w>
a tically</w>
________ ________
pre pa
ì§ĢìĹŃ ê³¼</w>
ë¶Īê³¼ íĸĪëĭ¤</w>
i x</w>
ë¬¼ ì§ĪìĿĦ</w>
ëĸ¨ìĸ´ ì§Ī</w>
ìłģ ìłķ
íı¬íķ¨ ëĲĲëĭ¤</w>
íĻķë¥ł ë¡ľ</w>
ê¸°ê´Ģ ìľ¼ë¡ľ</w>
ìĿ¸ ìŀ¬ë¥¼</w>
ì¤ĳ ê¸°
bi gger</w>
ìĨĮëĵĿ ìĿ´</w>
ìĨĲê°Ģ ëĿ½
de plo
ëĵ¤ìĸ´ ìĦľëĬĶ</w>
ë¶Ħ ëĭ´
ìķĦ ìī½
ì°¸ ëª¨
ìĺ¤ ë©´ìĦľ</w>
ë³¸ ìĦł</w>
emer gency</w>
ë¨¸ë¦¬ ì¹´
êµ¬ì¡° ê°Ģ</w>
íĳ¸ ëĵľ
ìĤ° ìľ¼ë¡ľ</w>
ìĹ° ì¶ľ</w>
m att
ì¹¨ ì²´
ìķķ ì¶ķ
nei ther</w>
ìķī ìĿĢ</w>
t x</w>
ì¡°ìĸ¸ íĸĪëĭ¤</w>
ë¯¸êµŃ ìĿĦ</w>
ë¦° ìĿĢ</w>
ì¸¡ ê·¼
ë°ľìĥĿ íķľëĭ¤</w>
id es</w>
ìĸ´ê¹¨ ë¥¼</w>
ëĭ¤ íģĲ
ha ir</w>
íĨł ë¦¬
p ack</w>
ê³ł ì§Ģ
ìļ´ íĸī</w>
ë§¥ ëĿ½
defen sive</w>
ê¹Ģ ìĿ¼
her o</w>
ë¹Ħ íĮĲ</w>
ì°¸ìĹ¬ íķĺê³ł</w>
o ta</w>
ê¸° ìĨĮ</w>
as tic</w>
ê¶Į ëıĦ</w>
íĽĪ ìĿĢ</w>
ìĹĲê²Į ë§Į</w>
ëĤ¨ ë¶Ģ</w>
ëĭ¤ìĭľ íĶ¼</w>
sch edul
ìķī ìķĺëĭ¤</w>
syri an</w>
ìļ° ìĬ¤
un its</w>
ì¶© ìłĦ</w>
hol ds</w>
ê²°ê³¼ ë¡ľ</w>
ìĤ¬ ìĦľ</w>
ìľł íĺķ</w>
íİ¼ì³Ĳ ì§Ħëĭ¤</w>
as ing</w>
ìĺĪ ìģľ</w>
ëĤ¯ ìĦł</w>
ìľł ìĺĪ</w>
ê¹Ģ ìĪĺ
j ac
íĨł ë¡ł</w>
ìĿ´ ìĽĲ
im possible</w>
ì§Ģ ìĭĿ</w>
ë¶Ī ìĮį
ìĤ¬ìĿ´ ë¡ľ</w>
ìĺ¤ ìĬ¤íĬ¸
ìĿ¼ ìĥģ</w>
ì²Ń ì¶ĺ
po sts</w>
ìŀĪ ê²łì§Ģë§Į</w>
lo sing</w>
ìłģ ëĮĢ
no on</w>
ìĿ¼ íķĺê³ł</w>
ëª¨ìĬµ ìĹĲ</w>
ëĮĢ ìĽĲ
cap acity</w>
ìĿ´ ê¸°ëĬĶ</w>
ë¶Ģëª¨ ìĿĺ</w>
ì§ĢìĽĲ ê³¼</w>
ê°ľìĿ¸ ìłģìĿ¸</w>
ìķĮ ìķĦ</w>
ë°ľíĳľ íķł</w>
ì§Ħ ìĺģ</w>
ê°ľìĦł ìĹĲ</w>
att le</w>
íļĮ ìĤ¬ë¡ľ</w>
ìĿ´ ëį°
ìĬ¤ëŁ½ ê³ł</w>
ë°Ķë¥´ ìħĢë¡ľ
ìłĦ ëĿ½
ëħ¸ ìĦłìĿĦ</w>
ë¬¼ ê°Ģ</w>
íģ¬ ë¦¼
ëł¹ ìĿĢ</w>
ìłĦì²´ ìłģìĿ¸</w>
ìĦ¸ê³Ħ ê°Ģ</w>
íıī ìĸĳ
r i</w>
ìłĦ íķĺëĬĶ</w>
hel ping</w>
íĻķë³´ íķł</w>
ëĵł ëĵł
ê·¼ì²ĺ ìĹĲ</w>
ì§Ħ ìĺģ
êµ¬ì¶ķ ìĿĦ</w>
ìĸ¼ ë¥¸</w>
êµŃê°Ģ ëĮĢíĳľ</w>
ìļĶ ìĿ¸ìĿ´</w>
ìŀħ ëĭĪê¹Į</w>
íĻķìĤ° ìĿĦ</w>
ìķĦíĮĮ íĬ¸ë¥¼</w>
ìĪĺ ìĪĺ</w>
âĢ¦ "</w>
con sol
ãħ ¡</w>
l ake</w>
êµ¬ ìĦĿ
sim ul
develop ers</w>
ìľł ëĤĺìĿ´
ìĬ¹ ë¬´
ser ving</w>
ìĹ¬ ë¶ĢëĬĶ</w>
r are</w>
ìŀĲ ìĤ¬</w>
ìĿ´ ëĭĪ
ìĹĪ ìĸ´</w>
ê±° ì£¼</w>
ì°¨ ë¶Ħ
fac tor</w>
st y</w>
ì´Ŀ íļĮ</w>
t wee
ì²Ń ìķ½</w>
ìĥģ ìĦ¸
fi xed</w>
fac ed</w>
r ying</w>
v ali
ìłĪ ì°¨ìĹĲ</w>
ëħ¸íķĺìļ° ë¥¼</w>
ë²¤ ì²ĺ</w>
ê¸°ìĨĮ ëĲľ</w>
ìĹ´ ì°¨</w>
ìĸ´ ìĥī
ê²ª ìĿĢ</w>
ìłķ ëĭ¹íķľ</w>
ìĤ¬ì§Ħ ìĿ´</w>
ìĤ¬ ì¿ł
ëĤĻ ì°°
soldi ers</w>
y ards</w>
ëĵľ ë¦´</w>
íķĻêµĲ ìĻĢ</w>
s d
ëĭ¨ ìŀ¥</w>
ìŀ¬ ì°¨</w>
ìŀĳíĴĪ ìĿ´ëĭ¤</w>
tor onto</w>
sen ator</w>
ìĤ ¿
ê¸°ëĮĢ íķł</w>
ë¯¼ì£¼ ëĭ¹ìĿĺ</w>
ê°ĢëĤľ íķľ</w>
ë¶Ħ ê³¼</w>
ìĦłìĪĺ ëĵ¤ìĿĢ</w>
ê°Ģ ëģĶ
ìĪĺìĥģ íķľ</w>
ìķŀ ìĦľ
ë°© ì§Ģë¥¼</w>
ìĤ° ìĹĲìĦľ</w>
ë§ĪìĿĦ ìĿĦ</w>
ìĨĮ íĻĢ
ìĺ¨ ìĭ¤
n it
an ci
ëıĻ ìķĪ
ìĶ¨ ëıĦ</w>
see king</w>
ëĴ¤ ìĹĲëĬĶ</w>
ëĿ¼ ëĶĶìĺ¤
íķł ìĪĺë¡Ŀ</w>
ë¬´ ìĿ¸
íĺĦ ìŀ¥ìĿĺ</w>
ìĨĮë¦¬ ë¡ľ</w>
ì§ĳ ìĿĺ</w>
ìĹ¬ë¡ł ì¡°ìĤ¬</w>
íģ´ë¦¬ ìĸ´</w>
íĻķìĿ¸ íķĺëĬĶ</w>
mo on</w>
ìĽĢì§ģ ìŀĦìĿ´</w>
ëĤĺëĪĦ ìĸ´</w>
ëĶĶ ìķĦ</w>
ìĹ°íķ© íļĮ</w>
ê° ĵ</w>
íĮĮ ìĹħ</w>
posi tions</w>
ëĪĦêµ° ê°Ģ</w>
elec tions</w>
ìĿ´ìĬ¤ëĿ¼ ìĹĺ</w>
ìĦł ëıĦ</w>
ë£¨ ìĿĺ</w>
ê°ķ ìĹ°
ë§ĮëĤĺ ê³ł</w>
ìĤ´ ë¦¬
inde x</w>
ìĽĲ ê²©
appear ance</w>
ì¡°ìĦł ìĿĺ</w>
ìłĦìļ© ë©´ìłģ</w>
ìĭľíĤ¤ ë©°</w>
ìŀĶ ìĿĦ</w>
par is</w>
ë°ľíĳľ ë¥¼</w>
ë²Įìĸ´ ì§ĢëĬĶ</w>
docum ent</w>
ëĤĺ ì¹´
ar ab
ìĦ¸ ìĥģìĿ´</w>
ì£¼ ëĭ¹</w>
íĹ¤ ìĿ´
ìĺ¤ ê¸°</w>
ëĶĶ ë¥¼</w>
ìĿ´ ìĻ¸ìĿĺ</w>
ë°Ŀíĺ Ģ</w>
ëĶ¸ ìĿ´</w>
ë¯¼ ê°Ĳ
ëĭ¹ìĭł ìĿĦ</w>
shi ft</w>
ìķĦìĿ´ ìĬ¤íģ¬
ìķŀ ìľ¼ë¡ľëĬĶ</w>
vo ting</w>
ìłĦ ìķ¡</w>
chair man</w>
ê³¼ ìŀ¥</w>
int ended</w>
fi red</w>
ìĨĮ ê·¹
ë§ĮìĽĲ ìĿ´ëĭ¤</w>
ìĹ ĩ</w>
ìŀĲìĹ° ìĿĺ</w>
ìĭ¤ì§Ī ìłģìľ¼ë¡ľ</w>
accoun ts</w>
ì¡° ì°¨ëıĦ</w>
ë°Ķ ë¥¼</w>
ìŀĲ ê°Ģ
ìķĦ ëłĪ
ìĿ¸ìłķ íķĺëĬĶ</w>
gr and
ìĭľìĬ¤íħľ ìĿĢ</w>
tour nam
ìľ¡ êµ°</w>
ìŀĲìĿ´ ìĸ¸
responsib ility</w>
ìŀ¬íĮĲ ìĿĦ</w>
íģ ¼
ìľł ëĬĶ</w>
ëĸ¨ìĸ´ ì§Ģ
å ĩ
ìĥĿê°ģ íķ©ëĭĪëĭ¤</w>
ìĭł ëıĦ
íİ¸ ìĦ±</w>
ë¯¸ ìĻĢ</w>
íļĮ ìŀ¥ê³¼</w>
ë¶Ģ íļĮìŀ¥</w>
ìłĦíĻĺ ìĿĦ</w>
sha pe</w>
å Ł
ìķ¼ ìĻ¸
lor d</w>
ê°Ģ ìĿ¸</w>
ê±° ëĮĢ</w>
ë²Ī ìĿ´</w>
ìĭľíĤ ¨
ëļľëł· íķľ</w>
ì°¸ê°Ģ íķľ</w>
ìķ½ ê°ĦìĿĺ</w>
ë°Ķ ì§Ģ
l es
ë°ĿíŀĪ ê³ł</w>
ëįĶ ëŁ¬
ì¢Į ìłĪ
ì£Ħ ë¡ľ</w>
ë¸Ķ ë¡Ŀ</w>
wea ther</w>
ìĳ ¥
ê°ľìłķ ìķĪ</w>
íľ© ìĭ¸
sa tis
applic ations</w>
ge tty</w>
å Ĥ
no tic
ë©Ķ ëĭ¬</w>
ìĦ¤ë¦½ ëĲľ</w>
ìŀĪìĸ´ ìĦľëĬĶ</w>
e ag
ë²Įìĸ´ ì¡Įëĭ¤</w>
ëĸł ëĤ¬ëĭ¤</w>
ì§Ħ ì£¼
ëĭ¬ ê°Ħ</w>
ëĺĲ ëĭ¤ë¥¸</w>
ig n
ìĦ± ìĭ¤
ìļ© ìĿĢ</w>
ì·¨ íĸ¥
íķľêµŃ ìĸ´</w>
ìĿ´ìĤ¬ ìŀ¥ìĿĢ</w>
ì£¼ë¬¸ íĸĪëĭ¤</w>
ëĤ´ ëħĦëıĦ</w>
el d</w>
ê²Ģ ìĥī</w>
ë°ľìĥĿ íķĺê³ł</w>
studi o</w>
ëįĶ ìĬ¤</w>
ìļĶì²Ń ìĿĦ</w>
ëĨĴìķĦ ì¡Įëĭ¤</w>
revol ution</w>
ì¥ Ĳ</w>
ìļ° ê¸°</w>
ìļĶ ìķ½
êµ¬ ì§ģ
ëĶ¸ ìĿĦ</w>
íķĺ ê³¤</w>
dr in
co ast</w>
ë· Ķ
ëıĮìķĦ ìĻĢ</w>
ìķĦëģ¼ ì§Ģ</w>
sk in</w>
ch i
estim ated</w>
ëı Ĺ
sit ting</w>
ê¹Ģ ì¹ĺ
fac ts</w>
ë¯¸ìĪł ê´Ģ</w>
âĨ Ĳ</w>
ìłķëıĦ ë©´</w>
ì¶Ķì§Ħ ìĿĦ</w>
ë¬¼ ëł¤
ê´ĳì£¼ ìĭľ</w>
ìĥĿê°ģ ëıĦ</w>
ìłĪ ì°¨ê°Ģ</w>
car bon</w>
ìłľê¸° íĸĪëĭ¤</w>
pol l</w>
ë¶Ģ ìľł
ê°Ĳ ìĿĺ</w>
íļ¨ìľ¨ ìłģìľ¼ë¡ľ</w>
ìĹħë¬´ ìĹĲ</w>
ì²´ê³Ħ ìłģìĿ¸</w>
ìķĮìķĦ ìķ¼</w>
êµ¬ íķĺëĬĶ</w>
or ders</w>
oec d</w>
ê°ľìµľ íķľëĭ¤</w>
êµ ¶
f illed</w>
ìĨĲ íķ´ë¥¼</w>
f ill</w>
ìłľ ëª©</w>
ìĦ¸ ë¥´
íĭ° ë¥¼</w>
ê³Ħ ìĻĢ</w>
ìĹ¼ ëł¤
ga ther
ìµľê³ł ìľĦìĽĲ
ìĦľ êµ¬
ì° ľ
ìĿ´ìĿµ ìĿ´</w>
fi fa</w>
ìĺģìĥģ ìĿĢ</w>
ê°ľ ìĦ±ê³µ
ìĻł ì§Ģ</w>
ol i
ìŀĳ ìĿĢ
ëķĮ ëł¤
ëĳĲ ë¡ľ</w>
ê¸° ìĦ±
ìī ¼
s it</w>
ê°Ģ ì§ľ</w>
íĸĪ ìľ¼ëĭĪ</w>
ìĿ¼ìĸ´ ëĤ¬ëĭ¤</w>
ìĽĢ ìĿĢ</w>
el im
elec ted</w>
ì´¬ìĺģ ìĿĦ</w>
ë§ĳ ìĿĢ</w>
ê´Ģê³Ħ ìĿĺ</w>
ê²Ģ ì¦Ŀ</w>
ç ľ
ê¸° ìĤ¬ê°Ģ</w>
ìĹ¬ ìŀĲìĿĺ</w>
ìłĢ ë¦¬</w>
th row</w>
ê²¬ ìĿ¸
sec ure</w>
ë¬´ ëį¤
ìĭ¶ ëĭ¤ë©´</w>
íĪ¬ ìŀĲëĬĶ</w>
ìĿ´ìĹĪ ìľ¼ë©°</w>
curren cy</w>
ìĬ¤ ì¼ĢìĿ´
âī ª</w>
ìĺ¤ ë¦¬</w>
íĻĶ ìĦ±</w>
ì°¨ ë¦¼
ì¿ł ë¥´
ëŀĢ ìĿ´</w>
ìłĦ ìĤ°
ë°¤ ìĿĦ</w>
ì½Ķ ìĸ´</w>
ìĤ°ìĹħ ìĹĲ</w>
âĶģ âĶģ
Â ²</w>
ëľ» íķĺëĬĶ</w>
ang er</w>
quar ter
ìĿ´ìļ© ìŀĲ</w>
ë£ ¬ëĭ¤</w>
ìĥģíĴĪ ê¶Į</w>
íĻĺ ìŀĲë¥¼</w>
ìĤ¬ëĿ¼ ì¡Įëĭ¤</w>
ìķ¡ ìĦ¸
ì»¨ ìĨĮìĭľ
ìķĦ ê¹Į
ëª¨ëį¸ ìĿ´</w>
ì£¼ ìĿ¸ìĿ´</w>
ìļ°ë¦¬ ëĤĺëĿ¼ëĬĶ</w>
ìŀĪ ê¸°ìĹĲ</w>
happ ening</w>
ìĨĮë¹Ħ ìŀĲê°Ģ</w>
ìŀĲ ê²©</w>
ê¸°ëħĲ íķ´</w>
ê°Ģ ëıĻ</w>
te en
ëªħ íĴĪ
ë°ľ íĸī</w>
ëĶ° ë¥´ëĬĶ</w>
ìłģìļ© íķł</w>
ëķĮ ìĻĢ</w>
ìĿ´ ë£¬</w>
íĸīë³µ ìĿĦ</w>
ìĹĲ ìĿĺ</w>
ëıĦ ëĳĳ
ëĭ¹ ëĩ¨
ìŀħ ìĤ¬
âĹĭ âĹĭ</w>
ìļķ ë§Ŀ
ëĮĢ ìłĳ
ìĨĮíĶĦ íĬ¸</w>
ëªħ ìĶ©</w>
ìĥ ·</w>
ìľł ìĦ±
ëĤ© ì¹ĺ
p y</w>
ìłķ íķł</w>
ê¿ °
ë°ķ ìĤ¬ëĬĶ</w>
ìĿ´ ì²ľ
ì£¼ ìŀ¥</w>
develop ing</w>
Ã ¡
ìĺ¤ì¼Ģ ìĬ¤íĬ¸
ëĵ¤ ê»ĺ</w>
íĬ¸ ëĿ¼</w>
ë¶Ħìķ¼ ëĬĶ</w>
ìĿ¸ë¬¼ ìĿ´ëĭ¤</w>
ìĿ´ ëŁ´</w>
ìĿĺë¯¸ íķĺëĬĶ</w>
ìķĶ ìĤ´
sugge sts</w>
per cent
s c</w>
k in</w>
fac ing</w>
íĭ° ê°Ģ</w>
íĶĮëĿ¼ ìĬ¤íĭ±</w>
ëļ« ê³ł</w>
íĳľ ì¤Ģ</w>
k bo
dec ide</w>
ì¡Į ê¸°</w>
ëıĦ ëıĦ</w>
ìĸ¸ìłł ê°Ģ</w>
íĶĦëłĪ ìŀĦ</w>
ë¶Īíİ¸ íķľ</w>
ëĨį ê°Ģ</w>
car ried</w>
increas ingly</w>
ì¡ ¸</w>
ìĿ´ë²Ī ìĹĲëıĦ</w>
ìĺģ ëıĻ
íıī ìĿ´</w>
ë¨¹ ìĹĪëĭ¤</w>
íķĺê¸° ìĹĲëĬĶ</w>
íķ¨ ìľ¼ë¡ľ</w>
ìĨĮíĶĦíĬ¸ ìĽ¨ìĸ´
ìķĦì§ģ ìĿĢ</w>
ìĬĪ íĥĢ
ë¦¬ ëĵ¬
âĢ ¤</w>
ì¹´ ëĿ¼
ìľłì§Ģ íĸĪëĭ¤</w>
ough ly</w>
um s</w>
ãĤ ¹
g ation</w>
ìĥĿíĻľ ìĿĺ</w>
ì´Ľ ë¶Ī
ëĮĢ ì¶©</w>
ë¡ľ ìĹĲê²Į</w>
ì¶Ķ ìĤ°
ìłģìļ© íķľ</w>
ë©Ķ ìĿ¸
clo ser</w>
íĪ¬ìŀĲ ìĹĲ</w>
íĬ¹ì§ķ ìĿĦ</w>
ê´Ģ íĸī
ëĶĶ ë°ĶìĿ´
ì¡°ê±´ ìĿ´</w>
ê³¡ ìĿĺ</w>
ì£½ ìĿ´
ê°ķì¡° íķľ</w>
íĨµ ì¹ĺ
ìĿ´ ìĻ¸ìĹĲ</w>
om e
ìĤ¬ìĹħ ìŀ¥</w>
íĻķë³´ íķĺê³ł</w>
ìĤ´ ë¦¬ê¸°</w>
ì§Ģ ìłģ</w>
ì£¼ ìĨĮ</w>
íĬ¸ ë¦¬</w>
ë² ¤</w>
ëĭ´ íķľ</w>
s wi
lim it</w>
íķľ ëĳĲ</w>
ë¶Īíİ¸ ìĿĦ</w>
s ons</w>
ë§ī ìĥģ</w>
ì¢ħ ìľ¼ë¡ľ</w>
ge l</w>
ë¹Į ëĶ©</w>
ì¶ľ ëł¥
ìĿ¸ ëªħ
rec ru
ë§Į ëıĦ</w>
ëĭ¬ëŁ¬ ìĿĺ</w>
charac ter
ë¶Ģ ìĥģìľ¼ë¡ľ</w>
ê³ł ìĤ¬
ëĦĺ ê¸°
ow ned</w>
ìŀĲë¦¬ë§¤ ê¹Ģ
ìļ© ìĹŃ</w>
ìĪł ìĿ´</w>
p ical</w>
ë°© ìķĪìĹĲ</w>
ãħĭãħĭãħĭãħĭ ãħĭãħĭ
as ks</w>
ê¸° ë³´ëĭ¤</w>
democr acy</w>
ë¯¸ ìĪł</w>
ri de</w>
dr am
ëĥĪ ê³ł</w>
u d</w>
( ?)</w>
ìłĦ ìĿ¼</w>
íĻĺê²½ ìĹĲìĦľ</w>
ëĵľëŁ¬ ëĤľ</w>
ìĿĺìķ½ íĴĪ
ìĺ¤ ë¸Į
ë¯¸ ëĦ¤
al co
ë§Ľ ìŀĪëĬĶ</w>
ìĿ¼ ì°¨</w>
l l
ìħĺ ê³¼</w>
ë¯¹ ìĬ¤</w>
j or
ë¯¼ ì¤ĳ
ìĿ¼ ìĿ¼ìĿ´</w>
ëģĿ ëĤĺëĬĶ</w>
ìĬ¤íĬ¸ ìĿĺ</w>
ìłķë³´ ìĿĺ</w>
ici de</w>
ëĲĺ ê²ł
sol ve</w>
ëĿ¼ ëĶĶ
ìłĦêµŃ ìłģìľ¼ë¡ľ</w>
íĨµíĻĶ ìĹĲìĦľ</w>
ìĨĮ ìŀ¥
âĺħ âĺħ
franc isco</w>
ë³Ģ ìĿ´</w>
ë°ĺ ìĤ¬
ì¶ľìĹ° íķľ</w>
ëĵ±ë¡Ŀ ìĿĦ</w>
ìłĦ ìĿ¼
ëĦĪ ëıĦ</w>
ìķĦ ëŀį
ìŀĲ íļĮìĤ¬</w>
ê¸° ìĸµ</w>
sec tor</w>
ìķĦìĿ´ ëĵ¤ìĹĲê²Į</w>
plan e</w>
íĮ¨ ìĬ¤</w>
ìĨĮ ìĭĿ</w>
ì°¨ëŁī ìĿĺ</w>
ë¨¹ ê¸°</w>
íĪ¬ ëªħíķľ</w>
ëª¨ìĸĳ ìĿĺ</w>
ìĿ´ ê³³</w>
ìĥģíĴĪ ìľ¼ë¡ľ</w>
j an</w>
ìŀĦ ë¬´
ìĥĪ ë§ĪìĿĦ
ì«ĵ ìķĦ
íĻĺ ìĬ¹
ìłľ ëıĦëĬĶ</w>
ìĿĢ ìĿ´</w>
acad em
íĬ¹ ìłķíķľ</w>
íİ¸ìķĪ íķľ</w>
ì£¼ ë¨¸ëĭĪ
ë§ĪìĿ´ íģ´</w>
m ers</w>
d ary</w>
re move</w>
ë°° ìļ´</w>
ë°ķ ìĺģ
ì§ĢìĽĲ ìĦ¼íĦ°</w>
ë©Ģ ë¦¬
ëıĦì°© íķľ</w>
ìĪĺ ëĭ¨</w>
ìĥĿ ìĿ¼</w>
gott en</w>
ê¼¬ ì§ĳ
ì§Ģ ì£¼</w>
ë¶Ģ ì¶Ķ
íĮ¨ëŁ¬ ëĭ¤
ìłķ íķ´ì§Ħ</w>
ìĤ¬ë¡Ģ ëĬĶ</w>
êµĲ íļĮìĿĺ</w>
ìĿ´ëħ¸ ë²łìĿ´
ê¸Īìķ¡ ìĿ´</w>
ê¹¨ëģĹ íķľ</w>
ho tel</w>
íķĺ ì§Ħ</w>
ê°Ģ êµ¬ë¥¼</w>
ë°Ķ ìģľ</w>
piec es</w>
ì¤ĳ ìŀ¬
ìĭł íķĻ
ì±ħ ìĹĲ</w>
conduc t</w>
arch it
íİ¸ ì§ĳ</w>
cl oud</w>
íı¬íķ¨ ëı¼</w>
ìłģ ãĨį
ro se</w>
ëĭ¨ì²´ ëĬĶ</w>
ìĨĮ ìĭĿìĹĲ</w>
ìķķëıĦ ìłģìĿ¸</w>
mb c
ë³ĳ ìĿĢ</w>
íĦ° ìĻĢ</w>
ê°ķ ì¢Į
ëĭ¬ìĦ± íĸĪëĭ¤</w>
ìłķ ê¶Į
k ur
ìĿ¼ìľ¼ íĤ¤ëĬĶ</w>
íķ´ ëªħíĸĪëĭ¤</w>
ìĭ¬ ëıĦ</w>
ìĹ ¥</w>
ì²Ń ìŀ¥ìĿĢ</w>
ìĿ´ìĸ´ ìł¸</w>
ê¸°ìĺ¨ ìĿ´</w>
ìŀĲ ëĵ¤ìĹĲ</w>
ë²ķ ìĽĲ
ìĭľ ì¯¤</w>
íľ´ ìĸĳ
ìĹ´ ìĹĲ</w>
ë³Ģ íķĺëĬĶ</w>
pre ven
íĶ¼ ë¶Ģë¥¼</w>
ë²Į ê¸Ī</w>
íĬ¼ íĬ¼
ë°ĺ ìĿĳ</w>
ëł¸ ëĭ¤ê³ł</w>
ìĶ ¬
ìĿ´ë£¨ìĸ´ ì§ĢëĬĶ</w>
br inging</w>
ë°Ģ ëł¤</w>
fr ame</w>
ëıĦìŀħ ìĿĦ</w>
êµ¬ ìĦ±ìĿĦ</w>
ìĬ¤ìĬ¤ ë¡ľë¥¼</w>
ì¤Ģ ìĿĺ</w>
ìĺ¤ íĤ¤
ìĿ¼ ìĹĲëıĦ</w>
ëĤł ë¶ĢíĦ°</w>
stor m</w>
ë³µ ê·Ģ</w>
ëĵ± ìĤ°
ëĭĺ ê»ĺ</w>
ìĽĥ ìľ¼ë©°</w>
edi tion</w>
p o</w>
ìļ© ìĿĺ
ê°Ģ ì¹ĺëĬĶ</w>
ëıĻ íĻĶ
ë°° ìļ¸</w>
ê¸°ëĮĢ ê°Ģ</w>
ëł¸ ëĭ¤ëĬĶ</w>
ìµľ ìłģìĿĺ</w>
ìĻĶ ìĬµëĭĪëĭ¤</w>
ê³ł ì§ĳ
d j
ëĵľ ë¡ł</w>
every body</w>
ì§ĢëĤľíķ´ ë³´ëĭ¤</w>
ìķĦ êµ°</w>
possib ility</w>
ì¢ĭ ê²ł
ëģ¼ ê³ł</w>
ë¦¬ ëįĶ</w>
ê³µê²© ìĹĲ</w>
ìĸ´ëĸ»ê²Į ëĵł</w>
ìĿ´ìĥģ ìĿĢ</w>
ìŀĲìĭł ëĵ¤ìĿ´</w>
ìĹī ëį©
, ,
ì»¤ ì¡Įëĭ¤</w>
su v</w>
ìĽĲ ì¹Ļ</w>
ëĤ´ ìĪĺ
( "</w>
ìĪĺìĥģ íĸĪëĭ¤</w>
u t</w>
ìķĦë¥´ ë°ĶìĿ´
ë§Į ëĮĢ</w>
ìĤ¬ëŀĳ ìĿ´</w>
ëĦ¤ëįľ ëŀĢëĵľ</w>
ê·¼ê±° ê°Ģ</w>
ê³Ħìķ½ ìĿ´</w>
ìĤ¬ ìĽĲ</w>
ì¦Ŀê°Ģ íķł</w>
ìĤ¬ ìĹĲê²Į</w>
ìĺ¤ ëłĮ
re sc
ì§Ħíĸī íķ´</w>
vic tim</w>
êµ° ìĪĺëĬĶ</w>
dro pped</w>
ìĿ´ë¦Ħ ìĿĺ</w>
ìľĦì¹ĺ íķ´</w>
íĥĢ ìłĲ</w>
cre ative</w>
ìĭł íĺ¸</w>
ìŀ¥ê¸° ìłģìľ¼ë¡ľ</w>
ë¹Ħ íĬ¸</w>
ê² Ķ
d ency</w>
ìĭ¸ ìļ°ëĬĶ</w>
ìĤ´ ëł¤</w>
ìĤ¬íļĮ ìĻĢ</w>
ìŀ¬ ê°ľë°ľ</w>
b its</w>
, [</w>
ê±¸ ê¹Į</w>
form ing</w>
ou ts</w>
ê²½ìłľ ìĦ±ìŀ¥
ìĸ» ê¸°</w>
íķ© ìŀĳ
sch ol
ëľ» ìĿ´</w>
sur prise</w>
en s
ê²° ìĿĢ</w>
sho ts</w>
ëľ» ìľ¼ë¡ľ</w>
ë¹ĦìĬ· íķĺëĭ¤</w>
bo x
íĭĢ ìĸ´
íĹĪ ìľĦ</w>
ìŀĲ ëĿ¼ê³ł</w>
an ch
ëªħ ëł¹</w>
ìļ° íĺ¸
íı¬ë¥´ íĪ¬
íĻĺ ìĥģ
im f</w>
íĶ¼ ëĭĪ
ë¹Ħ ìľł
ì¤Ħ ìĿ´ê¸°</w>
ë§¤ ì§Ħ
ëĬĶ ê±¸</w>
ìĺģìĹħ ìĿĦ</w>
íĳ ¹</w>
ë°° ìĭł
íĶĦë¡ľê·¸ëŀ¨ ìľ¼ë¡ľ</w>
íĻķìĭ¤ íķĺê²Į</w>
ìķĦëĤĺ ìļ´
ëĵľ ë¦¬ê³ł</w>
ê¸°ëĭ¤ ëł¤
ëį°ë¯¸ ì§Ģë¥¼</w>
ãĦ ±</w>
great est</w>
ê°Ģ ì§Ģê°Ģ</w>
íı¬ ëıĦ
p ages</w>
ê¸° íķľ</w>
ê°ķì¡° íķĺëĬĶ</w>
ìĹŃ ìĦ¸
ê±¸ ëł¸ëĭ¤</w>
b p</w>
ìĦ¤ ë¹Ħ
ì£½ ëĬĶ</w>
ìĤ¬ëŀĳ ìĹĲ</w>
ìĪĺ ëł¹
ìĭłìĦł íķľ</w>
ìŀ¬ ëĤľ</w>
ìĩ¼íķĳ ëª°
po wers</w>
ìĻĢ ìĿ¸</w>
ì·¨ íķł</w>
ê¸ī ìĿĺ</w>
ëĬĲëĤ Ģëĭ¤</w>
c s
o st</w>
guar an
ëŁ ¿</w>
ãħłãħł ãħł</w>
ìĿ´ ë³´ëĭ¤</w>
ë°ľ ìĿĺ
ëª© ìłģìĿ´</w>
ìŀĲìķĦ ëĥĪëĭ¤</w>
ìĺ¤ ìĬ¤
ê°Ħ ìĿ´</w>
ë³´ìĹ¬ ì¤Ħ</w>
bl es</w>
sol id</w>
ëĭ¤íĪ ¼
ìĹħì²´ ìĻĢ</w>
ë°° ëĭ¬</w>
ë³µ ë¬´
ë°©ìĨ¡ ìĹĲ</w>
leng th</w>
ëĤĺëĿ¼ ìĹĲ</w>
de pu
ìĿĦ ìĪĺë¡Ŀ</w>
ëĨĵ ìĹ¬</w>
ê°ķ ìłľë¡ľ</w>
ag encies</w>
classi c</w>
ë¹Ħ ì¹ĺ
ìĦłìĸ¸ íĸĪëĭ¤</w>
wel come</w>
ë³Ģ íĺķ
æĿ İ
ìµľìĨĮ íķľìĿĺ</w>
ìĤ¬ê±´ ê³¼</w>
ê³łëł¤ íķł</w>
ìĿ´ ëĦ¤ìļĶ</w>
êµĲìľ¡ ê°Ĳ</w>
íĬ¸ ëŀĺ
ìľĦ ìĦ±
ë³µ ìĿ´</w>
ìĪĺ íĸī</w>
ìĹ° ìĿ¼</w>
íľ´ëĮĢìłĦ íĻĶ</w>
ìĭł ëħĲ
dan i
ìłĢì¶ķ ìĿĢíĸī</w>
ë´¤ ìĿĦ</w>
ë©¸ ë§Ŀ
ë¸Į ëłī
ëĤĺìĿ´ íĬ¸</w>
ìĹĺë¦¬ ë²łìĿ´
pack age</w>
íĬ¹ë³Ħ ë²ķ</w>
íĺĦìĭ¤ ìłģìľ¼ë¡ľ</w>
unfortun ately</w>
ê³ ±</w>
ê´Ģ ë£Į
p in
consider ing</w>
ìĪľ ìĪĺíķľ</w>
ìĽ ¹</w>
ìĹĲ ëĤĺ</w>
ì·¨ íķĺê³ł</w>
ë¯¸ íĿ¡
ë©ľ ë¡ľ
ëĮĢ íļĮê°Ģ</w>
ìłĦ ê³µ</w>
z i</w>
ëĭ¤ ìłĢ
ë³¸ ìĿ¸ìĿĢ</w>
ìĭľ ìľĦë¥¼</w>
ìĬ¤ íı°
ãħİ ãħİãħİ</w>
ëĭ¹ ìľ¼ë¡ľ</w>
ë´ ħëĭĪëĭ¤</w>
ê±° ìĦ¸
ìłľ ì¹ĺê³ł</w>
sp here</w>
up dated</w>
ë¿ Ķ
me tal</w>
st adi
gl ass</w>
ì¦Ŀ ìĭľê°Ģ</w>
ëĨĴ ìĹ¬
ë³´ ì¦Ŀ</w>
sig ns</w>
j um
êµ¬ ëıĦ</w>
equ ip
ë§Ŀ ìĦ¤
ìĨį íķĺëĬĶ</w>
ìĨĮ ìĬ¤</w>
íķĺê²ł ì§Ģë§Į</w>
íķĺ ê°Ģ</w>
ìĦ¸ ëł¥</w>
ìļĶ ìĿ¸ìľ¼ë¡ľ</w>
vir gin
ìŀĦ ìĽĲ
íİ ľ</w>
ìĿ¸ íĦ´
t ele
ìµľ íĽĦìĿĺ</w>
ëľ» íķľëĭ¤</w>
ë¦¬ìĬ¤ íģ¬</w>
cre w</w>
ìĿ¸ ì¢ħ
ìĺĪë°© ìĿĦ</w>
ë¯¼ ìĿĦ</w>
ìŀĲëŀĳ íķľëĭ¤</w>
ëªħ ìłĪ</w>
ë§Īëł¨ íķĺê³ł</w>
ë©Ķ ëī´</w>
pan el</w>
ìłĦìŁģ ìĿĺ</w>
ë¶ĢíĦ° ìĿĺ</w>
ì°¸ ìĿĦ</w>
ëĸł ìĺ¬ëŀĲëĭ¤</w>
ëłĪ ìĸ´</w>
ë°± ìĿ´</w>
ìĸ¸ë¡ł ìĹĲ</w>
ìĬµ ëĭĪ
gu ide</w>
metho ds</w>
ì½Ķ ëłĪ
su e</w>
fil ms</w>
ì»¤ ì§Ī</w>
ë°Ķ ëĳĳ
ãİ Ŀ</w>
ìĿĺë¯¸ ëĭ¤</w>
ìĺĨ ìĹĲìĦľ</w>
ë§ŀ ë¬¼
pic tures</w>
ë§Ĳ ë¶ĢíĦ°</w>
stre ets</w>
ìłķ íķ´</w>
ëıĻ ë°ĺ</w>
ìłķìĿĺ ëĭ¹</w>
ìĸĳ ê·¹
ëª» ì§Ģ
ìľĦ ê¸°ê°Ģ</w>
ë³¼ ìĿĦ</w>
ä ¾
ëĮĢ ì¹ĺ
ìĹ´ ìĩł
ìłĢ ìŀĲëĬĶ</w>
íĻĶìŀ¥ ìĭ¤</w>
ëıĻ íĺ¸
ìĹ ł</w>
ë°©ìĸ´ ëł¥</w>
íĮĲ ìľ¼ë¡ľ</w>
philos oph
ë¶ģ ë¶Ģ</w>
ê·Ģ ê°Ģ</w>
ì»´ íį¼
b n
ìĿ´ìĬ¬ ëŀĮ
ìķŀ ëĭ¹
ì¡° ë¦½
list en</w>
ë² ¡
ê´ľì°® ìĿĢ</w>
íĨł ìļĶìĿ¼</w>
ëĤ´ìļ© ìĿ´ëĭ¤</w>
êµŃíĨł ë¶Ģ</w>
êµŃ ìĸ´</w>
ì´Ī ê³¼</w>
j ack</w>
al ex
êµŃ íļĮê°Ģ</w>
íĮĢ ê³¼</w>
ê·ľ ì¹Ļ</w>
ìłķ ìľł
ëıĮ ê³ł</w>
ëĦ¥ ìĦ¼
ëªħíĻķ íŀĪ</w>
ìĹħê·¸ëłĪìĿ´ ëĵľ</w>
ë°Ķ ëĭ¥</w>
ëĤ´ìļ© ê³¼</w>
íĻĺ ìľ¨
ìĦ± ëĤ¨</w>
ro man
ìŀĲìĭł ë§ĮìĿĺ</w>
ìļĶ ìĨĮ</w>
re ference</w>
ro m
ìĭ¬ ë¦¬</w>
ìĿĢ ê·¼
íİ¸ ìĿĢ</w>
ìŀ¥ ìĦ±
ìłĦ ëıĦ</w>
ëª¨ ë¦¬
ë²Ī ìĶ©</w>
ìĸ´ëĬĲ ìĥĪ</w>
ëĭµë³Ģ ìĿĦ</w>
êµŃ ìķħ
ìļĶêµ¬ íķľ</w>
ìĬµ ìĿĦ</w>
ì£½ ê³ł</w>
mus e
leag ues</w>
ëıĦìĭľ ìĹĲ</w>
ìĸ´ëłµ ê³ł</w>
ìĤ¬íķŃ ìĿ´</w>
alleg ed</w>
ê²½ì°° ìĦľëĬĶ</w>
ìĺ¬íķ´ ë¡ľ</w>
ê¹Ĭ ê²Į</w>
íĬ¹ ê²Ģ
ê·¸ ê±°
ëĤĺíĥĢ ëĤ´ê³ł</w>
on e
ë°© íķ´</w>
ê°ľ ìŀħ</w>
ìŀĺ íķĺëĬĶ</w>
? âĢĻ</w>
ìľł ìĤ°</w>
d b</w>
ht ml</w>
ëĭ¤ ìĭľëĬĶ</w>
ìĭ¬ íĻĶ
ëĤ¨ íķ´
ì§ĳ íĸī</w>
ìŀ¬ ë£Įë¥¼</w>
íķ© ìĿĦ</w>
ìĸ´ëĶĶ ë¡ľ</w>
ìµľê·¼ ìĹĲ</w>
ëĨĴ ëĭ¤ëĬĶ</w>
ser iously</w>
carol ina</w>
ì²Ń ëł´
ëĮĢíķĻ ìĹĲìĦľ</w>
ëŁ ¿
se at</w>
ë³ĳ ìĽĲìĿĢ</w>
ìĿ´ëģĮ ìĹĪëĭ¤</w>
ì§ĳ ëĭĪëĭ¤</w>
ë¯¼ì¡± ìĿĺ</w>
wal king</w>
ì§Ī ìĿĢ</w>
ëªħ ìĿ¸</w>
dis crimin
cy cle</w>
ì£¼ ìĸ´</w>
ìĻĶ ìĿĦ</w>
you th</w>
butt on</w>
ìĦ±ìŀ¥ ëıĻ
ê³µê¸ī ìĿĦ</w>
coo per
er o
ìĿ¸ ëį°ëıĦ</w>
ê°Ģ ì¦Ī
ê¸° ìĽĲ
l h
ìĿ´ íĺķ</w>
ë°Ķ ëŀįëĭĪëĭ¤</w>
ãĥ ©
ê±°ë¦¬ ë¡ľ</w>
li fe
equip ment</w>
ìļĶ ê±´ìĿĦ</w>
ìļ° ìľĦë¥¼</w>
ìĺ Ĳ
ãħĭãħĭãħĭãħĭãħĭãħĭãħĭãħĭ ãħĭãħĭãħĭ</w>
ì¶ľ íĺĦ
ìĹĲ ë²Ħ
ìĥĿ ìķł</w>
íı¬ íĨł
equ al</w>
ìłĦëħĦ ëĮĢë¹Ħ</w>
ê¸įìłķ ìłģìľ¼ë¡ľ</w>
ìĥģ íĸ¥</w>
ê³¡ ìĿĢ</w>
ìĤ¶ ìĿ´</w>
íķľ ê°Ģ</w>
ê·¸ëŁ¬ ëĭ¤ê°Ģ</w>
ë¶Ħ ë¦¬</w>
ëıĻìĽĲ íķ´</w>
ul l</w>
ìĤ¬ìļ© íķĺìĹ¬</w>
ìĸ´ëł¤ ìĽĮ</w>
tv n</w>
íķĺëĬĲ ëĿ¼</w>
j en
ëħ¸ íĽĦ</w>
jus ti
ìłĦ ëıĦ
ë¬´ìĹĩ ìĿ¸
ë°ķ ìĦ±
di ag
íĤ ¨ëĭ¤</w>
ë°Ķ ëĬĶ</w>
vul ner
íĺľíĥĿ ìĿ´</w>
ëįĺ ìł¸
willi ams</w>
íķĺìĿ´ë¸Įë¦¬ ëĵľ</w>
infra structure</w>
pres ented</w>
. -</w>
ëıĮ ëł¸ëĭ¤</w>
cop y</w>
ë²ķ ìłķ</w>
extre me</w>
ìĤ¬ëŀĮ ìĿ´ëĭ¤</w>
stre ss</w>
ìĭľ ëĦ¤
íĶĦ ìĻĢ</w>
t we
ê·¸ ì¤ĳ</w>
íķ´ ë³´ê³ł</w>
ëĮĢìĿĳ íķĺëĬĶ</w>
ìłĢ ê²©
ìĭľìŀ¥ ìĹĲìĦľëĬĶ</w>
bo dies</w>
cat ch</w>
ëĤ¨ êµ¬</w>
ìĹ° ê·¹</w>
íĶĮëłĪìĿ´ ë¥¼</w>
ìĬ¤ íħĶ
uni verse</w>
sel ect</w>
comfor table</w>
ê³łê°Ŀ ëĵ¤ìĿ´</w>
ìłľê¸° ëĲĺê³ł</w>
ìĭł ìĿ¸
ì£¼ìĿĺ ìĹĲ</w>
íĤ ·</w>
êµŃë¯¼ ìĹĲê²Į</w>
ë¦¬ì¡° íĬ¸</w>
re min
ëĥĦìĥĪ ê°Ģ</w>
ê¸°ìŀĲ ëĵ¤ê³¼</w>
pic ally</w>
ìŀ¥ ê¸°ê°Ħ</w>
íĮ¬ ëĵ¤ìĹĲê²Į</w>
ì¡Į ëĬĶëį°</w>
êµ¬ì¡° ì¡°ìłķ</w>
ê±¸ ê·¸ë£¹</w>
íľ´ ê°Ģ
ë¸Ķë¡Ŀ ì²´ìĿ¸</w>
ë¡ľ ê·¸
ëĪĦ êµ¬</w>
mem ber
ëĮĢì±ħ ìĿ´</w>
ìŀħ ì§Ģ</w>
f ts</w>
ëĭ Įëĭ¤</w>
ëª¨ëĳĲ ìĹĲê²Į</w>
ê¸Īìľµ íĪ¬ìŀĲ
ëª° ìŀħ
ìĻ¸ ë¬´
ê³µ ì¡´
aff ected</w>
hou se
ëĭ¨ ìĨį</w>
ì´Ī ë¡Ŀ
reven ue</w>
ëĤ¨ ê¸°ê³ł</w>
sle ep</w>
ìĭł íĥģ
co ordin
ëĮĢ ìŀ¥</w>
ìŀĲìĤ° ìĿĦ</w>
s ad
ê³ł ìłķ</w>
ìŃ ī</w>
íİĢ ëĵľëĬĶ</w>
ìĭľíĸī ëł¹</w>
ëĤľ ìĿĦ</w>
ëĮĢ ëıĦ</w>
ìĭľ ë¦¬ìķĦ</w>
ë§Ĳ ëĿ¼ê³ł</w>
ê°ĢëĬ¥ íķĺëıĦë¡Ŀ</w>
ì§ĢìĽĲ ìĤ¬ìĹħ</w>
ì£¼ ìŀ¥ìĿĢ</w>
íĻľëıĻ íķĺê³ł</w>
ì§ľ ì¦Ŀ
ìĪĺì¤Ģ ìĿ¸</w>
ë©Ķìĭľ ì§Ģ</w>
c al</w>
ëĦĵ ê²Į</w>
i ii</w>
tre ated</w>
ëĮĢ ê°Ģë¡ľ</w>
ìĦ¸ íĬ¸ë¥¼</w>
ìĥģ ìŀĲ</w>
íĸĪ ëįĶëĭĪ</w>
ëıħ ë¦½</w>
íĪ¬ ìĬ¤</w>
k ings</w>
ë¶Ģ ê·¼
ì£¼ ë©´ìĦľ</w>
ìĦłìĪĺ ë¡ľ</w>
ëĤĺê°Ģ ìķ¼</w>
ì²ł ìĿ´</w>
ìĦľ ìĿ¸ì§Ģ</w>
êµŃ ëıĦ</w>
ìĥĿê°ģ íķľ</w>
ë¶Ģ ìŀ¥ìĿĢ</w>
ì£¼ íķľ</w>
ë³´ê³ł ë¥¼</w>
exp ec
ë°ķ ì°¨ë¥¼</w>
gu ess</w>
ìĨĮë¹Ħ ìŀĲëĵ¤ìĿ´</w>
íķĺ ëıĦ
ìĭľìĽĲ íķľ</w>
ki e</w>
ìłķ êµĲ
ëª¸ ìĿĺ</w>
ìķ¼ ê°Ħ
determin ed</w>
fac tors</w>
ìłľìŀĦ ìĬ¤</w>
ë¡ľ ê·¸</w>
ìĺĪìłķ ìĿ´ë©°</w>
ìĿ´ íĸī</w>
ì¦Ŀ ìĹ¬
ì¢ħ ìĿ´
ì¢ĭ ëĭ¤ê³ł</w>
vehic les</w>
ê¸°ë¡Ŀ ìĿ´</w>
pl ate</w>
ìļĶì¦ĺ ìĿĢ</w>
íĽĦ ì§Ģ
gi ant</w>
ë°ĺ ë©´ìĹĲ</w>
ê³µíĻĶ ëĭ¹</w>
ëıĦ íĭ°</w>
ë§¨ ëĤł</w>
ëĭ´ ë°°ë¥¼</w>
ê³µ ìĿĢ</w>
ap ps</w>
ê°ĢëĬ¥ ìĦ±ìĹĲ</w>
th or
íĮĮ ê²©
ìĬ¤ íĨ¤
íģ¬ ìĹĲ</w>
ë¤ ¼
ìĭłì²Ń íķł</w>
ê±¸ ë¦´</w>
íĪ¬ ìŀħ</w>
ëĭ¤ëħ Ķ
ì²´ ëł¥
ìĭľ ê¸°ê°Ģ</w>
ê°Ĳ ëıĻìĿĦ</w>
íĽĦë³´ ìŀĲëĬĶ</w>
ë¯¸ íķľ</w>
ì²ľ ìŀ¬
ìĻĶ ì§Ģë§Į</w>
pl enty</w>
íļĮ ëıĦ</w>
íİ¸ ìĿĺë¥¼</w>
ìĿ¸ë¬¼ ë¡ľ</w>
ìľł ìłĦìŀĲ</w>
resp ond</w>
ìĸ» ê²Į</w>
é »
ë¦° ìĿĺ</w>
weal th</w>
ì£¼ ê°Ģ
ë¯¸ ëĤĺ
ë°© íĨµ
ê²¬ ìĿ´</w>
íĥľíıī ìĸĳ</w>
ìĹ° ë£Į</w>
ìľ¡ ë°ķ
[...]
