{
  "!": 0,
  "!!": 3508,
  "!!!!": 14196,
  "!!!!!!!!": 39802,
  "!!!!!</w>": 38639,
  "!!!!</w>": 22690,
  "!!!</w>": 9618,
  "!!\"</w>": 48371,
  "!!</w>": 4953,
  "!\"</w>": 3591,
  "!'</w>": 12883,
  "!)</w>": 28287,
  "!</w>": 308,
  "!?</w>": 28832,
  "!âĢĻ</w>": 27332,
  "!âĢĿ</w>": 10748,
  "!ãĢį</w>": 36958,
  "\"": 1,
  "\"'</w>": 21020,
  "\"(</w>": 9677,
  "\")</w>": 25479,
  "\",\"</w>": 43575,
  "\",</w>": 6237,
  "\"...</w>": 44216,
  "\".</w>": 8380,
  "\".[</w>": 32555,
  "\":</w>": 30337,
  "\"</w>": 290,
  "\"></w>": 36773,
  "\"[</w>": 17888,
  "\"âĢ¦</w>": 21641,
  "\"âĢ¦âĢ¦.\"</w>": 35566,
  "#": 2,
  "#!</w>": 33243,
  "##": 14376,
  "####": 26829,
  "########": 47553,
  "#</w>": 305,
  "$": 3,
  "$</w>": 282,
  "%": 4,
  "%(</w>": 6380,
  "%),</w>": 3745,
  "%)</w>": 2086,
  "%,</w>": 2720,
  "%.</w>": 19337,
  "%/</w>": 44361,
  "%</w>": 315,
  "%Â·</w>": 48115,
  "%âĨĳ</w>": 33306,
  "%âĨĴ</w>": 36009,
  "%âĨĵ</w>": 45320,
  "&": 5,
  "&#</w>": 28163,
  "&</w>": 328,
  "'": 6,
  "'\"</w>": 30448,
  "'''</w>": 26274,
  "''</w>": 7440,
  "'(</w>": 3432,
  "')</w>": 22501,
  "',</w>": 2931,
  "'-</w>": 32208,
  "'.</w>": 7739,
  "':</w>": 44775,
  "';": 40127,
  "';</w>": 5702,
  "'</w>": 306,
  "'d</w>": 7817,
  "'ll</w>": 7547,
  "'m</w>": 5277,
  "'re</w>": 4456,
  "'s</w>": 1022,
  "'t</w>": 1938,
  "'ve</w>": 6180,
  "'âĢ¦</w>": 7560,
  "(": 7,
  "(\"</w>": 18743,
  "($</w>": 25048,
  "('</w>": 26568,
  "((</w>": 12814,
  "();</w>": 33500,
  "()</w>": 11292,
  "(+</w>": 36856,
  "(-</w>": 7628,
  "(</w>": 316,
  "(?)</w>": 18571,
  "(@</w>": 11599,
  "(âĢĺ</w>": 49353,
  "(âĢľ</w>": 32926,
  "(ãĢĮ</w>": 47852,
  "(ãĢİ</w>": 34588,
  ")": 8,
  ")\"</w>": 27145,
  ")',</w>": 30616,
  ")'</w>": 3442,
  ")(</w>": 22125,
  "))</w>": 11303,
  "),</w>": 1187,
  ")-</w>": 17734,
  ").</w>": 1902,
  ").[</w>": 43324,
  ")/</w>": 37851,
  "):</w>": 10614,
  ");": 38666,
  ");</w>": 7278,
  ")</w>": 274,
  ")<</w>": 4604,
  ")=</w>": 47926,
  ")></w>": 36766,
  ")]</w>": 32501,
  ")|</w>": 39273,
  ")Â·</w>": 11686,
  ")âĢĻ,</w>": 29019,
  ")âĢĻ</w>": 4139,
  ")âĢĿ</w>": 34485,
  ")ãĢı</w>": 38964,
  ")ï¼Ľ</w>": 26331,
  "*": 9,
  "**": 6922,
  "****": 15800,
  "********": 33531,
  "***</w>": 34370,
  "**</w>": 24308,
  "*</w>": 252,
  "+": 10,
  "++": 31005,
  "++</w>": 36229,
  "+</w>": 307,
  ",": 11,
  ",\"</w>": 2388,
  ",#</w>": 4659,
  ",'</w>": 19703,
  ",,": 18738,
  ",,,</w>": 22492,
  ",,</w>": 9501,
  ",</w>": 286,
  ",[</w>": 18775,
  ",]</w>": 49045,
  ",âĢĻ</w>": 28310,
  ",âĢĿ</w>": 2060,
  "-": 12,
  "-'</w>": 46563,
  "-(</w>": 41509,
  "--": 2001,
  "----": 3426,
  "--------": 6075,
  "----------------": 12339,
  "--------------------------------": 28468,
  "---</w>": 32694,
  "--</w>": 4072,
  "-</w>": 312,
  "-></w>": 17906,
  ".": 13,
  ".\"": 47686,
  ".\"(</w>": 37269,
  ".\"</w>": 1088,
  ".\"[</w>": 24904,
  ".#</w>": 13495,
  ".'.</w>": 30834,
  ".'</w>": 4351,
  ".(</w>": 11437,
  ".),</w>": 34692,
  ".)</w>": 5810,
  ".,</w>": 5034,
  ".-</w>": 19137,
  "..": 1737,
  "..'</w>": 39388,
  "...": 12413,
  "...\"</w>": 23091,
  "...'</w>": 38856,
  "....": 4610,
  "........": 11280,
  "................": 25688,
  ".......</w>": 36138,
  "......</w>": 16097,
  ".....</w>": 14124,
  "....</w>": 5107,
  "...</w>": 1477,
  "...?</w>": 23120,
  "...]</w>": 41361,
  "..</w>": 738,
  "..?</w>": 17488,
  "./</w>": 46044,
  ".:</w>": 43261,
  ".</w>": 295,
  ".<</w>": 2579,
  ".></w>": 4148,
  ".[</w>": 3314,
  ".]": 40628,
  ".],</w>": 19857,
  ".]</w>": 2494,
  ".]]</w>": 31734,
  ".âĢĻ</w>": 11566,
  ".âĢľ</w>": 42873,
  ".âĢĿ(</w>": 35558,
  ".âĢĿ</w>": 1526,
  ".âĸ¶</w>": 33854,
  ".âĹĩ</w>": 25599,
  ".âĹİ</w>": 6675,
  ".ãĢį</w>": 15309,
  "/": 14,
  "/.</w>": 39965,
  "//</w>": 4632,
  "/</w>": 318,
  "/ãİ": 28138,
  "0": 15,
  "0</w>": 361,
  "1": 16,
  "1</w>": 344,
  "2": 17,
  "2</w>": 357,
  "3": 18,
  "3</w>": 354,
  "4": 19,
  "4</w>": 362,
  "5": 20,
  "5</w>": 346,
  "6": 21,
  "6</w>": 351,
  "7": 22,
  "7</w>": 347,
  "8": 23,
  "8</w>": 333,
  "9": 24,
  "9</w>": 345,
  ":": 25,
  ":\"</w>": 35529,
  "://</w>": 5743,
  "::</w>": 21120,
  ":</w>": 326,
  ";": 26,
  ";&#</w>": 47237,
  ";;": 36457,
  ";;</w>": 20587,
  ";</w>": 313,
  "<": 27,
  "</</w>": 13611,
  "<</w>": 297,
  "<<</w>": 46903,
  "<|endoftext|>": 49407,
  "<|startoftext|>": 49406,
  "=": 28,
  "=\"": 44803,
  "=\"</w>": 12062,
  "='</w>": 45551,
  "=</w>": 319,
  "==": 8034,
  "==</w>": 35694,
  "====": 16072,
  "========": 29683,
  "=></w>": 26780,
  ">": 29,
  ">(</w>": 15314,
  ">,</w>": 16856,
  ">.</w>": 36767,
  "></</w>": 32045,
  "></w>": 327,
  "><</w>": 16092,
  ">>": 47702,
  ">></w>": 19588,
  ">>></w>": 38813,
  "?": 30,
  "?!</w>": 17630,
  "?\"</w>": 2108,
  "?'</w>": 8384,
  "?)</w>": 14105,
  "?.</w>": 28207,
  "?</w>": 317,
  "??": 9122,
  "??</w>": 4045,
  "???</w>": 11971,
  "????": 29119,
  "????</w>": 33568,
  "?âĢ¦</w>": 30007,
  "?âĢĻ</w>": 19052,
  "?âĢĿ</w>": 6098,
  "?ãĢį</w>": 17843,
  "@": 31,
  "@(</w>": 2725,
  "@</w>": 325,
  "[": 32,
  "[</w>": 324,
  "[[</w>": 32723,
  "\\": 33,
  "\\</w>": 310,
  "]": 34,
  "]'</w>": 29520,
  "])</w>": 47050,
  "],</w>": 8120,
  "].</w>": 10786,
  "]:</w>": 34275,
  "]</w>": 301,
  "][</w>": 9270,
  "]]</w>": 13972,
  "^": 35,
  "^</w>": 323,
  "^^": 35443,
  "^^</w>": 17013,
  "_": 36,
  "_</w>": 314,
  "__": 2748,
  "__</w>": 27025,
  "____": 4748,
  "________": 8929,
  "________________": 17980,
  "________________________________": 40718,
  "`": 37,
  "`</w>": 329,
  "a": 38,
  "a</w>": 245,
  "aa": 16317,
  "aa</w>": 21256,
  "aaa</w>": 49234,
  "aar": 32318,
  "aaron</w>": 37613,
  "ab": 777,
  "ab</w>": 13343,
  "aband": 21759,
  "abandoned</w>": 32890,
  "abbo": 46756,
  "abbott</w>": 48214,
  "abc</w>": 23235,
  "abe": 39234,
  "abe</w>": 48944,
  "abeth</w>": 33446,
  "abilities</w>": 15674,
  "ability</w>": 4467,
  "abl": 7559,
  "able</w>": 1488,
  "abled</w>": 23060,
  "ables</w>": 20139,
  "ably</w>": 4314,
  "abo": 6397,
  "abol": 45974,
  "abor": 9971,
  "abortion</w>": 22017,
  "about</w>": 1402,
  "above</w>": 7414,
  "abroad</w>": 34222,
  "abs": 28467,
  "abs</w>": 43284,
  "absence</w>": 32278,
  "absol": 12419,
  "absolute</w>": 30632,
  "absolutely</w>": 16949,
  "absor": 32872,
  "abstr": 29679,
  "abstract</w>": 41405,
  "absur": 42102,
  "abu</w>": 41098,
  "abun": 43950,
  "abuse</w>": 16260,
  "ac": 595,
  "ac</w>": 10949,
  "aca</w>": 41921,
  "acad": 12154,
  "academ": 18626,
  "academic</w>": 25551,
  "academy</w>": 23393,
  "acare</w>": 30671,
  "acc": 3457,
  "acceler": 26681,
  "accep": 10658,
  "accept</w>": 17238,
  "acceptable</w>": 28392,
  "acceptance</w>": 45663,
  "accepted</w>": 22617,
  "accepting</w>": 42770,
  "acces": 28503,
  "access</w>": 7113,
  "accessible</w>": 33795,
  "acci": 17117,
  "accident</w>": 28465,
  "acco</w>": 36805,
  "accom": 32260,
  "accommo": 37689,
  "accompan": 31278,
  "accompanied</w>": 41198,
  "accompl": 22294,
  "accomplished</w>": 47865,
  "accor": 3803,
  "according</w>": 4000,
  "accoun": 5981,
  "account</w>": 9849,
  "accountability</w>": 47907,
  "accounts</w>": 18243,
  "accum": 39515,
  "accur": 14701,
  "accuracy</w>": 38704,
  "accurate</w>": 23467,
  "accus": 35165,
  "accusations</w>": 44397,
  "accused</w>": 15861,
  "ace</w>": 2038,
  "ach": 2743,
  "ach</w>": 2250,
  "ache</w>": 25311,
  "ached</w>": 8444,
  "acher</w>": 19837,
  "aches</w>": 12276,
  "achi": 9811,
  "achiev": 15176,
  "achieve</w>": 21490,
  "achieved</w>": 30458,
  "achievement</w>": 44333,
  "aching</w>": 10359,
  "achment</w>": 43355,
  "achus": 30972,
  "aci": 13247,
  "acid</w>": 32701,
  "acity</w>": 16225,
  "ack": 2617,
  "ack</w>": 1467,
  "acked</w>": 8288,
  "acker</w>": 25555,
  "ackers</w>": 28774,
  "acking</w>": 9059,
  "ackno": 17155,
  "acknowle": 22165,
  "acknowledge</w>": 42236,
  "acknowledged</w>": 33520,
  "acks</w>": 5404,
  "acle</w>": 33305,
  "acqu": 22778,
  "acqui": 21902,
  "acquired</w>": 33106,
  "acquisition</w>": 45184,
  "acre</w>": 35770,
  "acres</w>": 46348,
  "across</w>": 5886,
  "act</w>": 2822,
  "acted</w>": 10915,
  "acti": 9612,
  "acting</w>": 13779,
  "action</w>": 4407,
  "actions</w>": 8100,
  "activ": 15170,
  "active</w>": 8848,
  "actively</w>": 32481,
  "activi": 10988,
  "activist</w>": 31238,
  "activists</w>": 21379,
  "activities</w>": 16520,
  "activity</w>": 12338,
  "actor</w>": 16350,
  "actors</w>": 20038,
  "actress</w>": 45428,
  "acts</w>": 10012,
  "actu": 4253,
  "actual</w>": 14110,
  "actually</w>": 5187,
  "acu": 37031,
  "acy</w>": 4920,
  "ad": 749,
  "ad</w>": 1314,
  "ada</w>": 6883,
  "adam</w>": 23996,
  "adams</w>": 37517,
  "adap": 16413,
  "add": 29413,
  "add</w>": 8025,
  "added</w>": 6163,
  "addi": 5678,
  "addic": 25055,
  "addiction</w>": 43846,
  "adding</w>": 12429,
  "addition</w>": 11084,
  "additional</w>": 11129,
  "additionally</w>": 34538,
  "addre": 7218,
  "address</w>": 10206,
  "addressed</w>": 32542,
  "addresses</w>": 36526,
  "addressing</w>": 41996,
  "adds</w>": 22717,
  "ade</w>": 2017,
  "aded</w>": 11608,
  "adel": 20247,
  "adequ": 29528,
  "adequate</w>": 37491,
  "ader</w>": 41451,
  "ades</w>": 8272,
  "adi": 3576,
  "adic": 32767,
  "ading</w>": 12280,
  "adju": 20184,
  "adjust": 40799,
  "adjust</w>": 45837,
  "adjusted</w>": 44429,
  "admini": 6470,
  "administr": 35435,
  "administration</w>": 8345,
  "administrative</w>": 40618,
  "admir": 40975,
  "admit</w>": 32172,
  "admitted</w>": 23797,
  "ado": 43681,
  "ado</w>": 14417,
  "adop": 16815,
  "adopt</w>": 43810,
  "adopted</w>": 28526,
  "adoption</w>": 44069,
  "ador</w>": 24417,
  "adri": 45693,
  "ads</w>": 9457,
  "adult</w>": 22795,
  "adults</w>": 23290,
  "adv": 4036,
  "advance</w>": 22435,
  "advanced</w>": 17512,
  "advances</w>": 49112,
  "advant": 12167,
  "advantage</w>": 15008,
  "advantages</w>": 43108,
  "advent": 36328,
  "adventure</w>": 30041,
  "adver": 6583,
  "adverti": 8747,
  "advertis": 21105,
  "advertise": 9242,
  "advertisement</w>": 10574,
  "advertisements</w>": 38088,
  "advertising</w>": 24686,
  "advice</w>": 21270,
  "advis": 12246,
  "advised</w>": 45216,
  "adviser</w>": 36182,
  "advoc": 14150,
  "advocacy</w>": 44444,
  "advocate</w>": 37142,
  "advocates</w>": 30736,
  "ae": 28584,
  "ae</w>": 14573,
  "aer": 33411,
  "aero": 41084,
  "aes": 39682,
  "af": 1265,
  "af</w>": 25070,
  "afc</w>": 28509,
  "aff": 4864,
  "affair</w>": 47030,
  "affairs</w>": 20655,
  "affect</w>": 22009,
  "affected</w>": 19191,
  "affects</w>": 45832,
  "affili": 25993,
  "affir": 48884,
  "affor": 21813,
  "afford</w>": 28205,
  "affordable</w>": 26728,
  "afgh": 16327,
  "afghan": 21508,
  "afghan</w>": 43034,
  "afghanistan</w>": 21714,
  "afp": 34828,
  "afp</w>": 27558,
  "afraid</w>": 27122,
  "afric": 9560,
  "africa</w>": 16785,
  "african</w>": 16948,
  "after": 12037,
  "after</w>": 1838,
  "aftermath</w>": 49194,
  "afternoon</w>": 20679,
  "afterwards</w>": 48565,
  "ag": 783,
  "ag</w>": 31157,
  "aga</w>": 32815,
  "again": 2957,
  "again</w>": 4455,
  "against</w>": 2961,
  "agan</w>": 29266,
  "age</w>": 1355,
  "aged</w>": 7740,
  "agement</w>": 32042,
  "agencies</w>": 18861,
  "agency</w>": 9459,
  "agenda</w>": 23438,
  "agent</w>": 16853,
  "agents</w>": 20590,
  "ager</w>": 27037,
  "agers</w>": 38527,
  "ages</w>": 3533,
  "aggres": 31978,
  "aggression</w>": 49294,
  "aggressive</w>": 26702,
  "aging</w>": 10010,
  "ago</w>": 4811,
  "agon": 32033,
  "agon</w>": 25000,
  "agram</w>": 32966,
  "agre": 6400,
  "agree</w>": 13270,
  "agreed</w>": 14379,
  "agreement</w>": 12362,
  "agreements</w>": 36149,
  "agrees</w>": 45873,
  "agricul": 23437,
  "agricultural</w>": 44073,
  "agriculture</w>": 34584,
  "ags</w>": 16952,
  "agu": 23123,
  "ague</w>": 32813,
  "ah": 9879,
  "ah</w>": 6249,
  "ahead</w>": 11907,
  "ahu</w>": 41142,
  "ai": 865,
  "ai</w>": 4738,
  "aid</w>": 1197,
  "aide</w>": 41069,
  "aids</w>": 43078,
  "aig</w>": 35691,
  "ail": 2181,
  "ail</w>": 3319,
  "ailed</w>": 14823,
  "ailer</w>": 29947,
  "ailers</w>": 41195,
  "ailing</w>": 27402,
  "ails</w>": 7130,
  "aim</w>": 25543,
  "aimed</w>": 27567,
  "aims</w>": 39792,
  "ain": 1281,
  "ain</w>": 1654,
  "aine</w>": 28708,
  "ained</w>": 6689,
  "aining</w>": 6314,
  "ains</w>": 8026,
  "air": 4190,
  "air</w>": 4442,
  "aircraft</w>": 19700,
  "aire</w>": 25938,
  "airlines</w>": 45200,
  "airport</w>": 21606,
  "airs</w>": 15880,
  "aiê°Ģ</w>": 39148,
  "aj": 37266,
  "ak": 969,
  "ak</w>": 3908,
  "aka</w>": 28097,
  "ake": 37001,
  "ake</w>": 1510,
  "aked</w>": 16196,
  "aker</w>": 12645,
  "akers</w>": 23099,
  "akes</w>": 3768,
  "aki</w>": 35314,
  "aking</w>": 2656,
  "aks</w>": 10713,
  "al": 526,
  "al</w>": 636,
  "ala</w>": 22303,
  "alab": 27034,
  "alabama</w>": 28887,
  "alan</w>": 29685,
  "alaska</w>": 40789,
  "alber": 36449,
  "alberta</w>": 48017,
  "albu": 12281,
  "album</w>": 14437,
  "alco": 18578,
  "alcohol</w>": 22059,
  "ald</w>": 7270,
  "ale": 33187,
  "ale</w>": 3684,
  "aled</w>": 10227,
  "alem</w>": 33918,
  "aler": 21980,
  "alert</w>": 34163,
  "ales</w>": 20523,
  "alex": 19005,
  "alex</w>": 23304,
  "alexander</w>": 31506,
  "alg": 25967,
  "algorith": 28363,
  "algorithm</w>": 42499,
  "ali": 1817,
  "ali</w>": 22387,
  "alia</w>": 33925,
  "alice</w>": 47648,
  "alid</w>": 35798,
  "alien</w>": 33553,
  "alig": 30171,
  "alike</w>": 44732,
  "aling</w>": 11166,
  "alised</w>": 41218,
  "alism</w>": 9312,
  "alist</w>": 9187,
  "alistic</w>": 45740,
  "alists</w>": 13464,
  "alities</w>": 23176,
  "ality</w>": 3751,
  "alive</w>": 22230,
  "aliz": 9717,
  "alization</w>": 15955,
  "alize</w>": 13215,
  "alized</w>": 9469,
  "alizing</w>": 26643,
  "all": 1622,
  "all</w>": 1029,
  "alle": 13325,
  "alled</w>": 15430,
  "alleg": 10508,
  "allegations</w>": 22739,
  "alleged</w>": 19041,
  "allegedly</w>": 23450,
  "allel</w>": 39324,
  "allen</w>": 28758,
  "aller</w>": 13923,
  "alli": 10064,
  "alliance</w>": 23990,
  "allied</w>": 44292,
  "allies</w>": 20766,
  "alling</w>": 44205,
  "allow": 6975,
  "allow</w>": 8597,
  "allowed</w>": 10017,
  "allowing</w>": 16779,
  "allows</w>": 12947,
  "alls</w>": 12849,
  "ally</w>": 1154,
  "almost</w>": 6062,
  "alo": 14764,
  "alo</w>": 36197,
  "alone</w>": 10886,
  "along": 23914,
  "along</w>": 6181,
  "alongside</w>": 24137,
  "alpha</w>": 34914,
  "already</w>": 4720,
  "als</w>": 2027,
  "also</w>": 1651,
  "alt</w>": 34546,
  "alter": 9497,
  "alter</w>": 47521,
  "alterna": 36866,
  "alternative</w>": 17319,
  "alternatives</w>": 47254,
  "although</w>": 6827,
  "alties</w>": 27931,
  "altogether</w>": 46728,
  "alty</w>": 16978,
  "alu": 17590,
  "always</w>": 4665,
  "aly": 37392,
  "aly</w>": 20114,
  "am": 681,
  "am</w>": 1677,
  "ama</w>": 4217,
  "amaz": 9114,
  "amazing</w>": 16797,
  "amazon</w>": 17678,
  "ambass": 31084,
  "ambassador</w>": 34243,
  "ambi": 17266,
  "ambitious</w>": 44343,
  "amd</w>": 38164,
  "ame": 11922,
  "ame</w>": 1345,
  "amed</w>": 15964,
  "amend": 17393,
  "amendment</w>": 20081,
  "ament</w>": 14097,
  "amer": 2304,
  "americ": 2592,
  "america</w>": 6090,
  "american</w>": 4178,
  "americans</w>": 8756,
  "ames</w>": 3343,
  "ami</w>": 15836,
  "amid</w>": 32139,
  "amin</w>": 49028,
  "aming</w>": 14277,
  "amm": 11895,
  "among": 43167,
  "among</w>": 5499,
  "amongst</w>": 43665,
  "amoun": 7330,
  "amount</w>": 8831,
  "amounts</w>": 26854,
  "amp</w>": 13309,
  "ams</w>": 4095,
  "amy</w>": 29727,
  "an": 435,
  "an</w>": 610,
  "ana</w>": 6023,
  "anal": 5756,
  "analy": 11291,
  "analys": 9998,
  "analysis</w>": 11065,
  "analyst</w>": 34201,
  "analysts</w>": 35298,
  "anarch": 34527,
  "anc": 2714,
  "ance": 34550,
  "ance</w>": 1826,
  "anced</w>": 10735,
  "ances</w>": 6420,
  "anch": 18794,
  "anchor</w>": 27103,
  "anci": 18176,
  "ancient</w>": 20824,
  "ancing</w>": 17529,
  "ancy</w>": 14732,
  "and": 1807,
  "and</w>": 519,
  "anda</w>": 17314,
  "ander</w>": 25380,
  "anders</w>": 44634,
  "anderson</w>": 30210,
  "andre": 14491,
  "andrew</w>": 20550,
  "andro": 14198,
  "android</w>": 15450,
  "ands</w>": 8658,
  "andy</w>": 19823,
  "ane</w>": 12472,
  "ang": 2052,
  "ang</w>": 12939,
  "ange</w>": 2877,
  "angel": 11225,
  "angel</w>": 39678,
  "angeles</w>": 17122,
  "anger</w>": 18419,
  "angle</w>": 24031,
  "angry</w>": 24961,
  "ani</w>": 23722,
  "ania</w>": 41914,
  "anian</w>": 27996,
  "anim": 6272,
  "animal</w>": 16364,
  "animals</w>": 15777,
  "animated</w>": 43967,
  "animation</w>": 33728,
  "anime</w>": 47243,
  "anism</w>": 40261,
  "anity</w>": 40787,
  "ank</w>": 37819,
  "ann": 3130,
  "ann</w>": 29884,
  "anna</w>": 16140,
  "anne</w>": 26165,
  "anni": 25605,
  "anniversary</w>": 30230,
  "anno": 30780,
  "announ": 6058,
  "announce</w>": 37947,
  "announced</w>": 8866,
  "announcement</w>": 22548,
  "announcing</w>": 48857,
  "annual</w>": 15416,
  "annually</w>": 47668,
  "anny</w>": 31913,
  "ano": 29031,
  "ano</w>": 16384,
  "anonym": 21986,
  "anonymous</w>": 29542,
  "another</w>": 3398,
  "ans": 2788,
  "ans</w>": 1696,
  "answer": 26628,
  "answer</w>": 10709,
  "answered</w>": 34148,
  "answers</w>": 25653,
  "ant": 3142,
  "ant</w>": 1427,
  "anta</w>": 16434,
  "antas": 12978,
  "anth": 21648,
  "anthony</w>": 28996,
  "anthro": 36048,
  "anti": 9863,
  "anti</w>": 7767,
  "anticip": 26991,
  "anticipated</w>": 45083,
  "antly</w>": 12149,
  "anton": 29723,
  "antonio</w>": 36727,
  "ants</w>": 3341,
  "anx": 24583,
  "anxiety</w>": 34346,
  "any": 3190,
  "any</w>": 1828,
  "anybody</w>": 30049,
  "anymore</w>": 26967,
  "anyone</w>": 8043,
  "anything</w>": 6428,
  "anyway</w>": 21467,
  "anywhere</w>": 23150,
  "ao": 29043,
  "ao</w>": 25552,
  "ap": 904,
  "ap</w>": 6721,
  "apart": 22189,
  "apart</w>": 20777,
  "apartment</w>": 26753,
  "aper</w>": 14699,
  "apers</w>": 38359,
  "api": 45532,
  "api</w>": 22443,
  "apo": 31368,
  "apol": 20869,
  "apolis</w>": 35380,
  "apologi": 36898,
  "apore</w>": 41437,
  "app": 21882,
  "app</w>": 8645,
  "apparen": 12169,
  "apparent</w>": 29070,
  "apparently</w>": 16112,
  "appe": 3534,
  "appeal</w>": 20510,
  "appeals</w>": 37538,
  "appear": 13850,
  "appear</w>": 12013,
  "appearance</w>": 18208,
  "appearances</w>": 33423,
  "appeared</w>": 11735,
  "appearing</w>": 36525,
  "appears</w>": 12152,
  "apped</w>": 16713,
  "apper</w>": 46807,
  "apping</w>": 21125,
  "appl": 11611,
  "apple</w>": 10517,
  "applic": 7918,
  "application</w>": 13388,
  "applications</w>": 18290,
  "applied</w>": 21757,
  "applies</w>": 43746,
  "apply</w>": 17793,
  "applying</w>": 45265,
  "appointed</w>": 31374,
  "appointment</w>": 45927,
  "appreci": 20206,
  "appreciate</w>": 33296,
  "appro": 4004,
  "approach</w>": 10680,
  "approached</w>": 35916,
  "approaches</w>": 38213,
  "appropri": 14055,
  "appropriate</w>": 17726,
  "approval</w>": 23480,
  "approve</w>": 43724,
  "approved</w>": 19948,
  "approxim": 20559,
  "approximately</w>": 23566,
  "apps</w>": 19271,
  "april</w>": 8653,
  "aps</w>": 12704,
  "aqu": 29639,
  "ar": 483,
  "ar</w>": 920,
  "ara</w>": 26704,
  "arab": 18218,
  "arab</w>": 24879,
  "arabia</w>": 31464,
  "arbit": 32531,
  "arbitr": 36593,
  "arc": 21372,
  "arc</w>": 40015,
  "arch": 7350,
  "arch</w>": 41406,
  "archa": 39299,
  "archae": 46210,
  "archit": 18661,
  "architec": 25452,
  "architecture</w>": 31634,
  "archive</w>": 40797,
  "archives</w>": 49397,
  "archy</w>": 41011,
  "arctic</w>": 37133,
  "ard</w>": 1534,
  "ards</w>": 6471,
  "are": 2379,
  "are</w>": 890,
  "area</w>": 6018,
  "areas</w>": 9765,
  "ared</w>": 5369,
  "aren": 13774,
  "aren</w>": 10187,
  "arena</w>": 27390,
  "arer</w>": 44798,
  "ares</w>": 37846,
  "arg": 9052,
  "argent": 39922,
  "argu": 8570,
  "arguably</w>": 43497,
  "argue</w>": 22577,
  "argued</w>": 21180,
  "argues</w>": 36502,
  "arguing</w>": 36300,
  "argum": 11500,
  "argument</w>": 16284,
  "arguments</w>": 25415,
  "ari": 3196,
  "ari</w>": 22600,
  "aria</w>": 37961,
  "arian</w>": 13186,
  "arians</w>": 39047,
  "aries</w>": 14336,
  "arily</w>": 15071,
  "aring</w>": 5727,
  "ario</w>": 17010,
  "arios</w>": 47616,
  "arity</w>": 14851,
  "ariz": 21818,
  "arizona</w>": 23921,
  "ark</w>": 38114,
  "arly</w>": 3889,
  "arm": 16462,
  "arm</w>": 12960,
  "armed</w>": 15961,
  "armor</w>": 37960,
  "arms</w>": 13811,
  "army</w>": 10541,
  "around</w>": 3255,
  "arrang": 22829,
  "array</w>": 24733,
  "arre": 11695,
  "arrest</w>": 21685,
  "arrested</w>": 14826,
  "arrests</w>": 45488,
  "arri": 9250,
  "arrival</w>": 36316,
  "arrive</w>": 33985,
  "arrived</w>": 17921,
  "ars</w>": 1667,
  "arsen": 27165,
  "arsenal</w>": 31665,
  "art": 12202,
  "art</w>": 4532,
  "arthur</w>": 41223,
  "arti": 6542,
  "artic": 7098,
  "article</w>": 7510,
  "articles</w>": 20424,
  "artif": 30891,
  "artificial</w>": 35284,
  "artist</w>": 19640,
  "artists</w>": 22870,
  "arts</w>": 23281,
  "ary</w>": 1650,
  "as": 628,
  "as</w>": 594,
  "ase</w>": 1802,
  "ased</w>": 4201,
  "aser</w>": 24409,
  "ases</w>": 13266,
  "ash": 3498,
  "ash</w>": 5782,
  "ashed</w>": 20140,
  "ashes</w>": 24192,
  "ashing</w>": 27671,
  "asia</w>": 17332,
  "asian</w>": 22377,
  "aside</w>": 21600,
  "asing</w>": 18053,
  "ask</w>": 6392,
  "aska</w>": 29192,
  "asked</w>": 5558,
  "asking</w>": 14508,
  "asks</w>": 18563,
  "asm</w>": 44311,
  "asn</w>": 6143,
  "ason</w>": 2839,
  "asp": 12340,
  "asp</w>": 36461,
  "aspect</w>": 28549,
  "aspects</w>": 26492,
  "ass": 2202,
  "ass</w>": 3109,
  "assa": 35235,
  "assad</w>": 31420,
  "assass": 30387,
  "assaul": 47750,
  "assault</w>": 17587,
  "asse": 10807,
  "assem": 29753,
  "assembly</w>": 24009,
  "asser": 21740,
  "asses</w>": 33856,
  "assess": 25238,
  "assess</w>": 47044,
  "assessment</w>": 29534,
  "asset</w>": 34320,
  "assets</w>": 23926,
  "assi": 5411,
  "assign": 48351,
  "assigned</w>": 36253,
  "assion": 36592,
  "assionate</w>": 41412,
  "assist</w>": 35468,
  "assistance</w>": 25516,
  "assistant</w>": 21618,
  "assists</w>": 43916,
  "associ": 5959,
  "associate</w>": 33549,
  "associated</w>": 12101,
  "association</w>": 12505,
  "assum": 14531,
  "assume</w>": 25666,
  "assumed</w>": 36997,
  "assuming</w>": 37403,
  "assumption</w>": 48130,
  "ast": 13800,
  "ast</w>": 1408,
  "aster": 40439,
  "aster</w>": 20324,
  "astic</w>": 18036,
  "astr": 19485,
  "astro": 26903,
  "astronom": 40099,
  "asts</w>": 24015,
  "asyl": 38723,
  "asylum</w>": 39401,
  "at": 555,
  "at</w>": 554,
  "ata</w>": 19403,
  "atar</w>": 37253,
  "ate": 4893,
  "ate</w>": 985,
  "ated</w>": 1447,
  "ateful</w>": 34555,
  "ately</w>": 4260,
  "ater": 38626,
  "ater</w>": 2558,
  "ateral</w>": 42192,
  "ates</w>": 1960,
  "ath": 8726,
  "ath</w>": 4797,
  "athan</w>": 29539,
  "athe": 31395,
  "athle": 15405,
  "athletes</w>": 35115,
  "athletic</w>": 41894,
  "ati": 5809,
  "ati</w>": 41474,
  "atic</w>": 10489,
  "atically</w>": 17979,
  "ating</w>": 2377,
  "ation": 28114,
  "ation</w>": 910,
  "ational</w>": 12874,
  "ations</w>": 1961,
  "ative</w>": 4493,
  "atives</w>": 11559,
  "atl": 22022,
  "atlan": 27346,
  "atlanta</w>": 28761,
  "atlantic</w>": 29934,
  "atm</w>": 47730,
  "atmo": 21097,
  "atmosphere</w>": 26951,
  "ato": 28426,
  "ato</w>": 37501,
  "atom": 31959,
  "ator": 49307,
  "ator</w>": 4827,
  "ators</w>": 6472,
  "atory</w>": 12618,
  "ats</w>": 4391,
  "att": 1743,
  "att</w>": 37264,
  "attached</w>": 31424,
  "attack</w>": 7082,
  "attacked</w>": 25732,
  "attacking</w>": 31718,
  "attacks</w>": 10863,
  "attem": 6919,
  "attemp": 10904,
  "attempt</w>": 13058,
  "attempted</w>": 24722,
  "attempting</w>": 31678,
  "attempts</w>": 20669,
  "atten": 9084,
  "attend": 36968,
  "attend</w>": 27826,
  "attendance</w>": 47639,
  "attended</w>": 27586,
  "attending</w>": 40931,
  "attention</w>": 10223,
  "attered</w>": 44360,
  "attitude</w>": 31350,
  "attitudes</w>": 49264,
  "attle</w>": 18085,
  "attor": 11600,
  "attorney</w>": 13371,
  "attorneys</w>": 42544,
  "attr": 13090,
  "attract</w>": 41464,
  "attracted</w>": 42761,
  "attractive</w>": 37191,
  "attribu": 20180,
  "ature</w>": 11623,
  "atures</w>": 20404,
  "au": 1352,
  "au</w>": 10404,
  "aud": 25017,
  "audi": 8555,
  "audience</w>": 15706,
  "audiences</w>": 46380,
  "audio</w>": 21331,
  "aug": 8129,
  "aug</w>": 29740,
  "augh": 7983,
  "aughter</w>": 12811,
  "august</w>": 9980,
  "aul</w>": 8802,
  "ault</w>": 10014,
  "aur": 42510,
  "aus": 20346,
  "ause</w>": 1986,
  "austin</w>": 29278,
  "austr": 8347,
  "australi": 8456,
  "australia</w>": 12510,
  "australian</w>": 19361,
  "austri": 40978,
  "aut": 28846,
  "auth": 4244,
  "authentic": 39656,
  "author": 17617,
  "author</w>": 12501,
  "authorities</w>": 13263,
  "authority</w>": 14894,
  "authorized</w>": 37893,
  "authors</w>": 23255,
  "auto": 20989,
  "auto</w>": 24761,
  "autom": 11295,
  "automatic</w>": 35462,
  "automatically</w>": 28223,
  "autonom": 31856,
  "autonomous</w>": 47149,
  "av": 1546,
  "av</w>": 39533,
  "avail": 5668,
  "availability</w>": 40818,
  "available</w>": 6043,
  "ave</w>": 35592,
  "aven": 22141,
  "avenue</w>": 26249,
  "aver": 6944,
  "average</w>": 8571,
  "avi": 20712,
  "avo": 9817,
  "avoid</w>": 13519,
  "aw": 5327,
  "aw</w>": 34054,
  "awa": 22893,
  "awa</w>": 26417,
  "awak": 47351,
  "award</w>": 17373,
  "awarded</w>": 36527,
  "awards</w>": 24679,
  "aware</w>": 13621,
  "awareness</w>": 28756,
  "away</w>": 4630,
  "awesome</w>": 24682,
  "awful</w>": 43985,
  "awk": 45744,
  "aws</w>": 44529,
  "ax": 11709,
  "ax</w>": 31050,
  "ay": 1003,
  "ay</w>": 839,
  "aya</w>": 36844,
  "ayed</w>": 14714,
  "aying</w>": 4789,
  "ays</w>": 1595,
  "az": 4484,
  "az</w>": 35647,
  "aê°Ģ</w>": 29095,
  "aë¥¼</w>": 30206,
  "aë§¤ì¹ĺ</w>": 48529,
  "aëĬĶ</w>": 20808,
  "aìĶ¨</w>": 16022,
  "aìĶ¨ê°Ģ</w>": 16723,
  "aìĶ¨ë¥¼</w>": 27180,
  "aìĶ¨ëĬĶ</w>": 7430,
  "aìĶ¨ìĹĲê²Į</w>": 46489,
  "aìĶ¨ìĻĢ</w>": 38311,
  "aìĶ¨ìĿĺ</w>": 19549,
  "aìĹĲ</w>": 46659,
  "aìĻĢ</w>": 38731,
  "aìĿĺ</w>": 25524,
  "aíĺķ</w>": 45739,
  "b": 39,
  "b</w>": 270,
  "ba": 7099,
  "ba</w>": 7863,
  "bab": 8862,
  "babies</w>": 41578,
  "baby</w>": 13735,
  "bac": 16841,
  "back": 5903,
  "back</w>": 2258,
  "backed</w>": 23005,
  "backer</w>": 43939,
  "backers</w>": 47814,
  "background</w>": 16025,
  "backing</w>": 36643,
  "backs</w>": 21036,
  "backup</w>": 40717,
  "bacter": 30213,
  "bacteria</w>": 40906,
  "bad": 17727,
  "bad</w>": 6784,
  "badly</w>": 38512,
  "bag": 26340,
  "bag</w>": 23954,
  "bage</w>": 44624,
  "bags</w>": 39198,
  "bail": 36437,
  "bak": 37591,
  "baker</w>": 40335,
  "bal": 5455,
  "bal</w>": 6609,
  "balance</w>": 15867,
  "balanced</w>": 39763,
  "ball": 22767,
  "ball</w>": 4711,
  "ballot</w>": 33166,
  "balls</w>": 30651,
  "baltimore</w>": 30323,
  "ban": 3679,
  "ban</w>": 7822,
  "band": 29344,
  "band</w>": 7967,
  "bands</w>": 33175,
  "bang": 29671,
  "bang</w>": 36353,
  "bank</w>": 8591,
  "banking</w>": 31659,
  "bankru": 39959,
  "bankrupt": 49071,
  "banks</w>": 15431,
  "bann": 28873,
  "banned</w>": 29002,
  "bap": 43679,
  "bar": 3528,
  "bar</w>": 11457,
  "barack</w>": 22699,
  "barbar": 42363,
  "barcel": 46453,
  "barcelona</w>": 47036,
  "bare": 26585,
  "barely</w>": 29704,
  "barre": 24208,
  "barrel</w>": 40823,
  "barrier</w>": 43384,
  "barry</w>": 46969,
  "bars</w>": 30016,
  "bart</w>": 37370,
  "bas": 2459,
  "base": 20783,
  "base</w>": 9251,
  "baseball</w>": 21997,
  "based</w>": 4356,
  "bases</w>": 41306,
  "basic</w>": 12383,
  "basically</w>": 17939,
  "basis</w>": 15574,
  "basket": 26639,
  "basketball</w>": 26901,
  "bass": 19616,
  "bass</w>": 39813,
  "bassy</w>": 41532,
  "bat": 8514,
  "bat</w>": 32717,
  "bath": 37473,
  "bathroom</w>": 45240,
  "batman</w>": 33277,
  "batt": 7260,
  "battery</w>": 22970,
  "battle": 31513,
  "battle</w>": 11327,
  "battles</w>": 38179,
  "bau": 28740,
  "bay": 25811,
  "bay</w>": 14242,
  "bb": 8760,
  "bb</w>": 21012,
  "bbc</w>": 16710,
  "bbing</w>": 49233,
  "bble</w>": 25618,
  "bby</w>": 20710,
  "bc": 12164,
  "bc</w>": 3741,
  "bd</w>": 28224,
  "be": 817,
  "be</w>": 912,
  "beach</w>": 21203,
  "bean</w>": 38698,
  "bear</w>": 21540,
  "bearing</w>": 48182,
  "bears</w>": 30128,
  "beast</w>": 37376,
  "beat": 21424,
  "beat</w>": 13732,
  "beaten</w>": 39640,
  "beating</w>": 36819,
  "beau": 10818,
  "beauti": 15194,
  "beautiful</w>": 16684,
  "beauty</w>": 26970,
  "bec": 1598,
  "bec</w>": 41086,
  "became</w>": 7648,
  "because</w>": 2193,
  "beck</w>": 43420,
  "becom": 9168,
  "become</w>": 5298,
  "becomes</w>": 15719,
  "becoming</w>": 15553,
  "bed": 21113,
  "bed</w>": 5628,
  "bedroom</w>": 46760,
  "bee</w>": 38430,
  "beef</w>": 45681,
  "been</w>": 1542,
  "beer</w>": 16189,
  "before</w>": 2679,
  "beg": 3990,
  "began</w>": 7611,
  "begin</w>": 12963,
  "beginning</w>": 12102,
  "begins</w>": 22705,
  "begun</w>": 30647,
  "beh": 6222,
  "beha": 9435,
  "behalf</w>": 29589,
  "behavi": 9828,
  "behavior</w>": 15011,
  "behaviour</w>": 32990,
  "behind</w>": 6526,
  "bei": 27654,
  "beijing</w>": 33242,
  "being</w>": 2506,
  "beings</w>": 37856,
  "beit</w>": 48580,
  "bel": 2296,
  "bel</w>": 20904,
  "belie": 4765,
  "belief</w>": 21954,
  "beliefs</w>": 29838,
  "believ": 8088,
  "believe</w>": 5964,
  "believed</w>": 14760,
  "believes</w>": 17099,
  "believing</w>": 49271,
  "bell</w>": 19836,
  "belo": 46864,
  "belong": 37398,
  "belong</w>": 45099,
  "beloved</w>": 48607,
  "below</w>": 7103,
  "belt</w>": 32755,
  "ben": 4333,
  "ben</w>": 17883,
  "bench": 47905,
  "bench</w>": 32079,
  "bene": 36379,
  "beneath</w>": 41598,
  "benef": 7074,
  "benefit</w>": 14747,
  "benefits</w>": 13200,
  "beng": 34890,
  "benjam": 43316,
  "benjamin</w>": 44181,
  "ber": 2253,
  "ber</w>": 1772,
  "berg</w>": 11684,
  "berkeley</w>": 42323,
  "berlin</w>": 33087,
  "bern": 40491,
  "bernie</w>": 29229,
  "berry</w>": 24681,
  "bers</w>": 3915,
  "bert</w>": 9452,
  "bery</w>": 45975,
  "bes": 17681,
  "bes</w>": 14312,
  "besides</w>": 31347,
  "best</w>": 3667,
  "bet": 2131,
  "bet</w>": 24492,
  "beta</w>": 29978,
  "betr": 47801,
  "better</w>": 4186,
  "between</w>": 3146,
  "bever": 43804,
  "bey": 9911,
  "beyond</w>": 10382,
  "bf</w>": 42296,
  "bg": 45137,
  "bgm": 41318,
  "bgm</w>": 45783,
  "bi": 1576,
  "bi</w>": 9063,
  "bia</w>": 16672,
  "bian</w>": 29788,
  "bias</w>": 32046,
  "bible</w>": 31839,
  "bic": 29544,
  "bic</w>": 33331,
  "bicy": 39963,
  "bid</w>": 19605,
  "bie</w>": 26493,
  "bies</w>": 46272,
  "big</w>": 4140,
  "bigger</w>": 17993,
  "biggest</w>": 11058,
  "bike</w>": 20800,
  "bil": 5328,
  "bility</w>": 24918,
  "bill": 43119,
  "bill</w>": 6242,
  "billion": 42550,
  "billion</w>": 8356,
  "billions</w>": 37402,
  "bills</w>": 23308,
  "billy</w>": 49138,
  "bin": 16961,
  "bin</w>": 20152,
  "binary</w>": 48401,
  "binding</w>": 44936,
  "bing</w>": 10957,
  "bio": 14043,
  "bio</w>": 28909,
  "biological</w>": 34786,
  "biology</w>": 42351,
  "bir": 7054,
  "bird</w>": 24724,
  "birds</w>": 29846,
  "birth": 28102,
  "birth</w>": 17229,
  "birthday</w>": 34318,
  "bis": 17508,
  "bis</w>": 39223,
  "bishop</w>": 38671,
  "bit": 5941,
  "bit</w>": 5053,
  "bitcoin</w>": 12922,
  "bite</w>": 47516,
  "bited</w>": 33871,
  "biting</w>": 45434,
  "bition</w>": 30417,
  "bits</w>": 18774,
  "bizar": 42093,
  "bizarre</w>": 45854,
  "bj": 24730,
  "bjp</w>": 49333,
  "bl": 1480,
  "bla": 19939,
  "black": 16285,
  "black</w>": 5232,
  "blacks</w>": 44435,
  "blade</w>": 37794,
  "blake</w>": 39149,
  "blame</w>": 24831,
  "blamed</w>": 42772,
  "blan": 24664,
  "blank</w>": 47017,
  "blast</w>": 38256,
  "ble": 15383,
  "ble</w>": 2185,
  "bled</w>": 16303,
  "bles</w>": 18848,
  "bli": 3224,
  "blin": 35924,
  "blin</w>": 43265,
  "blind</w>": 31963,
  "bling</w>": 16205,
  "blo": 6644,
  "bloc": 5946,
  "block": 20530,
  "block</w>": 11581,
  "blockchain</w>": 32752,
  "blocked</w>": 30099,
  "blocking</w>": 38556,
  "blocks</w>": 25818,
  "blog</w>": 13212,
  "bloo": 8779,
  "blood</w>": 11887,
  "bloody</w>": 46954,
  "bloom": 35748,
  "bloomberg</w>": 44470,
  "blow": 37337,
  "blow</w>": 29286,
  "blown</w>": 47850,
  "blu": 20207,
  "blue": 38825,
  "blue</w>": 9340,
  "blues</w>": 42241,
  "bly</w>": 17439,
  "bm": 10558,
  "bm</w>": 27424,
  "bmw": 31274,
  "bmw</w>": 19855,
  "bn": 18992,
  "bn</w>": 24582,
  "bnk": 39674,
  "bo": 1196,
  "bo</w>": 14704,
  "boar": 27746,
  "board</w>": 6094,
  "boards</w>": 28420,
  "boat</w>": 27561,
  "bob</w>": 21834,
  "bodies</w>": 19152,
  "body</w>": 4222,
  "bol": 11539,
  "bol</w>": 30437,
  "bold</w>": 39362,
  "bom": 9931,
  "bomb</w>": 23568,
  "bombing</w>": 39508,
  "bombs</w>": 42226,
  "bon": 10053,
  "bon</w>": 15034,
  "bond</w>": 27125,
  "bonds</w>": 41810,
  "bone</w>": 29527,
  "bones</w>": 40219,
  "bonus</w>": 28474,
  "boo": 4534,
  "book": 30574,
  "book</w>": 3708,
  "books</w>": 9966,
  "boom</w>": 34651,
  "boost</w>": 24379,
  "boot</w>": 30447,
  "bor": 3748,
  "border</w>": 13307,
  "borders</w>": 33032,
  "boring</w>": 47058,
  "born</w>": 10357,
  "borne</w>": 40143,
  "borough</w>": 44984,
  "borro": 35620,
  "boss</w>": 23529,
  "boston</w>": 17743,
  "bot": 12743,
  "bot</w>": 36579,
  "both</w>": 3225,
  "bott": 19715,
  "bottle</w>": 35518,
  "bottom</w>": 14226,
  "bou": 30485,
  "bought</w>": 20044,
  "boun": 16441,
  "bound</w>": 21063,
  "boundaries</w>": 47777,
  "bounds</w>": 46524,
  "bour": 16333,
  "bourne</w>": 38896,
  "bow": 13620,
  "bow</w>": 25184,
  "bowl</w>": 20331,
  "box": 18790,
  "box</w>": 7132,
  "boxes</w>": 35541,
  "boy": 19569,
  "boy</w>": 11546,
  "boys</w>": 15471,
  "bp</w>": 18823,
  "bpm</w>": 45439,
  "br": 1758,
  "br</w>": 27855,
  "bra": 5333,
  "bra</w>": 42195,
  "brac": 49020,
  "brad": 22513,
  "brad</w>": 47127,
  "brady</w>": 48936,
  "brain</w>": 11949,
  "brains</w>": 48101,
  "bran": 13869,
  "branch</w>": 26736,
  "brand": 31595,
  "brand</w>": 14946,
  "brandon</w>": 44316,
  "brands</w>": 30902,
  "brave</w>": 42264,
  "braz": 20951,
  "brazil</w>": 29676,
  "bre": 2925,
  "brea": 31624,
  "breach</w>": 45684,
  "bread</w>": 36099,
  "break": 15824,
  "break</w>": 9628,
  "breakfast</w>": 43341,
  "breaking</w>": 16101,
  "breaks</w>": 29987,
  "breast</w>": 46630,
  "breath</w>": 35642,
  "bren": 32848,
  "brew</w>": 40774,
  "brewer": 38131,
  "brewery</w>": 48812,
  "brewing</w>": 40821,
  "brexit</w>": 32315,
  "bri": 3522,
  "brian</w>": 23377,
  "brick</w>": 46679,
  "bridge</w>": 13887,
  "brief": 22420,
  "brief</w>": 23827,
  "briefly</w>": 40452,
  "brig": 44109,
  "brigh": 41507,
  "bright</w>": 24782,
  "brilli": 30473,
  "brilliant</w>": 36295,
  "bring</w>": 8435,
  "bringing</w>": 18698,
  "brings</w>": 23354,
  "brit": 14250,
  "britain</w>": 15929,
  "british</w>": 9895,
  "bro": 2709,
  "broad": 9415,
  "broad</w>": 25080,
  "broadband</w>": 48719,
  "broadca": 46639,
  "broadcast</w>": 25428,
  "broader</w>": 36361,
  "broke</w>": 20202,
  "broken</w>": 17264,
  "bron": 24523,
  "broo": 39271,
  "brook": 30566,
  "brooklyn</w>": 37863,
  "brother</w>": 16578,
  "brothers</w>": 24395,
  "brought</w>": 10447,
  "brow": 13537,
  "brown</w>": 12545,
  "browser</w>": 26476,
  "bru": 6935,
  "bruce</w>": 33289,
  "brun": 37877,
  "brus": 33040,
  "brutal</w>": 41159,
  "bry": 27214,
  "bs": 4422,
  "bs</w>": 2616,
  "bt": 19459,
  "bt</w>": 10430,
  "bts</w>": 26118,
  "bu": 852,
  "bubble</w>": 41742,
  "buck": 46662,
  "bucks</w>": 43661,
  "bud": 9074,
  "budd": 33233,
  "budget</w>": 11806,
  "buff": 19812,
  "buffalo</w>": 44649,
  "buffer</w>": 48828,
  "bug</w>": 24497,
  "bugs</w>": 41221,
  "buil": 3154,
  "build</w>": 7701,
  "building</w>": 6850,
  "buildings</w>": 21778,
  "builds</w>": 44660,
  "built</w>": 9201,
  "bul": 7849,
  "bulk</w>": 43230,
  "bull": 37060,
  "bull</w>": 32628,
  "bullet</w>": 39797,
  "bun": 10102,
  "bunch</w>": 26145,
  "buntu</w>": 48372,
  "bur": 3833,
  "burden</w>": 36845,
  "bure": 19665,
  "bureau": 38772,
  "bureau</w>": 28768,
  "burg</w>": 21392,
  "burger</w>": 45789,
  "burgh</w>": 29606,
  "buried</w>": 38423,
  "burn</w>": 21275,
  "burned</w>": 42089,
  "burning</w>": 29577,
  "burst</w>": 37064,
  "bury</w>": 30974,
  "bus": 3370,
  "bus</w>": 13813,
  "bush</w>": 13678,
  "busin": 4330,
  "business": 42394,
  "business</w>": 5177,
  "businesses</w>": 16643,
  "buster</w>": 47715,
  "busy</w>": 28527,
  "but": 22012,
  "but</w>": 1038,
  "butt": 14296,
  "butter": 48971,
  "butter</w>": 42403,
  "button</w>": 19083,
  "buttons</w>": 47729,
  "buy</w>": 9511,
  "buyers</w>": 44517,
  "buying</w>": 22947,
  "buzz": 44301,
  "by": 7417,
  "by</w>": 975,
  "bye</w>": 37826,
  "byn</w>": 48845,
  "bê°Ģ</w>": 37929,
  "bëĬĶ</w>": 28611,
  "bìĶ¨</w>": 33017,
  "bìĶ¨ê°Ģ</w>": 41599,
  "bìĶ¨ëĬĶ</w>": 22862,
  "bìĶ¨ìĿĺ</w>": 45314,
  "bìĿĺ</w>": 35860,
  "bíĺķ</w>": 49073,
  "c": 40,
  "c</w>": 257,
  "ca": 3227,
  "ca</w>": 11534,
  "caa</w>": 38066,
  "cab": 15599,
  "cabinet</w>": 31771,
  "cable</w>": 23715,
  "cache</w>": 47911,
  "cad": 34932,
  "caf": 28141,
  "cafe</w>": 43751,
  "cake</w>": 40696,
  "cal": 5340,
  "cal</w>": 19218,
  "calcul": 17202,
  "calculated</w>": 44156,
  "calend": 37775,
  "calendar</w>": 41355,
  "cali": 8395,
  "califor": 9689,
  "california</w>": 9948,
  "call": 3006,
  "call</w>": 5897,
  "called</w>": 4037,
  "calling</w>": 13361,
  "calls</w>": 11632,
  "calm</w>": 39258,
  "cam": 3223,
  "cam</w>": 47196,
  "cambridge</w>": 38769,
  "came</w>": 5084,
  "camer": 8985,
  "camera</w>": 14335,
  "cameras</w>": 28719,
  "cameron</w>": 30340,
  "camp": 26747,
  "camp</w>": 15297,
  "campaig": 4889,
  "campaign</w>": 5534,
  "campaigns</w>": 30379,
  "campbell</w>": 44086,
  "camps</w>": 41274,
  "campus</w>": 20295,
  "can": 2391,
  "can</w>": 1320,
  "canada</w>": 9675,
  "canadi": 12370,
  "canadian</w>": 15143,
  "canadians</w>": 42068,
  "canc": 10351,
  "cancer</w>": 15511,
  "cand": 46228,
  "candi": 7890,
  "candidate</w>": 12602,
  "candidates</w>": 16726,
  "candy</w>": 48344,
  "cannab": 23640,
  "cannabis</w>": 26654,
  "cannot</w>": 8860,
  "cap": 2733,
  "cap</w>": 20275,
  "capabilities</w>": 33888,
  "capability</w>": 46080,
  "capable</w>": 19477,
  "capacity</w>": 18076,
  "capit": 12554,
  "capital</w>": 11277,
  "capitalism</w>": 33769,
  "capitalist</w>": 46554,
  "capitol</w>": 38574,
  "caps</w>": 47950,
  "captain</w>": 21229,
  "caption</w>": 16959,
  "capture</w>": 26182,
  "captured</w>": 26555,
  "car": 2324,
  "car</w>": 6536,
  "carbon</w>": 18345,
  "card</w>": 10271,
  "cardi": 37246,
  "cardin": 37734,
  "cards</w>": 15013,
  "care": 6332,
  "care</w>": 5613,
  "career</w>": 9509,
  "careful</w>": 32122,
  "carefully</w>": 30503,
  "carl</w>": 46108,
  "carol": 16499,
  "carolina</w>": 19066,
  "carried</w>": 18491,
  "carrier</w>": 37262,
  "carries</w>": 39916,
  "carry</w>": 15290,
  "carrying</w>": 23732,
  "cars</w>": 13839,
  "carter</w>": 34881,
  "carto": 33931,
  "cas": 3997,
  "case</w>": 4090,
  "cases</w>": 8880,
  "cash</w>": 15287,
  "cast": 22206,
  "cast</w>": 9088,
  "casting</w>": 29216,
  "castle</w>": 29549,
  "casu": 47482,
  "casual</w>": 49111,
  "cat": 7334,
  "cat</w>": 19536,
  "catastro": 43594,
  "catch</w>": 19153,
  "cate": 14582,
  "categor": 26276,
  "categories</w>": 34830,
  "category</w>": 23212,
  "cath": 19323,
  "catholic</w>": 24912,
  "cats</w>": 34634,
  "cau": 9792,
  "caught</w>": 16641,
  "cause</w>": 9651,
  "caused</w>": 13810,
  "causes</w>": 22116,
  "causing</w>": 24419,
  "cav": 25192,
  "cave</w>": 47500,
  "cb": 47404,
  "cb</w>": 27356,
  "cbc</w>": 44130,
  "cbs": 37453,
  "cbs</w>": 21131,
  "cc": 3104,
  "cc</w>": 8566,
  "cctv</w>": 19733,
  "cd": 15621,
  "cd</w>": 10802,
  "cdc</w>": 45049,
  "ce": 1858,
  "ce</w>": 871,
  "ced</w>": 4774,
  "ceiling</w>": 46929,
  "cel": 17920,
  "cele": 11136,
  "celebr": 12736,
  "celebrate</w>": 34737,
  "celebrated</w>": 46853,
  "celebration</w>": 44293,
  "celebrity</w>": 45019,
  "cell": 25449,
  "cell</w>": 14971,
  "cells</w>": 16826,
  "cem": 43166,
  "cement</w>": 10242,
  "cen": 3042,
  "census</w>": 48035,
  "cent": 5501,
  "cent</w>": 3550,
  "center</w>": 6355,
  "centers</w>": 29607,
  "centr": 5399,
  "central</w>": 9356,
  "centre</w>": 15031,
  "cents</w>": 40741,
  "centuries</w>": 36757,
  "century</w>": 10256,
  "ceo": 12533,
  "ceo</w>": 8899,
  "ceoëĬĶ</w>": 38631,
  "cep": 4989,
  "cept</w>": 6930,
  "ception</w>": 13669,
  "cer": 2653,
  "cer</w>": 47757,
  "cerem": 27772,
  "ceremony</w>": 35465,
  "certain": 8861,
  "certain</w>": 8223,
  "certainly</w>": 10775,
  "certainty</w>": 31822,
  "certi": 20882,
  "certific": 35516,
  "certificate</w>": 45205,
  "ces": 42983,
  "ces</w>": 4141,
  "cf": 22755,
  "cf</w>": 22505,
  "cg": 14607,
  "cg</w>": 38758,
  "cgv": 42562,
  "cgv</w>": 42244,
  "ch": 730,
  "ch</w>": 1098,
  "cha": 3916,
  "cha</w>": 41124,
  "chain</w>": 14696,
  "chair": 14773,
  "chair</w>": 22151,
  "chairman</w>": 18234,
  "chall": 6692,
  "challeng": 11094,
  "challenge</w>": 12015,
  "challenged</w>": 39628,
  "challenges</w>": 19743,
  "challenging</w>": 30703,
  "cham": 6682,
  "chamber</w>": 33433,
  "champi": 11510,
  "champion": 15947,
  "champion</w>": 23081,
  "champions</w>": 27178,
  "championship</w>": 19574,
  "chan": 10446,
  "chan</w>": 47523,
  "chanc": 43491,
  "chance</w>": 9350,
  "chancell": 44344,
  "chancellor</w>": 46266,
  "chances</w>": 27285,
  "chang": 4306,
  "change</w>": 3894,
  "changed</w>": 10348,
  "changes</w>": 7529,
  "changing</w>": 16039,
  "chann": 29489,
  "channel</w>": 16851,
  "channels</w>": 34062,
  "chant</w>": 45511,
  "chaos</w>": 31377,
  "chap": 16023,
  "chapter</w>": 20173,
  "char": 2466,
  "charac": 5290,
  "character": 18552,
  "character</w>": 9347,
  "characteristics</w>": 40419,
  "characters</w>": 12402,
  "charge</w>": 11727,
  "charged</w>": 15172,
  "charges</w>": 14062,
  "charging</w>": 36833,
  "charity</w>": 35130,
  "charles</w>": 21164,
  "charlie</w>": 35243,
  "charlo": 36322,
  "charlotte</w>": 47497,
  "chart</w>": 27930,
  "charter</w>": 43319,
  "chase</w>": 35054,
  "chat": 39018,
  "chat</w>": 28211,
  "che": 4952,
  "che</w>": 29488,
  "cheap</w>": 26858,
  "cheaper</w>": 39344,
  "chec": 5883,
  "check": 36463,
  "check</w>": 8721,
  "checked</w>": 37256,
  "checking</w>": 37844,
  "checks</w>": 32434,
  "ched</w>": 5662,
  "cheese</w>": 34829,
  "chel": 28278,
  "chelsea</w>": 33191,
  "chem": 12397,
  "chemi": 42545,
  "chemical</w>": 21876,
  "chemicals</w>": 43304,
  "chemistry</w>": 43231,
  "chen": 34313,
  "chen</w>": 20809,
  "cher": 23674,
  "cher</w>": 12133,
  "chers</w>": 10605,
  "ches</w>": 6286,
  "chest</w>": 35426,
  "chester</w>": 21478,
  "chi": 18331,
  "chi</w>": 31521,
  "chic": 12105,
  "chicago</w>": 13462,
  "chick": 24508,
  "chicken</w>": 29840,
  "chie": 7789,
  "chief</w>": 8549,
  "chiefs</w>": 46926,
  "chil": 3535,
  "child": 27003,
  "child</w>": 8243,
  "childhood</w>": 34017,
  "children</w>": 5206,
  "chim": 45665,
  "chin": 10245,
  "china</w>": 7079,
  "chinese</w>": 11492,
  "ching</w>": 6009,
  "chip</w>": 29739,
  "chips</w>": 45095,
  "cho": 4776,
  "cho</w>": 46825,
  "chocol": 33808,
  "chocolate</w>": 36327,
  "choice</w>": 10990,
  "choices</w>": 26268,
  "choo": 11206,
  "choose</w>": 14098,
  "choosing</w>": 38531,
  "chop": 49197,
  "chor": 37106,
  "chose</w>": 26196,
  "chosen</w>": 25985,
  "chr": 7371,
  "chri": 11832,
  "chris": 8923,
  "chris</w>": 14633,
  "christ": 14657,
  "christ</w>": 28455,
  "christi": 9129,
  "christian</w>": 14341,
  "christianity</w>": 44469,
  "christians</w>": 30591,
  "christie</w>": 48625,
  "christmas</w>": 20285,
  "christop": 34773,
  "christopher</w>": 38282,
  "chro": 24306,
  "chrome</w>": 42513,
  "chron": 21037,
  "chronic": 35392,
  "chronic</w>": 43147,
  "chuck</w>": 44791,
  "chur": 8199,
  "church</w>": 9816,
  "churches</w>": 46549,
  "chy</w>": 44691,
  "ci": 1066,
  "ci</w>": 26141,
  "cia</w>": 13989,
  "cial</w>": 5526,
  "cially</w>": 39498,
  "cies</w>": 10502,
  "cigare": 34377,
  "cil</w>": 9665,
  "cin": 14389,
  "cinem": 30934,
  "cing</w>": 16315,
  "cir": 6798,
  "circle</w>": 27187,
  "circles</w>": 46149,
  "circu": 24226,
  "circuit</w>": 28913,
  "circul": 27983,
  "circum": 17616,
  "circumstances</w>": 24272,
  "cit": 28174,
  "citation</w>": 36697,
  "cited</w>": 28313,
  "cities</w>": 12446,
  "citing</w>": 35273,
  "citiz": 9333,
  "citizen": 39926,
  "citizen</w>": 27411,
  "citizens</w>": 13494,
  "citizenship</w>": 43838,
  "city</w>": 3401,
  "civil": 29877,
  "civil</w>": 11636,
  "civili": 20252,
  "civilian</w>": 35173,
  "civilians</w>": 31777,
  "civilization</w>": 46066,
  "cj": 8697,
  "cj</w>": 16129,
  "cjëĮĢíķľíĨµ": 45433,
  "cjìłľìĿ¼ìłľ": 29908,
  "ck": 13695,
  "ck</w>": 5391,
  "cked</w>": 20224,
  "cker</w>": 43969,
  "cket</w>": 21951,
  "ckets</w>": 44203,
  "ckey</w>": 24963,
  "cking</w>": 20062,
  "cks</w>": 24622,
  "cl": 1135,
  "cl</w>": 44350,
  "clai": 4245,
  "claim</w>": 10948,
  "claimed</w>": 11953,
  "claiming</w>": 24222,
  "claims</w>": 10898,
  "clam": 45617,
  "clar": 20379,
  "clari": 33367,
  "clark</w>": 35668,
  "class": 11555,
  "class</w>": 6250,
  "classes</w>": 22639,
  "classi": 11909,
  "classic</w>": 18862,
  "classical</w>": 45175,
  "classified</w>": 32626,
  "cle": 2924,
  "cle</w>": 8850,
  "clean": 22622,
  "clean</w>": 14745,
  "cleaning</w>": 47791,
  "clear": 14434,
  "clear</w>": 5955,
  "cleared</w>": 45366,
  "clearfix</w>": 17047,
  "clearly</w>": 12461,
  "cler": 32938,
  "cles</w>": 10722,
  "cleveland</w>": 31405,
  "cli": 7468,
  "click</w>": 13046,
  "clicking</w>": 48636,
  "client</w>": 19911,
  "clients</w>": 27113,
  "clim": 7674,
  "climate</w>": 9912,
  "climb</w>": 46886,
  "clin": 16588,
  "cling</w>": 48034,
  "clinic</w>": 45462,
  "clinical</w>": 31482,
  "clint": 6702,
  "clinton</w>": 6869,
  "clip</w>": 37239,
  "clo": 3116,
  "clock</w>": 27066,
  "clos": 38942,
  "close</w>": 6477,
  "closed</w>": 13710,
  "closely</w>": 24173,
  "closer</w>": 18518,
  "closest</w>": 40986,
  "closing</w>": 28647,
  "closure</w>": 28730,
  "clothes</w>": 31990,
  "clothing</w>": 35776,
  "clou": 34432,
  "cloud</w>": 18663,
  "clu": 2039,
  "club</w>": 8363,
  "clubs</w>": 27988,
  "clusi": 12181,
  "clusion</w>": 16882,
  "cluster</w>": 46641,
  "cm": 15094,
  "cm</w>": 8334,
  "cn": 7917,
  "cnbc": 46536,
  "cnn": 26629,
  "cnn</w>": 15980,
  "co": 1026,
  "co</w>": 4103,
  "coach</w>": 11260,
  "coaches</w>": 31288,
  "coaching</w>": 36482,
  "coal</w>": 22761,
  "coali": 19793,
  "coalition</w>": 20370,
  "coast": 42116,
  "coast</w>": 18326,
  "coat</w>": 49268,
  "coc": 28125,
  "cocaine</w>": 47861,
  "code</w>": 6967,
  "codes</w>": 46211,
  "coding</w>": 38861,
  "coff": 17648,
  "coffee</w>": 21254,
  "cogni": 28648,
  "cognitive</w>": 35565,
  "cohen</w>": 46326,
  "coin</w>": 10679,
  "coinci": 35473,
  "coins</w>": 30050,
  "col": 1922,
  "col</w>": 25537,
  "cold</w>": 15545,
  "coll": 4338,
  "collabor": 20104,
  "collaboration</w>": 37697,
  "collap": 20231,
  "collapse</w>": 29768,
  "colle": 8215,
  "colleagues</w>": 23578,
  "collec": 22256,
  "collect</w>": 31453,
  "collected</w>": 27892,
  "collecting</w>": 44254,
  "collection</w>": 15304,
  "collective</w>": 28542,
  "colleg": 46315,
  "college</w>": 8590,
  "colleges</w>": 46710,
  "collins</w>": 41172,
  "colom": 49374,
  "colon": 21343,
  "color": 17631,
  "color</w>": 11737,
  "colorado</w>": 22764,
  "colors</w>": 29868,
  "colour</w>": 40920,
  "colum": 11872,
  "columbia</w>": 30704,
  "columbus</w>": 48925,
  "column</w>": 27491,
  "com": 851,
  "com</w>": 3847,
  "comb": 6529,
  "combat</w>": 19439,
  "combination</w>": 22667,
  "combine</w>": 39384,
  "combined</w>": 19969,
  "come</w>": 2951,
  "comedi": 44941,
  "comedy</w>": 27588,
  "comes</w>": 5758,
  "comey</w>": 37343,
  "comfor": 12548,
  "comfort</w>": 31973,
  "comfortable</w>": 19160,
  "comic</w>": 23510,
  "comics</w>": 27468,
  "coming</w>": 5396,
  "comm": 1614,
  "comman": 14468,
  "command</w>": 15538,
  "commander</w>": 28669,
  "commands</w>": 44870,
  "comment": 37987,
  "comment</w>": 11719,
  "commentary</w>": 42163,
  "comments</w>": 10824,
  "commer": 11536,
  "commerce</w>": 33016,
  "commercial</w>": 16662,
  "commis": 9161,
  "commission": 21608,
  "commission</w>": 13117,
  "commissioner</w>": 30537,
  "commit": 5412,
  "commit</w>": 29291,
  "commitment</w>": 23933,
  "committed</w>": 17514,
  "committee</w>": 8873,
  "common": 16774,
  "common</w>": 7907,
  "commonly</w>": 33241,
  "commons</w>": 39664,
  "commun": 3777,
  "communic": 9261,
  "communicate</w>": 39456,
  "communication</w>": 20096,
  "communications</w>": 19933,
  "communist</w>": 32675,
  "communities</w>": 15664,
  "community</w>": 5438,
  "comp": 2166,
  "compan": 6126,
  "companies</w>": 7227,
  "company</w>": 4311,
  "compar": 13389,
  "compare</w>": 31845,
  "compared</w>": 12256,
  "comparing</w>": 48305,
  "comparison</w>": 25012,
  "compati": 31313,
  "compatible</w>": 40970,
  "compe": 6122,
  "compelling</w>": 44199,
  "compens": 26869,
  "compensation</w>": 36573,
  "compete</w>": 28477,
  "competi": 8637,
  "competing</w>": 36431,
  "competition</w>": 15283,
  "competitive</w>": 23174,
  "competitors</w>": 46004,
  "compl": 6415,
  "complain": 16824,
  "complained</w>": 44670,
  "complaint</w>": 27587,
  "complaints</w>": 31000,
  "comple": 4157,
  "complete</w>": 10038,
  "completed</w>": 20810,
  "completely</w>": 10980,
  "completion</w>": 48014,
  "complex": 36557,
  "complex</w>": 13573,
  "complexity</w>": 43466,
  "compli": 37011,
  "compliance</w>": 44456,
  "complic": 19442,
  "complicated</w>": 27404,
  "compon": 15126,
  "component</w>": 26344,
  "components</w>": 25166,
  "compos": 35779,
  "composed</w>": 46586,
  "composition</w>": 46573,
  "comprehen": 28012,
  "comprehensive</w>": 33634,
  "compris": 47472,
  "compromise</w>": 40248,
  "compu": 7460,
  "computer</w>": 11415,
  "computers</w>": 27885,
  "computing</w>": 41563,
  "con": 809,
  "con</w>": 20380,
  "conc": 27028,
  "conce": 19479,
  "concentr": 20367,
  "concentration</w>": 41926,
  "concep": 26288,
  "concept</w>": 15628,
  "concepts</w>": 37688,
  "concer": 5603,
  "concern</w>": 16939,
  "concerned</w>": 16221,
  "concerning</w>": 38798,
  "concerns</w>": 14202,
  "concert</w>": 35574,
  "conclu": 17766,
  "concluded</w>": 27735,
  "conclusi": 36259,
  "conclusion</w>": 23298,
  "conclusions</w>": 44690,
  "concrete</w>": 34083,
  "condem": 26098,
  "condi": 7399,
  "condition</w>": 17417,
  "conditions</w>": 12208,
  "conduc": 9697,
  "conduct</w>": 18660,
  "conducted</w>": 20201,
  "conducting</w>": 49198,
  "conf": 13056,
  "conference</w>": 10221,
  "confi": 10233,
  "confidence</w>": 20373,
  "confident</w>": 27551,
  "config": 28122,
  "configuration</w>": 36192,
  "confir": 9311,
  "confirm</w>": 30305,
  "confirmation</w>": 46022,
  "confirmed</w>": 14619,
  "confl": 12114,
  "conflict</w>": 16286,
  "conflicts</w>": 41856,
  "confron": 28452,
  "confused</w>": 39278,
  "confusion</w>": 40735,
  "congre": 36070,
  "congres": 22621,
  "congress": 47917,
  "congress</w>": 9595,
  "congressional</w>": 24146,
  "conn": 8867,
  "connec": 8927,
  "connect</w>": 21437,
  "connected</w>": 17901,
  "connecting</w>": 47200,
  "connection</w>": 16360,
  "connections</w>": 30681,
  "connell</w>": 43951,
  "cons</w>": 41778,
  "consci": 17095,
  "conscious</w>": 29614,
  "consciousness</w>": 34973,
  "consecu": 42580,
  "consecutive</w>": 43705,
  "consen": 29253,
  "consensus</w>": 34935,
  "consent</w>": 36586,
  "consequ": 15469,
  "consequence</w>": 49212,
  "consequences</w>": 22728,
  "conserv": 8070,
  "conservation</w>": 40120,
  "conservative</w>": 12415,
  "conservatives</w>": 24294,
  "consi": 3674,
  "consider": 6198,
  "consider</w>": 10921,
  "considerable</w>": 40558,
  "consideration</w>": 36075,
  "considered</w>": 10693,
  "considering</w>": 18894,
  "consist": 12798,
  "consistent</w>": 20072,
  "consistently</w>": 33394,
  "consists</w>": 45173,
  "consol": 18114,
  "console</w>": 27594,
  "conspir": 24367,
  "conspiracy</w>": 29194,
  "constant</w>": 24934,
  "constantly</w>": 26764,
  "constitu": 9111,
  "constitution</w>": 20600,
  "constitutional</w>": 23141,
  "constra": 38237,
  "construc": 9078,
  "construct</w>": 48294,
  "constructed</w>": 37751,
  "construction</w>": 14235,
  "consul": 16449,
  "consum": 7973,
  "consumer</w>": 19555,
  "consumers</w>": 20001,
  "consumption</w>": 27374,
  "cont": 1512,
  "contact</w>": 12170,
  "contacted</w>": 36946,
  "contacts</w>": 48929,
  "contain": 26121,
  "contain</w>": 25233,
  "contained</w>": 29802,
  "container</w>": 39535,
  "containing</w>": 28972,
  "contains</w>": 22270,
  "contam": 41783,
  "contem": 21297,
  "contemporary</w>": 34496,
  "content</w>": 8262,
  "contents</w>": 37487,
  "contest</w>": 29438,
  "context</w>": 16386,
  "contin": 3485,
  "continent</w>": 47848,
  "continu": 5398,
  "continue</w>": 7007,
  "continued</w>": 10665,
  "continues</w>": 13396,
  "continuing</w>": 25928,
  "continuous</w>": 47097,
  "contr": 5341,
  "contract</w>": 12989,
  "contracts</w>": 28437,
  "contradic": 41985,
  "contrary</w>": 36631,
  "contrast</w>": 22597,
  "contribu": 8542,
  "contribute</w>": 30418,
  "contributed</w>": 26809,
  "contributing</w>": 45998,
  "contribution</w>": 35795,
  "contributions</w>": 32034,
  "contro": 3635,
  "control": 11132,
  "control</w>": 5496,
  "controlled</w>": 20228,
  "controller</w>": 29132,
  "controlling</w>": 46770,
  "controls</w>": 26715,
  "controversi": 22056,
  "controversial</w>": 24036,
  "controversy</w>": 30710,
  "conv": 44030,
  "conven": 9770,
  "conveni": 26110,
  "convenient</w>": 45933,
  "convention</w>": 21083,
  "conventional</w>": 29453,
  "conver": 16436,
  "convers": 12279,
  "conversation</w>": 17026,
  "conversations</w>": 32472,
  "conversion</w>": 44021,
  "convert</w>": 42937,
  "converted</w>": 45278,
  "convic": 17741,
  "convicted</w>": 30265,
  "conviction</w>": 42890,
  "convin": 29965,
  "convince</w>": 38781,
  "convinced</w>": 30838,
  "coo": 8836,
  "cook</w>": 26776,
  "cooking</w>": 40646,
  "cool": 24580,
  "cool</w>": 14600,
  "cooper": 19086,
  "cooper</w>": 40328,
  "cooperation</w>": 31558,
  "coordin": 19199,
  "coordinator</w>": 43586,
  "cop": 7258,
  "cop</w>": 40904,
  "cope</w>": 36858,
  "copies</w>": 33837,
  "cops</w>": 41171,
  "copy": 13454,
  "copy</w>": 19139,
  "copyright</w>": 14608,
  "cor": 1927,
  "cord</w>": 46978,
  "core</w>": 10630,
  "corn</w>": 38566,
  "corner": 47514,
  "corner</w>": 20722,
  "corp</w>": 40791,
  "corpor": 8275,
  "corporate</w>": 15381,
  "corporation</w>": 26905,
  "corporations</w>": 29337,
  "corps</w>": 37010,
  "correc": 9846,
  "correct</w>": 17140,
  "correctly</w>": 33259,
  "correspon": 24063,
  "corri": 47559,
  "corru": 17750,
  "corrupt</w>": 46280,
  "corruption</w>": 25930,
  "cos": 28936,
  "cos</w>": 32309,
  "cost</w>": 7273,
  "costs</w>": 11570,
  "cott</w>": 43339,
  "cou": 4788,
  "could</w>": 2154,
  "couldn</w>": 12032,
  "coun": 1711,
  "counc": 35088,
  "council</w>": 10101,
  "counsel": 47869,
  "counsel</w>": 36524,
  "count": 34925,
  "count</w>": 14532,
  "counted</w>": 43716,
  "counter": 16965,
  "counter</w>": 14695,
  "counties</w>": 46359,
  "counting</w>": 45487,
  "countless</w>": 45758,
  "countries</w>": 7646,
  "country</w>": 4184,
  "counts</w>": 29274,
  "county</w>": 8988,
  "coup</w>": 44290,
  "couple</w>": 9845,
  "couples</w>": 39150,
  "cour": 2767,
  "courage</w>": 38165,
  "course</w>": 5513,
  "courses</w>": 42803,
  "court</w>": 5069,
  "courtes": 30292,
  "courtesy</w>": 30718,
  "courts</w>": 26573,
  "cous": 38667,
  "cover": 4921,
  "cover</w>": 8647,
  "coverage</w>": 15766,
  "covered</w>": 8655,
  "covering</w>": 22271,
  "covers</w>": 27788,
  "covid</w>": 33483,
  "cow": 33280,
  "cowboys</w>": 49253,
  "cp": 15029,
  "cp</w>": 23845,
  "cpu</w>": 27925,
  "cr": 2409,
  "cr</w>": 32479,
  "cra": 4242,
  "crack</w>": 39602,
  "craft</w>": 11905,
  "craig</w>": 41889,
  "crash</w>": 23100,
  "cratic</w>": 8925,
  "craw": 36707,
  "crazy</w>": 20382,
  "cre": 1530,
  "crea": 44915,
  "cream</w>": 32002,
  "create</w>": 6921,
  "created</w>": 8389,
  "creates</w>": 29227,
  "creating</w>": 13530,
  "creation</w>": 20692,
  "creative</w>": 18764,
  "creator</w>": 34328,
  "creators</w>": 48935,
  "creature</w>": 39546,
  "creatures</w>": 37580,
  "cred": 7603,
  "credi": 33308,
  "credit</w>": 10760,
  "credited</w>": 42994,
  "credits</w>": 36222,
  "crete</w>": 29526,
  "crew</w>": 18941,
  "cri": 2320,
  "cric": 38385,
  "cricket</w>": 47214,
  "crime</w>": 11746,
  "crimes</w>": 20780,
  "crimin": 7697,
  "criminal</w>": 13254,
  "criminals</w>": 39049,
  "cript</w>": 24200,
  "cris": 34022,
  "crisis</w>": 12324,
  "criter": 36598,
  "criteria</w>": 42607,
  "critic": 16586,
  "critical</w>": 13135,
  "critici": 24593,
  "criticism</w>": 22047,
  "criticized</w>": 34800,
  "critics</w>": 22222,
  "cro": 4171,
  "crop</w>": 43794,
  "crops</w>": 48186,
  "cros": 44910,
  "cross": 31266,
  "cross</w>": 13833,
  "crossed</w>": 43323,
  "crossing</w>": 38849,
  "crow": 10919,
  "crowd</w>": 17358,
  "crown</w>": 33057,
  "cru": 8464,
  "crucial</w>": 27306,
  "crude</w>": 49186,
  "crus": 30069,
  "cruz</w>": 23804,
  "cry": 23725,
  "cry</w>": 31556,
  "cryp": 25059,
  "crypto": 33582,
  "crystal</w>": 38800,
  "cs": 18836,
  "cs</w>": 16018,
  "css</w>": 44762,
  "ct</w>": 25625,
  "ction</w>": 26744,
  "cu": 2358,
  "cu</w>": 28907,
  "cuba</w>": 43709,
  "cul": 4127,
  "cult</w>": 41409,
  "cultiv": 45402,
  "cultural</w>": 17092,
  "culture</w>": 10213,
  "cultures</w>": 46622,
  "cum": 13705,
  "cup</w>": 11807,
  "cur": 2486,
  "curious</w>": 39012,
  "curren": 3786,
  "currencies</w>": 47418,
  "currency</w>": 18404,
  "current</w>": 6395,
  "currently</w>": 8713,
  "curve</w>": 43288,
  "cus": 5817,
  "cus</w>": 19790,
  "custo": 17484,
  "custody</w>": 37855,
  "custom": 7499,
  "custom</w>": 25535,
  "customer</w>": 20540,
  "customers</w>": 13211,
  "customs</w>": 47838,
  "cut</w>": 8405,
  "cuts</w>": 17132,
  "cutting</w>": 23643,
  "cv</w>": 33537,
  "cw</w>": 46914,
  "cy": 5939,
  "cy</w>": 7172,
  "cyber": 33006,
  "cyber</w>": 36683,
  "cycl": 27539,
  "cycle</w>": 19079,
  "cycles</w>": 47962,
  "cycling</w>": 42373,
  "cz": 36162,
  "cê°Ģ</w>": 28002,
  "cë¥¼</w>": 34427,
  "cëĬĶ</w>": 16070,
  "cìĹĲ</w>": 46110,
  "cìĻĢ</w>": 48495,
  "cìĿĺ</w>": 28427,
  "d": 41,
  "d</w>": 234,
  "da": 4158,
  "da</w>": 5723,
  "dable</w>": 23398,
  "dad</w>": 24283,
  "dai": 41210,
  "dail": 9844,
  "daily</w>": 10296,
  "dak": 39554,
  "dakota</w>": 47094,
  "dal": 27406,
  "dal</w>": 27316,
  "dale</w>": 36105,
  "dall": 24642,
  "dallas</w>": 26001,
  "dam": 5234,
  "dam</w>": 29108,
  "damage</w>": 10989,
  "damaged</w>": 35617,
  "damn</w>": 40936,
  "dan": 10097,
  "dan</w>": 11679,
  "dance</w>": 16353,
  "dancing</w>": 44131,
  "dang": 9806,
  "danger</w>": 25077,
  "dangerous</w>": 15559,
  "dani": 18880,
  "daniel</w>": 23218,
  "danny</w>": 47640,
  "dant</w>": 40130,
  "dar": 5840,
  "dar</w>": 41708,
  "daries</w>": 46204,
  "dark": 27305,
  "dark</w>": 11524,
  "darkness</w>": 41768,
  "dary</w>": 18632,
  "das</w>": 36671,
  "dash</w>": 47172,
  "dat": 3415,
  "data</w>": 4112,
  "datab": 20551,
  "database</w>": 24052,
  "date</w>": 4437,
  "dated</w>": 12767,
  "dates</w>": 8960,
  "dating</w>": 26361,
  "dation</w>": 11273,
  "datory</w>": 42980,
  "daugh": 48173,
  "daughter</w>": 15737,
  "dav": 16197,
  "dave</w>": 31196,
  "davi": 40180,
  "david</w>": 8737,
  "davis</w>": 22398,
  "daw": 47718,
  "dawn</w>": 37171,
  "day": 25548,
  "day</w>": 1417,
  "days</w>": 4685,
  "db": 14165,
  "db</w>": 19054,
  "dc": 38425,
  "dc</w>": 11419,
  "dd": 2534,
  "dd</w>": 7957,
  "dddd": 14283,
  "dddddd</w>": 14448,
  "dden</w>": 14375,
  "dding</w>": 25367,
  "ddr</w>": 40253,
  "ddy</w>": 38632,
  "de": 770,
  "de</w>": 1247,
  "dea": 20513,
  "dead": 15618,
  "dead</w>": 9799,
  "deadline</w>": 36028,
  "deadly</w>": 33732,
  "deal": 22656,
  "deal</w>": 6171,
  "dealing</w>": 24273,
  "deals</w>": 24854,
  "dealt</w>": 46194,
  "dean</w>": 34096,
  "dear</w>": 35780,
  "death</w>": 6558,
  "deaths</w>": 23191,
  "deau</w>": 43020,
  "deb": 6052,
  "debate</w>": 12073,
  "debates</w>": 45072,
  "debt</w>": 14840,
  "debu": 40091,
  "debut</w>": 26169,
  "dec": 1895,
  "dec</w>": 24754,
  "decade</w>": 16084,
  "decades</w>": 13189,
  "december</w>": 10184,
  "decent</w>": 30258,
  "decide</w>": 18484,
  "decided</w>": 9549,
  "deciding</w>": 49182,
  "decis": 14808,
  "decision</w>": 7175,
  "decisions</w>": 17031,
  "deck</w>": 24282,
  "decl": 39251,
  "decla": 19488,
  "declar": 25379,
  "declaration</w>": 38860,
  "declare</w>": 48506,
  "declared</w>": 21179,
  "decline</w>": 24284,
  "declined</w>": 22322,
  "decor": 42242,
  "decre": 26285,
  "decrease</w>": 43217,
  "ded</w>": 1499,
  "dedic": 19995,
  "dedicated</w>": 24292,
  "deduc": 45624,
  "deem": 34667,
  "deemed</w>": 39713,
  "deep": 14236,
  "deep</w>": 10856,
  "deeper</w>": 31394,
  "deeply</w>": 24250,
  "def": 3135,
  "def</w>": 33489,
  "default</w>": 20264,
  "defe": 14580,
  "defeat</w>": 25191,
  "defeated</w>": 33076,
  "defen": 5150,
  "defence</w>": 23366,
  "defend": 34741,
  "defend</w>": 24230,
  "defended</w>": 42583,
  "defender</w>": 36542,
  "defenders</w>": 45297,
  "defending</w>": 36179,
  "defense</w>": 8754,
  "defensive</w>": 18029,
  "deficit</w>": 33163,
  "defin": 6699,
  "define</w>": 27835,
  "defined</w>": 19910,
  "defini": 39021,
  "definitely</w>": 15681,
  "definition</w>": 24190,
  "degre": 11908,
  "degree</w>": 16075,
  "degrees</w>": 27532,
  "del": 3149,
  "del</w>": 6584,
  "delay</w>": 30623,
  "delayed</w>": 43440,
  "dele": 24480,
  "deleg": 24299,
  "delegates</w>": 41008,
  "delhi</w>": 36090,
  "deli": 6929,
  "deliber": 29628,
  "deliver": 16037,
  "deliver</w>": 23317,
  "delivered</w>": 21694,
  "delivering</w>": 46042,
  "delivery</w>": 26818,
  "delta</w>": 47443,
  "dem": 7247,
  "dem</w>": 40552,
  "deman": 14625,
  "demand</w>": 13546,
  "demanded</w>": 40121,
  "demanding</w>": 35763,
  "demands</w>": 27324,
  "demo": 4417,
  "demo</w>": 39653,
  "democr": 7101,
  "democracy</w>": 18565,
  "democrat</w>": 26365,
  "democratic</w>": 9466,
  "democrats</w>": 12052,
  "demon": 9989,
  "demonstr": 14473,
  "demonstrate</w>": 36776,
  "demonstrated</w>": 33988,
  "demonstration</w>": 44874,
  "den": 4373,
  "den</w>": 5646,
  "dence</w>": 4877,
  "dency</w>": 18769,
  "dened</w>": 48541,
  "denied</w>": 21719,
  "density</w>": 43170,
  "dent</w>": 2259,
  "dental</w>": 44060,
  "dentally</w>": 39966,
  "dented</w>": 36753,
  "denti": 42458,
  "dential</w>": 9710,
  "dently</w>": 36534,
  "dents</w>": 4572,
  "denver</w>": 32383,
  "deny</w>": 35590,
  "dep": 15387,
  "depar": 29626,
  "depart": 6005,
  "department</w>": 6371,
  "departments</w>": 44750,
  "departure</w>": 41701,
  "depen": 10410,
  "depend</w>": 42717,
  "dependent</w>": 34567,
  "depending</w>": 24629,
  "depends</w>": 32530,
  "depic": 29805,
  "deplo": 17996,
  "deployed</w>": 39487,
  "deployment</w>": 47673,
  "depos": 32808,
  "depression</w>": 27119,
  "depth</w>": 22854,
  "depu": 18857,
  "deputy</w>": 22765,
  "der": 1535,
  "der</w>": 1434,
  "dered</w>": 10909,
  "dering</w>": 15813,
  "derived</w>": 41422,
  "derly</w>": 38155,
  "ders</w>": 4775,
  "derson</w>": 23156,
  "des": 1963,
  "des</w>": 3599,
  "descen": 38007,
  "descri": 5830,
  "describe</w>": 24025,
  "described</w>": 11297,
  "describes</w>": 29265,
  "describing</w>": 39765,
  "description</w>": 23609,
  "deser": 13882,
  "desert</w>": 36567,
  "deserve</w>": 36640,
  "deserves</w>": 47231,
  "desi": 15587,
  "desig": 4375,
  "design": 39036,
  "design</w>": 8109,
  "designated</w>": 43620,
  "designed</w>": 11530,
  "designer</w>": 34731,
  "designers</w>": 47476,
  "designs</w>": 34467,
  "desire</w>": 21947,
  "desired</w>": 47776,
  "desk": 32344,
  "desk</w>": 35670,
  "desktop</w>": 35017,
  "desp": 7352,
  "desper": 25424,
  "desperate</w>": 39108,
  "despite</w>": 7555,
  "dest": 15026,
  "dest</w>": 28780,
  "destination</w>": 39849,
  "destiny</w>": 42813,
  "destro": 12491,
  "destroy</w>": 27658,
  "destroyed</w>": 25182,
  "destroying</w>": 49147,
  "destruc": 20898,
  "destruction</w>": 27478,
  "det": 5869,
  "detail</w>": 21289,
  "detailed</w>": 23754,
  "details</w>": 10810,
  "detained</w>": 46795,
  "detec": 15783,
  "detect</w>": 43797,
  "detected</w>": 46479,
  "detention</w>": 40620,
  "deter": 36742,
  "determin": 8898,
  "determination</w>": 45452,
  "determine</w>": 19799,
  "determined</w>": 19250,
  "detro": 23895,
  "detroit</w>": 24290,
  "dev": 5848,
  "dev</w>": 39663,
  "devast": 35272,
  "devastating</w>": 45577,
  "devel": 3327,
  "develop": 3616,
  "develop</w>": 16185,
  "developed</w>": 12708,
  "developer</w>": 23289,
  "developers</w>": 18119,
  "developing</w>": 18464,
  "development</w>": 6592,
  "developments</w>": 41001,
  "devi": 48715,
  "device</w>": 12002,
  "devices</w>": 14489,
  "devil</w>": 40318,
  "devoted</w>": 47642,
  "dex</w>": 43161,
  "dez</w>": 42809,
  "df</w>": 22671,
  "dg": 9400,
  "dgb": 46643,
  "dge": 40532,
  "dge</w>": 4408,
  "dged</w>": 23899,
  "dgers</w>": 39098,
  "dges</w>": 28699,
  "dging</w>": 43421,
  "dh": 42355,
  "di": 788,
  "di</w>": 6645,
  "dia</w>": 17043,
  "diabe": 46391,
  "diag": 19127,
  "diagno": 23694,
  "dialo": 27778,
  "dialogue</w>": 34115,
  "diam": 31635,
  "diamond</w>": 42016,
  "dian</w>": 21257,
  "dic": 2910,
  "dic</w>": 33863,
  "dick</w>": 41776,
  "dict": 28268,
  "dict</w>": 44908,
  "did</w>": 2954,
  "didn</w>": 4435,
  "die</w>": 10279,
  "died</w>": 10986,
  "diego</w>": 29733,
  "dies</w>": 12467,
  "diet</w>": 28635,
  "diff": 2559,
  "differ": 3108,
  "difference</w>": 12158,
  "differences</w>": 20615,
  "different</w>": 4047,
  "differently</w>": 35993,
  "diffic": 7702,
  "difficult</w>": 9321,
  "difficulty</w>": 35379,
  "dig": 7982,
  "dig</w>": 42850,
  "digital</w>": 11649,
  "dil": 27065,
  "dimen": 25331,
  "dimin": 45764,
  "din": 5714,
  "din</w>": 27574,
  "ding</w>": 1245,
  "dings</w>": 10263,
  "dinner</w>": 28135,
  "dipl": 20832,
  "diplom": 21119,
  "diplomatic</w>": 38428,
  "dir": 22080,
  "direc": 3174,
  "direct</w>": 11970,
  "directed</w>": 22977,
  "direction</w>": 16143,
  "directions</w>": 44526,
  "directly</w>": 11424,
  "director</w>": 7447,
  "directors</w>": 41146,
  "directory</w>": 45382,
  "dirty</w>": 35908,
  "dis": 1511,
  "dis</w>": 42589,
  "disabled</w>": 40862,
  "disagree</w>": 45244,
  "disap": 20864,
  "disappeared</w>": 46817,
  "disappointed</w>": 39093,
  "disaster</w>": 26735,
  "disc</w>": 45451,
  "disci": 22675,
  "discipl": 24870,
  "discipline</w>": 43085,
  "disclosed</w>": 47450,
  "disclosure</w>": 41586,
  "disco": 24861,
  "discover</w>": 31824,
  "discovered</w>": 16089,
  "discovery</w>": 26007,
  "discre": 41051,
  "discrimin": 19078,
  "discrimination</w>": 27099,
  "discus": 6641,
  "discuss</w>": 19628,
  "discussed</w>": 23003,
  "discussing</w>": 37242,
  "discussion</w>": 16782,
  "discussions</w>": 31363,
  "disease</w>": 14933,
  "diseases</w>": 35786,
  "disgu": 39019,
  "dish</w>": 17550,
  "disk</w>": 44955,
  "dismissed</w>": 35449,
  "disney</w>": 27591,
  "disorder</w>": 35351,
  "disorders</w>": 48672,
  "dispen": 43568,
  "display</w>": 15020,
  "displayed</w>": 39501,
  "displays</w>": 45464,
  "dispu": 21454,
  "dispute</w>": 36368,
  "disru": 42447,
  "disrup": 40024,
  "dist": 7083,
  "distance</w>": 19723,
  "distant</w>": 45349,
  "distinc": 19832,
  "distinct</w>": 37535,
  "distingu": 34627,
  "distor": 44121,
  "distr": 8218,
  "distri": 10801,
  "distribu": 10820,
  "distributed</w>": 29051,
  "distribution</w>": 20305,
  "district</w>": 11182,
  "districts</w>": 41259,
  "distur": 28589,
  "disturbing</w>": 48660,
  "dit": 30291,
  "dity</w>": 40596,
  "dium</w>": 41863,
  "div": 21977,
  "div</w>": 37498,
  "dive</w>": 44816,
  "diver": 41632,
  "diverse</w>": 33201,
  "diversity</w>": 26319,
  "divi": 17185,
  "divide</w>": 43671,
  "divided</w>": 31611,
  "divine</w>": 48887,
  "division</w>": 15696,
  "divor": 35784,
  "divorce</w>": 49228,
  "dj": 18724,
  "dj</w>": 21703,
  "dl": 16443,
  "dl</w>": 42269,
  "dlc</w>": 38602,
  "dle</w>": 25377,
  "dless</w>": 19822,
  "dly</w>": 5866,
  "dm": 16280,
  "dm</w>": 46429,
  "dmz</w>": 36778,
  "dn": 6007,
  "dn</w>": 2950,
  "dna": 30592,
  "dna</w>": 16894,
  "dnc</w>": 48632,
  "dness</w>": 31750,
  "dney</w>": 27990,
  "do": 1040,
  "do</w>": 1660,
  "doc": 4210,
  "doc</w>": 47988,
  "dock</w>": 48951,
  "doctor</w>": 17525,
  "doctors</w>": 21512,
  "doctr": 36024,
  "doctrine</w>": 47308,
  "docum": 6771,
  "document</w>": 18216,
  "documentary</w>": 33567,
  "documentation</w>": 42142,
  "documented</w>": 31407,
  "documents</w>": 15359,
  "does": 4945,
  "does</w>": 3877,
  "doesn</w>": 4966,
  "dog</w>": 13421,
  "dogs</w>": 21092,
  "doing</w>": 5358,
  "dol": 7518,
  "doll": 10393,
  "dollar</w>": 21617,
  "dollars</w>": 15010,
  "dolph": 42856,
  "dom": 5709,
  "dom</w>": 6026,
  "domain</w>": 28664,
  "domes": 16226,
  "domestic</w>": 17608,
  "domin": 11226,
  "dominant</w>": 34007,
  "dominated</w>": 36152,
  "don": 4479,
  "don</w>": 2209,
  "donald</w>": 9075,
  "donations</w>": 35872,
  "done</w>": 5544,
  "dones": 39321,
  "donors</w>": 40357,
  "door</w>": 10883,
  "doors</w>": 23352,
  "dor": 17447,
  "dor</w>": 30181,
  "dors</w>": 45042,
  "dos</w>": 28280,
  "dose</w>": 37329,
  "dot</w>": 32449,
  "dou": 5570,
  "doub": 43163,
  "double</w>": 13156,
  "doubt</w>": 16834,
  "douglas</w>": 49008,
  "dow": 5519,
  "dow</w>": 19658,
  "down": 7073,
  "down</w>": 2715,
  "download</w>": 17400,
  "downs</w>": 30426,
  "downtown</w>": 25222,
  "doz": 25536,
  "dozen</w>": 26261,
  "dozens</w>": 26887,
  "dp</w>": 24698,
  "dr": 3032,
  "dr</w>": 8260,
  "dra": 4234,
  "dra</w>": 41787,
  "draft</w>": 14232,
  "drafted</w>": 40680,
  "drag": 14358,
  "drag</w>": 40512,
  "dragon</w>": 25254,
  "dram": 18568,
  "drama</w>": 28911,
  "dramatic</w>": 30689,
  "dramatically</w>": 39705,
  "draw</w>": 15533,
  "drawing</w>": 25505,
  "drawn</w>": 22452,
  "dre": 2471,
  "dream": 35203,
  "dream</w>": 14423,
  "dreams</w>": 31421,
  "dred</w>": 22329,
  "dren</w>": 5183,
  "dress</w>": 30585,
  "dressed</w>": 41183,
  "drew</w>": 22898,
  "dri": 3775,
  "drin": 18325,
  "drink</w>": 23871,
  "drinking</w>": 26185,
  "drinks</w>": 46555,
  "drive</w>": 10543,
  "driven</w>": 20916,
  "driver</w>": 15446,
  "drivers</w>": 21367,
  "drives</w>": 36544,
  "driving</w>": 14800,
  "dro": 4970,
  "drome</w>": 42477,
  "drone</w>": 33413,
  "drones</w>": 46738,
  "drop</w>": 13605,
  "dropped</w>": 18760,
  "dropping</w>": 37430,
  "drops</w>": 42299,
  "drove</w>": 35562,
  "dru": 6349,
  "drug</w>": 10385,
  "drugs</w>": 15649,
  "drum</w>": 47845,
  "drunk</w>": 47012,
  "dry</w>": 21455,
  "ds": 14086,
  "ds</w>": 1103,
  "dson</w>": 37221,
  "dt</w>": 30678,
  "du": 1228,
  "du</w>": 21843,
  "dual</w>": 31972,
  "dub": 32433,
  "duc": 1852,
  "duce</w>": 7698,
  "due</w>": 6643,
  "duke</w>": 36564,
  "dul": 23208,
  "dule</w>": 15097,
  "dum": 20082,
  "dum</w>": 25891,
  "dun": 16313,
  "dur": 2907,
  "duration</w>": 42048,
  "dure</w>": 34202,
  "dures</w>": 35376,
  "during</w>": 3195,
  "dust</w>": 31985,
  "dutch</w>": 34958,
  "duties</w>": 45191,
  "duty</w>": 22887,
  "dv": 19917,
  "dvd</w>": 31382,
  "dw": 43404,
  "dx</w>": 40306,
  "dy": 8565,
  "dy</w>": 2451,
  "dying</w>": 21004,
  "dynam": 15878,
  "dynamic</w>": 25658,
  "dynamics</w>": 44671,
  "dê°Ģ</w>": 40742,
  "dë¥¼</w>": 35032,
  "dëĬĶ</w>": 31498,
  "dëŀ¨</w>": 38933,
  "dìĿĺ</w>": 35766,
  "e": 42,
  "e</w>": 236,
  "ea": 11827,
  "ea</w>": 20090,
  "eable</w>": 39882,
  "each</w>": 3655,
  "eag": 18297,
  "eager</w>": 45047,
  "eagles</w>": 41950,
  "eaks</w>": 38977,
  "ean</w>": 29306,
  "ear": 2581,
  "ear</w>": 42388,
  "earli": 7289,
  "earlier</w>": 7733,
  "early</w>": 5196,
  "earn</w>": 28350,
  "earned</w>": 23181,
  "earning</w>": 43502,
  "earnings</w>": 43025,
  "ears</w>": 46711,
  "earth": 29313,
  "earth</w>": 10070,
  "earthqu": 38108,
  "eas": 4432,
  "ease</w>": 12207,
  "eases</w>": 34934,
  "easier</w>": 15830,
  "easily</w>": 13092,
  "east</w>": 8922,
  "eastern</w>": 17572,
  "easy</w>": 8063,
  "eat": 43989,
  "eat</w>": 17054,
  "eating</w>": 22983,
  "eb</w>": 36959,
  "ebs</w>": 27797,
  "ec": 639,
  "ec</w>": 19870,
  "ecb</w>": 37121,
  "ece</w>": 24825,
  "ech</w>": 9679,
  "echo": 37124,
  "echo</w>": 42439,
  "eco": 25874,
  "eco</w>": 48685,
  "econom": 4032,
  "economic</w>": 7140,
  "economics</w>": 28637,
  "economist</w>": 42465,
  "economists</w>": 46444,
  "economy</w>": 9498,
  "ecosystem</w>": 47503,
  "ecraft</w>": 36243,
  "ect</w>": 1819,
  "ected</w>": 3572,
  "ecting</w>": 13167,
  "ection</w>": 6846,
  "ections</w>": 33855,
  "ective</w>": 7858,
  "ects</w>": 4085,
  "ed": 2066,
  "ed</w>": 493,
  "eda</w>": 26598,
  "eded</w>": 29365,
  "edge</w>": 13856,
  "edi": 11006,
  "eding</w>": 17646,
  "edings</w>": 45476,
  "edit": 33763,
  "edit</w>": 6037,
  "edited</w>": 40448,
  "editing</w>": 42693,
  "edition</w>": 18713,
  "editor</w>": 15931,
  "editorial</w>": 41805,
  "editors</w>": 44497,
  "edly</w>": 21864,
  "eds</w>": 15605,
  "educ": 6794,
  "educated</w>": 41726,
  "education</w>": 9135,
  "educational</w>": 34172,
  "edul": 17959,
  "edward</w>": 31825,
  "edy</w>": 16529,
  "ee": 25853,
  "ee</w>": 10155,
  "eee</w>": 44234,
  "ees</w>": 42514,
  "ef": 3386,
  "ef</w>": 10267,
  "eff": 3444,
  "effec": 17628,
  "effect</w>": 8826,
  "effective</w>": 13629,
  "effectively</w>": 22314,
  "effects</w>": 11311,
  "effici": 13742,
  "efficiency</w>": 29799,
  "efficient</w>": 23717,
  "effor": 6679,
  "effort</w>": 11406,
  "efforts</w>": 11812,
  "eful</w>": 13432,
  "eg": 8225,
  "egg</w>": 37666,
  "eggs</w>": 36255,
  "ego</w>": 21656,
  "egy": 26414,
  "egyp": 36731,
  "egypt</w>": 27355,
  "egyptian</w>": 42258,
  "eh": 35851,
  "eh</w>": 44658,
  "ei": 2698,
  "ei</w>": 34507,
  "eigh": 31500,
  "eight</w>": 10864,
  "eing</w>": 25027,
  "either</w>": 6867,
  "ek": 40442,
  "ek</w>": 11452,
  "el": 612,
  "el</w>": 1608,
  "ela</w>": 30058,
  "elabor": 43478,
  "eland</w>": 23390,
  "eld</w>": 18311,
  "elderly</w>": 48022,
  "elds</w>": 42105,
  "ele": 6169,
  "ele</w>": 38420,
  "elec": 3251,
  "elect</w>": 36015,
  "elected</w>": 18388,
  "election</w>": 7211,
  "elections</w>": 18199,
  "elector": 26770,
  "electoral</w>": 34091,
  "electr": 9616,
  "electric</w>": 20134,
  "electrical</w>": 43452,
  "electricity</w>": 26133,
  "electro": 38505,
  "electronic</w>": 23708,
  "electronics</w>": 44127,
  "eled</w>": 17613,
  "element</w>": 22431,
  "elementary</w>": 48736,
  "elements</w>": 17415,
  "eleph": 44324,
  "eler": 25457,
  "elers</w>": 45851,
  "eless</w>": 11875,
  "elev": 26198,
  "eli": 14008,
  "eligible</w>": 33410,
  "elim": 18387,
  "elimin": 26635,
  "eliminate</w>": 38585,
  "eline</w>": 26150,
  "elines</w>": 32378,
  "eling</w>": 9753,
  "elite</w>": 23535,
  "eliz": 32175,
  "elizabeth</w>": 35256,
  "ell": 2526,
  "ell</w>": 1632,
  "ella</w>": 26408,
  "elle</w>": 37328,
  "elled</w>": 15828,
  "eller</w>": 24817,
  "elli": 37546,
  "elling</w>": 8886,
  "ells</w>": 7722,
  "els</w>": 5165,
  "else": 23834,
  "else</w>": 8048,
  "elsewhere</w>": 25340,
  "ely</w>": 1559,
  "em": 858,
  "em</w>": 8096,
  "email</w>": 8355,
  "emails</w>": 21028,
  "eman</w>": 21692,
  "embar": 23076,
  "embarr": 31756,
  "embarrass": 33510,
  "embassy</w>": 41694,
  "embed": 42372,
  "embedded</w>": 46282,
  "ember</w>": 4194,
  "embr": 20478,
  "embrac": 38257,
  "embrace</w>": 39572,
  "emen</w>": 29193,
  "ement</w>": 2286,
  "ementary</w>": 32764,
  "ements</w>": 5835,
  "emer": 8066,
  "emerge</w>": 47846,
  "emerged</w>": 28449,
  "emergency</w>": 18003,
  "emerging</w>": 33839,
  "emis": 19533,
  "emissions</w>": 26500,
  "emma</w>": 45036,
  "emo": 11144,
  "emotion</w>": 47896,
  "emotional</w>": 23089,
  "emotions</w>": 38058,
  "emp": 14347,
  "emper": 46596,
  "emphas": 20723,
  "emphasis</w>": 39287,
  "empire</w>": 24144,
  "emplo": 5352,
  "employ": 12894,
  "employe": 10390,
  "employed</w>": 26277,
  "employee</w>": 25054,
  "employees</w>": 13712,
  "employer</w>": 45246,
  "employers</w>": 37890,
  "employment</w>": 15908,
  "empty</w>": 24057,
  "ems</w>": 4043,
  "emy</w>": 10320,
  "en": 481,
  "en</w>": 651,
  "ena</w>": 27865,
  "enable</w>": 25482,
  "enabled</w>": 35810,
  "enc": 2308,
  "ence</w>": 1483,
  "enced</w>": 11118,
  "encer</w>": 44998,
  "ences</w>": 5195,
  "encies</w>": 14850,
  "encing</w>": 21973,
  "encoun": 35759,
  "encounter</w>": 34907,
  "encour": 12553,
  "encourage</w>": 26456,
  "encouraged</w>": 33527,
  "encouraging</w>": 39360,
  "encry": 31600,
  "ency</w>": 5035,
  "end": 3642,
  "end</w>": 1984,
  "enda</w>": 21842,
  "ende": 37250,
  "ended</w>": 6304,
  "ender</w>": 38810,
  "enders</w>": 23184,
  "ending</w>": 7357,
  "endless</w>": 42207,
  "endor": 22330,
  "ends</w>": 5494,
  "ene</w>": 29958,
  "ened</w>": 5252,
  "enem": 24922,
  "enemies</w>": 25772,
  "enemy</w>": 19455,
  "ener": 5971,
  "energy</w>": 6531,
  "eness</w>": 24727,
  "enfor": 13988,
  "enforcement</w>": 15629,
  "eng": 2546,
  "engage</w>": 27226,
  "engaged</w>": 27319,
  "engagement</w>": 37858,
  "engaging</w>": 40111,
  "enge</w>": 11734,
  "enger</w>": 41216,
  "engine": 11480,
  "engine</w>": 16901,
  "engineer</w>": 33377,
  "engineering</w>": 21312,
  "engineers</w>": 33110,
  "engines</w>": 40319,
  "england</w>": 13918,
  "english</w>": 11854,
  "enh": 19874,
  "enhance</w>": 49001,
  "enhanced</w>": 43023,
  "ening</w>": 5244,
  "enix</w>": 31091,
  "enjo": 9525,
  "enjoy</w>": 15951,
  "enjoyed</w>": 28872,
  "enjoying</w>": 48870,
  "enly</w>": 14206,
  "enna</w>": 44538,
  "enni": 29873,
  "enorm": 28731,
  "enormous</w>": 31958,
  "enough</w>": 5037,
  "ens": 18785,
  "ens</w>": 3869,
  "ensure</w>": 14449,
  "ensuring</w>": 45871,
  "ent": 1386,
  "ent</w>": 748,
  "ental</w>": 5429,
  "entally</w>": 27020,
  "entary</w>": 12463,
  "entation</w>": 9640,
  "ente</w>": 47991,
  "ented</w>": 6285,
  "enter": 7363,
  "enter</w>": 14284,
  "entered</w>": 23004,
  "entering</w>": 28706,
  "enterprise</w>": 31029,
  "entertain": 16913,
  "entertainment</w>": 20499,
  "enth": 23705,
  "enthusi": 26737,
  "enti": 1842,
  "ential</w>": 4358,
  "entially</w>": 11367,
  "entials</w>": 48001,
  "entic": 35490,
  "enting</w>": 14557,
  "ention</w>": 42368,
  "entire</w>": 9393,
  "entirely</w>": 16788,
  "entit": 28397,
  "entities</w>": 45941,
  "entitled</w>": 34783,
  "entity</w>": 36168,
  "ently</w>": 4088,
  "ento</w>": 41513,
  "entr": 22437,
  "entrance</w>": 42463,
  "entre": 30631,
  "entrepre": 32514,
  "entry</w>": 20015,
  "ents</w>": 1496,
  "enture</w>": 19880,
  "enty</w>": 12521,
  "envir": 6956,
  "environ": 6992,
  "environment</w>": 11742,
  "environmental</w>": 15877,
  "environments</w>": 44801,
  "eo": 31640,
  "eo</w>": 37936,
  "eon</w>": 48075,
  "eous</w>": 24533,
  "eously</w>": 33297,
  "ep": 3257,
  "ep</w>": 3345,
  "epa</w>": 32963,
  "epi": 26015,
  "epic</w>": 31834,
  "epide": 44233,
  "episo": 10720,
  "episode</w>": 13581,
  "episodes</w>": 29599,
  "epl</w>": 40990,
  "eps</w>": 20778,
  "eq</w>": 45102,
  "equ": 4353,
  "equal</w>": 19106,
  "equality</w>": 20319,
  "equally</w>": 29863,
  "equi": 15986,
  "equip": 18925,
  "equipment</w>": 19097,
  "equipped</w>": 41838,
  "equity</w>": 40854,
  "equivalent</w>": 27764,
  "er": 450,
  "er</w>": 508,
  "era</w>": 10524,
  "eral</w>": 19550,
  "erb": 48253,
  "erc": 14188,
  "ere</w>": 862,
  "ered</w>": 6549,
  "eric</w>": 20505,
  "eries</w>": 32874,
  "ering</w>": 6590,
  "erly</w>": 38249,
  "ero": 19087,
  "ero</w>": 29536,
  "erous</w>": 9935,
  "err": 23180,
  "error</w>": 16237,
  "errors</w>": 34256,
  "ers</w>": 859,
  "ership</w>": 13947,
  "erson</w>": 28897,
  "erup": 46551,
  "ery</w>": 8863,
  "es": 641,
  "es</w>": 547,
  "esa</w>": 36005,
  "escal": 34658,
  "escap": 16131,
  "escape</w>": 23302,
  "esday</w>": 5539,
  "ese</w>": 1850,
  "esg</w>": 45579,
  "esh</w>": 19960,
  "esis</w>": 42532,
  "esome</w>": 20959,
  "esp": 5892,
  "espec": 7482,
  "especially</w>": 7537,
  "espn</w>": 27982,
  "esports</w>": 49364,
  "ess": 1824,
  "ess</w>": 1335,
  "essay</w>": 46220,
  "essed</w>": 13216,
  "essence</w>": 45643,
  "essential</w>": 22512,
  "essentially</w>": 20782,
  "esses</w>": 8236,
  "essing</w>": 14974,
  "ession</w>": 21526,
  "essive</w>": 37461,
  "essor</w>": 10878,
  "essors</w>": 35050,
  "est": 4535,
  "est</w>": 1337,
  "establ": 8576,
  "establish</w>": 28415,
  "established</w>": 16299,
  "establishment</w>": 26413,
  "estate</w>": 24158,
  "esti": 4544,
  "estim": 9557,
  "estimate</w>": 28206,
  "estimated</w>": 18332,
  "estimates</w>": 25987,
  "ests</w>": 29483,
  "et": 3793,
  "et</w>": 1134,
  "etary</w>": 21877,
  "etc</w>": 14169,
  "eter": 32181,
  "eter</w>": 49391,
  "etf": 39330,
  "etf</w>": 31596,
  "eth": 9986,
  "eth</w>": 17483,
  "ethical</w>": 40734,
  "ethics</w>": 35318,
  "ethnic</w>": 33436,
  "eties</w>": 43442,
  "etr": 30341,
  "ets</w>": 10651,
  "ett</w>": 49103,
  "ette</w>": 25467,
  "etts</w>": 30992,
  "ety</w>": 5395,
  "eu": 3518,
  "eu</w>": 6900,
  "eur</w>": 36739,
  "euro": 4911,
  "euro</w>": 35663,
  "europe": 8852,
  "europe</w>": 9823,
  "european</w>": 9402,
  "ev": 1317,
  "ev</w>": 25231,
  "eva</w>": 39494,
  "evacu": 41043,
  "eval</w>": 45098,
  "evalu": 19797,
  "evaluate</w>": 48846,
  "evaluation</w>": 46612,
  "evangel": 40879,
  "evans</w>": 46428,
  "eve</w>": 13098,
  "even</w>": 2173,
  "evening</w>": 19893,
  "event": 10511,
  "event</w>": 7465,
  "events</w>": 9359,
  "eventually</w>": 11652,
  "ever": 3320,
  "ever</w>": 3754,
  "every": 3454,
  "every</w>": 3614,
  "everybody</w>": 18726,
  "everyday</w>": 34112,
  "everyone</w>": 6964,
  "everything</w>": 6629,
  "everywhere</w>": 27155,
  "evi": 5690,
  "evidence</w>": 7629,
  "evident</w>": 47992,
  "evil</w>": 20463,
  "evol": 11768,
  "evolution</w>": 23772,
  "evolved</w>": 40405,
  "ex": 898,
  "ex</w>": 9057,
  "exac": 10457,
  "exact</w>": 26709,
  "exactly</w>": 11100,
  "exam": 4258,
  "examination</w>": 48461,
  "examine</w>": 40557,
  "examined</w>": 43411,
  "example</w>": 5599,
  "examples</w>": 20860,
  "exc": 6084,
  "exce": 30336,
  "excell": 19627,
  "excellent</w>": 22807,
  "excep": 27427,
  "except</w>": 17066,
  "exception</w>": 26649,
  "excess</w>": 46254,
  "excessive</w>": 47550,
  "exchange</w>": 15024,
  "exchanges</w>": 47858,
  "excit": 43649,
  "excited</w>": 21026,
  "exciting</w>": 24956,
  "exclu": 31259,
  "exclusi": 17276,
  "exclusive</w>": 26206,
  "exclusively</w>": 41256,
  "excuse</w>": 40946,
  "exec": 6668,
  "execu": 7338,
  "execute</w>": 48210,
  "executed</w>": 41483,
  "execution</w>": 36417,
  "executive</w>": 10890,
  "executives</w>": 36795,
  "exem": 34739,
  "exerc": 15827,
  "exercise</w>": 20954,
  "exha": 32948,
  "exhi": 22500,
  "exi": 12177,
  "exist": 17844,
  "exist</w>": 17638,
  "existed</w>": 40671,
  "existence</w>": 22184,
  "existing</w>": 15001,
  "exists</w>": 26684,
  "exit</w>": 27192,
  "exp": 3363,
  "expan": 11395,
  "expand</w>": 24696,
  "expanded</w>": 31267,
  "expanding</w>": 35287,
  "expansion</w>": 21832,
  "expec": 19240,
  "expect</w>": 11488,
  "expectations</w>": 28443,
  "expected</w>": 8030,
  "expecting</w>": 43022,
  "expects</w>": 43390,
  "expen": 10992,
  "expense</w>": 40933,
  "expenses</w>": 41471,
  "expensive</w>": 17809,
  "exper": 6505,
  "experi": 4691,
  "experience</w>": 6307,
  "experienced</w>": 19826,
  "experiences</w>": 21875,
  "experiencing</w>": 48666,
  "experim": 12314,
  "experiment</w>": 25276,
  "experimental</w>": 39185,
  "experiments</w>": 34811,
  "expert</w>": 21779,
  "expertise</w>": 47708,
  "experts</w>": 17453,
  "expl": 5379,
  "explain</w>": 16370,
  "explained</w>": 15300,
  "explaining</w>": 37465,
  "explains</w>": 21944,
  "explan": 22008,
  "explanation</w>": 27330,
  "explic": 25091,
  "explicitly</w>": 42966,
  "explo": 8732,
  "exploit</w>": 47936,
  "exploration</w>": 40865,
  "explore</w>": 26795,
  "exploring</w>": 43733,
  "explosion</w>": 38281,
  "explosive</w>": 45675,
  "export</w>": 38065,
  "expos": 22626,
  "exposed</w>": 25494,
  "exposure</w>": 27310,
  "expres": 9515,
  "express</w>": 21776,
  "expressed</w>": 20199,
  "expression</w>": 21604,
  "ext": 12668,
  "ext</w>": 14822,
  "exten": 8846,
  "extend</w>": 31619,
  "extended</w>": 23344,
  "extension</w>": 26201,
  "extensive</w>": 31847,
  "extent</w>": 24404,
  "exter": 21995,
  "external</w>": 27975,
  "extr": 7525,
  "extra": 30019,
  "extra</w>": 12917,
  "extract</w>": 48129,
  "extraordinary</w>": 36824,
  "extre": 8301,
  "extrem": 13341,
  "extreme</w>": 19141,
  "extremely</w>": 15473,
  "ey": 10200,
  "ey</w>": 3336,
  "eye": 36433,
  "eye</w>": 13129,
  "eyes</w>": 12022,
  "ez</w>": 14603,
  "eìĬ¤íı¬ì¸ł</w>": 43811,
  "eíİ¸íķľ": 44298,
  "eíİ¸íķľìĦ¸ìĥģ</w>": 49303,
  "f": 43,
  "f</w>": 269,
  "fa": 3428,
  "fa</w>": 8230,
  "fab": 21327,
  "fac": 1689,
  "face": 7300,
  "face</w>": 4668,
  "facebook</w>": 7643,
  "faced</w>": 18137,
  "faces</w>": 16762,
  "facilit": 36451,
  "facilities</w>": 25549,
  "facility</w>": 22048,
  "facing</w>": 18478,
  "fact</w>": 4907,
  "faction</w>": 32862,
  "factor</w>": 18130,
  "factors</w>": 19251,
  "factory</w>": 22563,
  "facts</w>": 18336,
  "faculty</w>": 41684,
  "fai": 28869,
  "fail": 6431,
  "fail</w>": 23608,
  "failed</w>": 12414,
  "failing</w>": 30280,
  "fails</w>": 41672,
  "failure</w>": 17209,
  "fair": 14606,
  "fair</w>": 11950,
  "fairly</w>": 21572,
  "faith</w>": 16630,
  "fake</w>": 23312,
  "fal": 10133,
  "fall": 9639,
  "fall</w>": 9071,
  "fallen</w>": 29714,
  "falling</w>": 24445,
  "falls</w>": 24796,
  "false</w>": 15429,
  "fam": 3179,
  "fame</w>": 34098,
  "famil": 12205,
  "famili": 16495,
  "familiar</w>": 17908,
  "families</w>": 12616,
  "family</w>": 4717,
  "famous</w>": 15709,
  "fan": 25004,
  "fan</w>": 13531,
  "fans</w>": 8790,
  "fantas": 13295,
  "fantastic</w>": 29389,
  "fantasy</w>": 22018,
  "far": 7121,
  "far</w>": 4573,
  "fare</w>": 16530,
  "farm</w>": 23342,
  "farmers</w>": 27767,
  "farms</w>": 45706,
  "fas": 11708,
  "fasc": 38096,
  "fascin": 37849,
  "fascinating</w>": 47166,
  "fashi": 19782,
  "fashion</w>": 24866,
  "fast": 29779,
  "fast</w>": 9570,
  "faster</w>": 19522,
  "fastest</w>": 47429,
  "fat": 20705,
  "fat</w>": 22429,
  "fatal</w>": 43677,
  "fate</w>": 24418,
  "father</w>": 8865,
  "fault</w>": 35667,
  "fav": 6216,
  "favor": 10529,
  "favor</w>": 21849,
  "favorite</w>": 13195,
  "favour": 33545,
  "favour</w>": 44657,
  "favourite</w>": 43917,
  "fax</w>": 42666,
  "faì»µ</w>": 40691,
  "fb</w>": 47570,
  "fbi</w>": 14144,
  "fc": 10137,
  "fc</w>": 6055,
  "fcc</w>": 41487,
  "fda</w>": 26946,
  "fe": 1321,
  "fe</w>": 2738,
  "fear</w>": 12807,
  "fears</w>": 32409,
  "feat": 5291,
  "feat</w>": 34808,
  "feature</w>": 12622,
  "featured</w>": 22949,
  "features</w>": 10356,
  "featuring</w>": 29368,
  "feb</w>": 29613,
  "febru": 11145,
  "february</w>": 11159,
  "fed</w>": 17936,
  "feder": 5303,
  "federal</w>": 6178,
  "federation</w>": 34544,
  "fee</w>": 27710,
  "feed": 23869,
  "feed</w>": 20819,
  "feedback</w>": 25911,
  "feeding</w>": 40379,
  "feel": 26902,
  "feel</w>": 5576,
  "feeling</w>": 14118,
  "feelings</w>": 28344,
  "feels</w>": 17660,
  "fees</w>": 25764,
  "feet</w>": 13522,
  "fel": 5537,
  "fell</w>": 17272,
  "fellow</w>": 17700,
  "felt</w>": 9682,
  "fem": 8254,
  "female</w>": 13048,
  "femin": 24116,
  "feminist</w>": 41292,
  "fer": 3035,
  "fer</w>": 10533,
  "ference</w>": 6652,
  "fergus": 42028,
  "ferguson</w>": 42521,
  "ferred</w>": 21157,
  "fers</w>": 37834,
  "fes": 15051,
  "fest</w>": 41342,
  "festiv": 17680,
  "festival</w>": 19697,
  "few</w>": 3886,
  "fewer</w>": 23443,
  "ff": 990,
  "ff</w>": 2010,
  "ffe</w>": 43016,
  "ffed</w>": 44797,
  "fff</w>": 30373,
  "ffff": 12656,
  "ffffff</w>": 12954,
  "ffs</w>": 17183,
  "fi": 948,
  "fi</w>": 16438,
  "fia</w>": 47964,
  "fiber</w>": 46483,
  "fic": 3392,
  "fic</w>": 4914,
  "fication</w>": 10138,
  "fications</w>": 29239,
  "fiction</w>": 25430,
  "fied</w>": 4943,
  "fiel": 4592,
  "field</w>": 5514,
  "fielder</w>": 37637,
  "fields</w>": 22006,
  "fier</w>": 39732,
  "fies</w>": 26016,
  "fif": 14963,
  "fifa</w>": 18372,
  "fifth</w>": 22422,
  "fig": 7497,
  "fig</w>": 33482,
  "figh": 7557,
  "fight</w>": 7878,
  "fighter</w>": 25512,
  "fighters</w>": 21245,
  "fighting</w>": 12442,
  "fights</w>": 37425,
  "figu": 13572,
  "figure</w>": 9495,
  "figured</w>": 40922,
  "figures</w>": 17046,
  "fil": 3207,
  "file</w>": 9534,
  "filed</w>": 17728,
  "files</w>": 14435,
  "filing</w>": 37303,
  "fill</w>": 18361,
  "filled</w>": 18359,
  "filling</w>": 36648,
  "film": 42566,
  "film</w>": 6496,
  "films</w>": 18962,
  "filter</w>": 34361,
  "fin": 1582,
  "final</w>": 6907,
  "finally</w>": 8994,
  "finals</w>": 30030,
  "finan": 7840,
  "finance</w>": 20996,
  "financial</w>": 8482,
  "financing</w>": 46698,
  "find</w>": 4300,
  "finding</w>": 15318,
  "findings</w>": 21839,
  "finds</w>": 26607,
  "fine</w>": 12497,
  "fined</w>": 36950,
  "fing": 25744,
  "finger": 46624,
  "finger</w>": 35961,
  "fingers</w>": 41245,
  "finish</w>": 19860,
  "finished</w>": 16709,
  "finishing</w>": 43930,
  "fir": 1641,
  "fire": 12330,
  "fire</w>": 6934,
  "firearms</w>": 41815,
  "fired</w>": 18237,
  "fires</w>": 37470,
  "firing</w>": 33434,
  "firm": 35475,
  "firm</w>": 14756,
  "firms</w>": 27701,
  "first</w>": 1886,
  "fis": 16669,
  "fiscal</w>": 29008,
  "fish": 36498,
  "fish</w>": 14662,
  "fishing</w>": 40109,
  "fit": 16812,
  "fit</w>": 12293,
  "fitness</w>": 42762,
  "fits</w>": 33111,
  "five</w>": 5091,
  "fix": 21547,
  "fix</w>": 10095,
  "fixed</w>": 18136,
  "fixes</w>": 47275,
  "fl": 2111,
  "fl</w>": 11918,
  "fla": 11558,
  "flag": 36908,
  "flag</w>": 21411,
  "flags</w>": 44542,
  "flash": 47842,
  "flash</w>": 24753,
  "flat</w>": 25076,
  "flavor</w>": 42766,
  "fle": 9384,
  "fled</w>": 40708,
  "fleet</w>": 35649,
  "flew</w>": 47322,
  "flex": 25116,
  "flexibility</w>": 48528,
  "flexible</w>": 45217,
  "fli": 11800,
  "flick": 48947,
  "flight</w>": 15588,
  "flights</w>": 41780,
  "flip</w>": 45291,
  "flix</w>": 32283,
  "flo": 7578,
  "floating</w>": 45075,
  "floo": 20831,
  "flood</w>": 40172,
  "floor</w>": 15235,
  "flor": 12715,
  "florida</w>": 13835,
  "flow": 24927,
  "flow</w>": 17352,
  "flower</w>": 40754,
  "flowers</w>": 43792,
  "flu": 19646,
  "fly</w>": 16891,
  "flying</w>": 22769,
  "flynn</w>": 45163,
  "fm</w>": 27475,
  "fo": 2849,
  "fo</w>": 35685,
  "foc": 5918,
  "focus</w>": 9572,
  "focused</w>": 16391,
  "focuses</w>": 48493,
  "focusing</w>": 34489,
  "fol": 2761,
  "fold</w>": 34122,
  "folk</w>": 42864,
  "folks</w>": 24799,
  "follow": 4376,
  "follow</w>": 8103,
  "followed</w>": 13088,
  "followers</w>": 36712,
  "following</w>": 5731,
  "follows</w>": 23097,
  "fom": 29521,
  "fomc</w>": 37208,
  "fon": 21550,
  "font</w>": 37700,
  "foo": 5010,
  "food</w>": 6616,
  "foods</w>": 31378,
  "foot": 7422,
  "foot</w>": 15049,
  "footage</w>": 28569,
  "football</w>": 10538,
  "for": 947,
  "for</w>": 739,
  "force</w>": 6034,
  "forced</w>": 11413,
  "forces</w>": 9180,
  "forcing</w>": 32220,
  "ford</w>": 7340,
  "fore": 4715,
  "fore</w>": 2483,
  "forec": 26546,
  "forecast</w>": 49017,
  "foreign</w>": 8309,
  "forest</w>": 22561,
  "forever</w>": 24766,
  "forget</w>": 21946,
  "forgotten</w>": 37589,
  "form": 1918,
  "form</w>": 3800,
  "forma": 34032,
  "formal</w>": 31410,
  "forman": 7788,
  "format</w>": 23685,
  "formation</w>": 20894,
  "formed</w>": 11409,
  "former</w>": 4996,
  "formerly</w>": 47292,
  "formers</w>": 48141,
  "forming</w>": 18777,
  "forms</w>": 10005,
  "formula</w>": 32286,
  "fort</w>": 25030,
  "forth</w>": 28019,
  "fortun": 12206,
  "fortune</w>": 38465,
  "forum</w>": 26088,
  "forward</w>": 7685,
  "fossi": 36602,
  "fossil</w>": 36641,
  "foster</w>": 37633,
  "fought</w>": 28117,
  "foun": 6060,
  "found</w>": 3838,
  "foundation</w>": 13035,
  "founded</w>": 23228,
  "founder</w>": 19478,
  "founding</w>": 43275,
  "four": 13474,
  "four</w>": 4489,
  "fourth</w>": 15259,
  "fox": 49292,
  "fox</w>": 12459,
  "fp</w>": 42086,
  "fps</w>": 42325,
  "fr": 2237,
  "fr</w>": 42230,
  "fra": 16365,
  "frag": 26841,
  "frame": 22289,
  "frame</w>": 18700,
  "framework</w>": 26341,
  "fran": 7979,
  "franc": 12712,
  "france</w>": 13904,
  "franch": 20861,
  "franchise</w>": 25590,
  "francis</w>": 36907,
  "francisco</w>": 18598,
  "frank": 23851,
  "frank</w>": 23329,
  "franklin</w>": 46902,
  "fraud</w>": 26751,
  "fre": 4031,
  "fred</w>": 35128,
  "free": 8461,
  "free</w>": 4296,
  "freedom</w>": 11732,
  "fren": 11385,
  "french</w>": 12373,
  "frequ": 12392,
  "frequency</w>": 31007,
  "frequent</w>": 39516,
  "frequently</w>": 24032,
  "fresh": 25102,
  "fresh</w>": 17506,
  "fri": 3080,
  "friday</w>": 8806,
  "fried": 46320,
  "friend": 15354,
  "friend</w>": 8677,
  "friendly</w>": 20785,
  "friends</w>": 7831,
  "friendship</w>": 48911,
  "fro": 1009,
  "from</w>": 1019,
  "fron": 5222,
  "front</w>": 6607,
  "frozen</w>": 38957,
  "fru": 12048,
  "fruit</w>": 32864,
  "frustrated</w>": 47456,
  "frustration</w>": 46356,
  "fs</w>": 12424,
  "ft": 3785,
  "ft</w>": 2248,
  "fta": 20556,
  "fta</w>": 13276,
  "fted</w>": 15838,
  "ften</w>": 5170,
  "fting</w>": 20297,
  "fts</w>": 19184,
  "fu": 1765,
  "fuck</w>": 35306,
  "fucking</w>": 39607,
  "fuel</w>": 17323,
  "ful": 2953,
  "ful</w>": 2807,
  "full</w>": 4940,
  "fully</w>": 5689,
  "fulness</w>": 48868,
  "fun": 2834,
  "fun</w>": 10888,
  "func": 6079,
  "function</w>": 10174,
  "functional</w>": 32084,
  "functionality</w>": 42622,
  "functions</w>": 22562,
  "fund</w>": 13803,
  "fundam": 17842,
  "fundamental</w>": 26637,
  "funded</w>": 24805,
  "funding</w>": 13033,
  "fundra": 37348,
  "funds</w>": 16822,
  "funeral</w>": 48718,
  "funny</w>": 25560,
  "fur": 5020,
  "further": 33230,
  "further</w>": 6849,
  "furthermore</w>": 35646,
  "fusion</w>": 46861,
  "future</w>": 5445,
  "fw</w>": 33623,
  "fx</w>": 42608,
  "fy</w>": 6565,
  "fying</w>": 13294,
  "fëĬĶ</w>": 30368,
  "g": 44,
  "g</w>": 216,
  "ga": 3384,
  "ga</w>": 6842,
  "gab": 24166,
  "gad": 40613,
  "gain</w>": 16172,
  "gained</w>": 28713,
  "gaining</w>": 35669,
  "gains</w>": 31666,
  "gal": 11643,
  "gal</w>": 37359,
  "galax": 22208,
  "galaxy</w>": 24905,
  "gall": 16444,
  "gallery</w>": 29926,
  "gam": 7400,
  "game": 27056,
  "game</w>": 2754,
  "gameplay</w>": 38372,
  "gamers</w>": 48753,
  "games</w>": 4884,
  "gaming</w>": 19682,
  "gan": 3885,
  "gan</w>": 8071,
  "gang": 37058,
  "gang</w>": 27454,
  "gap</w>": 21801,
  "gar": 6240,
  "gar</w>": 30102,
  "gard": 43229,
  "garden</w>": 26815,
  "gare": 24207,
  "gary</w>": 20806,
  "gas": 28417,
  "gas</w>": 9416,
  "gate": 46532,
  "gate</w>": 13863,
  "gates</w>": 30200,
  "gather": 18367,
  "gather</w>": 40254,
  "gathered</w>": 32100,
  "gathering</w>": 33437,
  "gation</w>": 18510,
  "gative</w>": 13969,
  "gau": 42042,
  "gave</w>": 9531,
  "gay</w>": 14114,
  "gaza</w>": 30803,
  "gb": 29935,
  "gb</w>": 12188,
  "gby</w>": 42304,
  "gc</w>": 42099,
  "gd": 10290,
  "gdp</w>": 14158,
  "ge": 1548,
  "ge</w>": 1372,
  "gear</w>": 24841,
  "ged</w>": 5478,
  "gedly</w>": 23220,
  "gel</w>": 18545,
  "gem": 43076,
  "gen": 1930,
  "gen</w>": 11495,
  "gence</w>": 36609,
  "gency</w>": 15250,
  "gender</w>": 12209,
  "gene": 17839,
  "gene</w>": 26211,
  "gener": 3046,
  "general</w>": 5597,
  "generally</w>": 14511,
  "generate</w>": 25588,
  "generated</w>": 26352,
  "generating</w>": 47835,
  "generation</w>": 12924,
  "generations</w>": 34066,
  "genes</w>": 37605,
  "genetic</w>": 28735,
  "genius</w>": 48583,
  "genous</w>": 34101,
  "genre</w>": 36206,
  "gent": 31025,
  "gent</w>": 30076,
  "genu": 28177,
  "genuine</w>": 39586,
  "geo": 21043,
  "geon</w>": 34843,
  "geor": 8642,
  "george</w>": 12327,
  "georgia</w>": 25394,
  "ger": 4374,
  "ger</w>": 5325,
  "german</w>": 12779,
  "germany</w>": 12902,
  "gers</w>": 17611,
  "ges": 37895,
  "ges</w>": 7020,
  "get": 22606,
  "get</w>": 1839,
  "gets</w>": 7327,
  "getting</w>": 5801,
  "getty</w>": 18291,
  "gg": 2711,
  "gg</w>": 39139,
  "gged</w>": 22263,
  "gger</w>": 10660,
  "ggest</w>": 7823,
  "gging</w>": 21261,
  "ggle</w>": 42211,
  "ggs</w>": 26174,
  "ggy</w>": 48137,
  "gh": 878,
  "gh</w>": 1342,
  "ghost</w>": 36690,
  "ght": 13351,
  "ght</w>": 1129,
  "ghts</w>": 3764,
  "ghz</w>": 37351,
  "gi": 1327,
  "gi</w>": 30690,
  "gia</w>": 20546,
  "gian</w>": 34822,
  "giant</w>": 19264,
  "giants</w>": 31406,
  "gib": 46026,
  "gible</w>": 24436,
  "gic</w>": 13830,
  "gie</w>": 31248,
  "gies</w>": 23542,
  "gift</w>": 26482,
  "gifts</w>": 49031,
  "gil": 20421,
  "gin": 12337,
  "gin</w>": 12819,
  "ging</w>": 11631,
  "gins</w>": 41440,
  "gir": 6157,
  "girl": 33665,
  "girl</w>": 10912,
  "girlfriend</w>": 38266,
  "girls</w>": 14075,
  "githu": 43102,
  "github</w>": 43994,
  "give</w>": 5109,
  "given</w>": 5462,
  "gives</w>": 13074,
  "giving</w>": 10316,
  "gk</w>": 48406,
  "gl": 4393,
  "gl</w>": 48373,
  "glad</w>": 42098,
  "glas</w>": 47374,
  "glass</w>": 18918,
  "gle</w>": 7185,
  "glen": 41759,
  "gli": 37989,
  "glo": 5536,
  "glob": 38816,
  "global</w>": 7631,
  "globe</w>": 30492,
  "glory</w>": 44999,
  "glu": 44928,
  "gly": 45377,
  "gm": 10347,
  "gm</w>": 13524,
  "gmail</w>": 48696,
  "gn": 10288,
  "gni": 8657,
  "go": 1152,
  "go</w>": 2453,
  "goal": 38090,
  "goal</w>": 9266,
  "goals</w>": 13197,
  "god": 38530,
  "god</w>": 7934,
  "gods</w>": 41305,
  "goes</w>": 9200,
  "going</w>": 2742,
  "gol": 9050,
  "gold": 24894,
  "gold</w>": 12203,
  "golden</w>": 21185,
  "golf</w>": 35712,
  "gon": 16806,
  "gone</w>": 11272,
  "gonna</w>": 26040,
  "gonz": 49227,
  "goo": 5209,
  "good": 19443,
  "good</w>": 2901,
  "goods</w>": 24771,
  "google</w>": 7838,
  "gop</w>": 16700,
  "gor": 10096,
  "gordon</w>": 35225,
  "gory</w>": 19638,
  "gos</w>": 39156,
  "got</w>": 4091,
  "gott": 15106,
  "gotten</w>": 18641,
  "gov</w>": 21334,
  "gover": 2529,
  "govern": 2597,
  "governance</w>": 49285,
  "governing</w>": 48389,
  "government</w>": 3018,
  "governments</w>": 19313,
  "governor</w>": 16619,
  "gp</w>": 32868,
  "gps</w>": 29228,
  "gpu</w>": 38691,
  "gr": 1237,
  "gra": 3846,
  "grab": 30115,
  "grab</w>": 33753,
  "grac": 45749,
  "grace</w>": 34782,
  "grad": 9774,
  "grade</w>": 15238,
  "graded</w>": 46945,
  "grades</w>": 38794,
  "gradu": 16439,
  "gradually</w>": 45094,
  "graduate</w>": 28110,
  "graham</w>": 32591,
  "grain</w>": 48618,
  "gram</w>": 6015,
  "grams</w>": 44319,
  "gran": 15178,
  "grand": 18249,
  "grand</w>": 14634,
  "grant</w>": 22246,
  "granted</w>": 25403,
  "grants</w>": 43056,
  "grap": 4672,
  "graph": 7593,
  "graph</w>": 16986,
  "grapher</w>": 37625,
  "graphi": 16925,
  "graphic</w>": 17722,
  "graphics</w>": 27252,
  "graphy</w>": 15603,
  "grass": 44441,
  "grass</w>": 38914,
  "grat": 46968,
  "grateful</w>": 44312,
  "grav": 27833,
  "grave</w>": 41493,
  "gravity</w>": 40025,
  "gray</w>": 29866,
  "gre": 1586,
  "great": 13688,
  "great</w>": 3917,
  "greater</w>": 12766,
  "greatest</w>": 18815,
  "greatly</w>": 36772,
  "gree": 43158,
  "greece</w>": 31312,
  "greek</w>": 27698,
  "green": 15744,
  "green</w>": 8735,
  "greenhouse</w>": 46830,
  "greg": 32134,
  "greg</w>": 36072,
  "gres": 7217,
  "gress</w>": 6777,
  "gressive</w>": 15086,
  "grew</w>": 20538,
  "grey</w>": 38669,
  "gri": 8551,
  "grid</w>": 29150,
  "griff": 41763,
  "grip</w>": 49299,
  "gro": 3573,
  "grocer": 48643,
  "gross</w>": 37434,
  "grou": 3019,
  "groun": 36787,
  "ground": 45882,
  "ground</w>": 5962,
  "grounds</w>": 23950,
  "group</w>": 3912,
  "groups</w>": 7619,
  "grow": 9341,
  "grow</w>": 15601,
  "growing</w>": 10923,
  "grown</w>": 21234,
  "growth</w>": 9654,
  "gru": 30946,
  "gry</w>": 19486,
  "gs": 7758,
  "gs</w>": 5302,
  "gsì¹¼": 26985,
  "gsì¹¼íħį": 45994,
  "gsì¹¼íħįìĬ¤</w>": 45791,
  "gt</w>": 22011,
  "gtx</w>": 28212,
  "gu": 1545,
  "guar": 10794,
  "guaran": 18838,
  "guarante": 29370,
  "guarantee</w>": 34277,
  "guaranteed</w>": 40463,
  "guard</w>": 14813,
  "guardian</w>": 27524,
  "guards</w>": 31341,
  "gue</w>": 12348,
  "guess</w>": 19242,
  "guest</w>": 28134,
  "guests</w>": 37312,
  "guid": 21885,
  "guidance</w>": 41991,
  "guide</w>": 18958,
  "guided</w>": 44452,
  "guidelines</w>": 34754,
  "guil": 15087,
  "guilty</w>": 22300,
  "guit": 27163,
  "guitar</w>": 36762,
  "gul": 22910,
  "gulf</w>": 33608,
  "gun": 10401,
  "gun</w>": 8110,
  "guns</w>": 19413,
  "gur": 32880,
  "gus": 33838,
  "gut</w>": 47259,
  "guy</w>": 10302,
  "guys</w>": 11543,
  "gw": 41103,
  "gy": 19648,
  "gy</w>": 2759,
  "gym</w>": 46734,
  "gê°Ģ</w>": 49290,
  "gë¥¼</w>": 48393,
  "gëĬĶ</w>": 32573,
  "gìĿĺ</w>": 31656,
  "h": 45,
  "h</w>": 293,
  "ha": 708,
  "ha</w>": 11294,
  "habit": 27193,
  "habit</w>": 45385,
  "habits</w>": 48152,
  "hable</w>": 42031,
  "hack</w>": 38441,
  "hackers</w>": 47897,
  "hacking</w>": 42339,
  "had</w>": 1468,
  "hadn</w>": 29223,
  "hai": 48112,
  "hai</w>": 39703,
  "hair</w>": 18023,
  "hal": 4297,
  "half": 46782,
  "half</w>": 5694,
  "hall": 33798,
  "hall</w>": 14199,
  "ham": 6703,
  "ham</w>": 9398,
  "hamas</w>": 39296,
  "hamil": 33428,
  "hamilton</w>": 34119,
  "hammer</w>": 39699,
  "hamp": 36218,
  "hampshire</w>": 44959,
  "han": 4346,
  "han</w>": 15936,
  "hand": 6153,
  "hand</w>": 6550,
  "handed</w>": 25360,
  "handful</w>": 32418,
  "handle</w>": 20342,
  "handled</w>": 41010,
  "handling</w>": 30313,
  "hands</w>": 10453,
  "hang": 23891,
  "hang</w>": 29835,
  "hanging</w>": 38121,
  "happ": 3315,
  "happen</w>": 10334,
  "happened</w>": 9514,
  "happening</w>": 18433,
  "happens</w>": 14270,
  "happiness</w>": 38163,
  "happy</w>": 9890,
  "haps</w>": 8804,
  "har": 2775,
  "har</w>": 29212,
  "harass": 26997,
  "harassment</w>": 34568,
  "harb": 38663,
  "hard": 11587,
  "hard</w>": 4616,
  "harder</w>": 23817,
  "hardly</w>": 30137,
  "hardware</w>": 22723,
  "harm": 38848,
  "harm</w>": 25704,
  "harper</w>": 36696,
  "harris</w>": 31800,
  "harry</w>": 27430,
  "harsh</w>": 45141,
  "hart</w>": 38166,
  "harv": 24755,
  "harvard</w>": 32394,
  "harvey</w>": 48769,
  "has": 24977,
  "has</w>": 1171,
  "hash": 42611,
  "hash</w>": 47005,
  "hasn</w>": 17582,
  "hat": 20596,
  "hat</w>": 24608,
  "hate</w>": 16651,
  "hatred</w>": 48170,
  "hatt": 37045,
  "haul</w>": 44819,
  "have</w>": 1007,
  "haven</w>": 13456,
  "having</w>": 5121,
  "haw": 13634,
  "hawai": 36520,
  "hawaii</w>": 44186,
  "hawks</w>": 32169,
  "hay": 33953,
  "haz": 33431,
  "hd": 15597,
  "hd</w>": 12674,
  "he": 1295,
  "he</w>": 955,
  "head": 5623,
  "head</w>": 4200,
  "headed</w>": 24131,
  "header</w>": 48903,
  "heading</w>": 28886,
  "headlines</w>": 41678,
  "headquarters</w>": 32427,
  "heads</w>": 20447,
  "heal": 3901,
  "healing</w>": 42119,
  "health": 24202,
  "health</w>": 4949,
  "healthcare</w>": 31054,
  "healthy</w>": 17051,
  "hear": 16848,
  "hear</w>": 11616,
  "heard</w>": 9661,
  "hearing</w>": 15850,
  "heart": 33458,
  "heart</w>": 9738,
  "hearts</w>": 37642,
  "heat</w>": 15279,
  "heav": 8134,
  "heaven</w>": 37053,
  "heavily</w>": 23440,
  "heavy</w>": 14259,
  "hec": 33632,
  "hed</w>": 22583,
  "hei": 32912,
  "height</w>": 17392,
  "hel": 2227,
  "hel</w>": 32662,
  "held</w>": 7928,
  "helicop": 36815,
  "hell</w>": 19666,
  "hello</w>": 30584,
  "help": 29276,
  "help</w>": 4108,
  "helped</w>": 12536,
  "helpful</w>": 32709,
  "helping</w>": 18100,
  "helps</w>": 19882,
  "hem": 28126,
  "hen": 9944,
  "hen</w>": 29537,
  "hence</w>": 36240,
  "henry</w>": 25447,
  "her": 3902,
  "her</w>": 1702,
  "here</w>": 2625,
  "herit": 32489,
  "heritage</w>": 33143,
  "hero": 16621,
  "hero</w>": 18031,
  "heroes</w>": 26847,
  "herself</w>": 20740,
  "hes": 28276,
  "hes</w>": 21194,
  "hey</w>": 20504,
  "hi": 1125,
  "hi</w>": 12650,
  "hic": 8914,
  "hidden</w>": 23773,
  "hide</w>": 23702,
  "hiding</w>": 43786,
  "hier": 45671,
  "high": 3855,
  "high</w>": 3552,
  "higher</w>": 8144,
  "highest</w>": 14656,
  "highlight</w>": 39016,
  "highlighted</w>": 46797,
  "highlights</w>": 32671,
  "highly</w>": 13252,
  "highway</w>": 31219,
  "hil": 22454,
  "hill": 11961,
  "hill</w>": 14964,
  "hillary</w>": 13529,
  "hills</w>": 41588,
  "him": 7014,
  "him</w>": 2302,
  "himself</w>": 7601,
  "hin": 16744,
  "hing</w>": 25256,
  "hip</w>": 27940,
  "hire</w>": 32391,
  "hired</w>": 29984,
  "hiring</w>": 40647,
  "his": 33290,
  "his</w>": 1140,
  "histor": 9219,
  "historic</w>": 24982,
  "historical</w>": 20198,
  "historically</w>": 40305,
  "history</w>": 5540,
  "hit": 13776,
  "hit</w>": 7348,
  "hitler</w>": 39191,
  "hits</w>": 25285,
  "hitting</w>": 29029,
  "hiv</w>": 35899,
  "hj": 33261,
  "hl</w>": 27970,
  "hn": 3696,
  "hn</w>": 5483,
  "ho": 1100,
  "ho</w>": 17108,
  "hockey</w>": 25939,
  "hol": 3525,
  "hol</w>": 21006,
  "hold</w>": 8277,
  "holder</w>": 31454,
  "holders</w>": 27874,
  "holding</w>": 15627,
  "holds</w>": 18048,
  "hole</w>": 21281,
  "holes</w>": 33005,
  "holi": 27250,
  "holiday</w>": 28070,
  "hollywood</w>": 24271,
  "holy</w>": 26556,
  "hom": 5077,
  "homa</w>": 33218,
  "home": 20221,
  "home</w>": 3924,
  "homeland</w>": 39277,
  "homeless</w>": 37205,
  "homes</w>": 17419,
  "homo": 29311,
  "hon": 6484,
  "honest": 29752,
  "honest</w>": 23758,
  "honestly</w>": 37918,
  "honey</w>": 46030,
  "hong</w>": 26377,
  "honor</w>": 26094,
  "hoo": 14646,
  "hoo</w>": 37444,
  "hood</w>": 9843,
  "hoods</w>": 33613,
  "hook</w>": 38298,
  "hop": 48978,
  "hop</w>": 22229,
  "hope": 20468,
  "hope</w>": 8261,
  "hoped</w>": 35538,
  "hopefully</w>": 26772,
  "hopes</w>": 21323,
  "hoping</w>": 23958,
  "hor": 5656,
  "horiz": 28852,
  "horizon</w>": 47195,
  "horri": 24351,
  "horrible</w>": 44280,
  "horror</w>": 28891,
  "horse</w>": 28982,
  "hosp": 9730,
  "hospit": 26927,
  "hospital</w>": 12695,
  "hospitals</w>": 37110,
  "host</w>": 13514,
  "hosted</w>": 35329,
  "hosti": 32463,
  "hostile</w>": 46218,
  "hosting</w>": 42834,
  "hosts</w>": 39354,
  "hot": 27058,
  "hot</w>": 12892,
  "hotel</w>": 18652,
  "hou": 3298,
  "hour</w>": 11501,
  "hours</w>": 7393,
  "hous": 10335,
  "house": 19192,
  "house</w>": 3860,
  "household</w>": 34046,
  "households</w>": 42845,
  "houses</w>": 22678,
  "housing</w>": 15591,
  "houston</w>": 22727,
  "how</w>": 1970,
  "howard</w>": 30358,
  "howe": 3928,
  "however</w>": 3931,
  "hp": 22814,
  "hp</w>": 11894,
  "hr": 24033,
  "hr</w>": 24678,
  "hs": 33989,
  "hs</w>": 22539,
  "ht": 12851,
  "ht</w>": 33830,
  "html</w>": 19055,
  "htt": 5321,
  "http</w>": 7489,
  "https</w>": 12225,
  "hu": 4283,
  "hu</w>": 44395,
  "hub</w>": 36245,
  "huff": 43180,
  "huge</w>": 10084,
  "hul": 42588,
  "hum": 3507,
  "human": 15943,
  "human</w>": 5235,
  "humanitarian</w>": 45379,
  "humanity</w>": 29887,
  "humans</w>": 17398,
  "hun": 5178,
  "hundre": 14337,
  "hundred</w>": 24140,
  "hundreds</w>": 14492,
  "hungry</w>": 48831,
  "hunt</w>": 28308,
  "hunter</w>": 32176,
  "hunting</w>": 37848,
  "hur": 9472,
  "hurric": 33353,
  "hurricane</w>": 41359,
  "hurt</w>": 20793,
  "hus": 12677,
  "husband</w>": 17804,
  "hy": 5146,
  "hybri": 36721,
  "hybrid</w>": 42282,
  "hydr": 36025,
  "hydro": 27666,
  "hyper": 29933,
  "hypo": 21565,
  "hz</w>": 28898,
  "i": 46,
  "i</w>": 239,
  "ia": 41836,
  "ia</w>": 2936,
  "ial</w>": 3536,
  "ially</w>": 7243,
  "ials</w>": 17636,
  "ian</w>": 6050,
  "ians</w>": 23962,
  "iat": 34402,
  "ib": 7658,
  "ib</w>": 27805,
  "ibility</w>": 30887,
  "ibk": 28674,
  "ible</w>": 15239,
  "ibm</w>": 33924,
  "ic": 596,
  "ic</w>": 1638,
  "ica</w>": 16173,
  "ical</w>": 2325,
  "ically</w>": 6274,
  "icals</w>": 31255,
  "ice": 30288,
  "ice</w>": 1457,
  "iced</w>": 38169,
  "ices</w>": 3831,
  "ich": 42101,
  "ich</w>": 1376,
  "ici": 2405,
  "icial</w>": 17073,
  "ician</w>": 27088,
  "icians</w>": 27565,
  "icide</w>": 18590,
  "icious</w>": 19374,
  "icit</w>": 25886,
  "icity</w>": 21831,
  "ick": 4557,
  "ick</w>": 3090,
  "icking</w>": 26672,
  "icks</w>": 42389,
  "ico</w>": 38571,
  "icon</w>": 21533,
  "iconic</w>": 44218,
  "icop": 34982,
  "ics</w>": 4960,
  "ict": 33896,
  "ict</w>": 5274,
  "icts</w>": 23350,
  "id": 2627,
  "id</w>": 2973,
  "ida</w>": 12597,
  "ide": 3975,
  "ide</w>": 6625,
  "idea</w>": 6315,
  "ideal</w>": 29131,
  "ideas</w>": 12859,
  "ided</w>": 8008,
  "iden": 38746,
  "identi": 6096,
  "identical</w>": 41881,
  "identification</w>": 44184,
  "identified</w>": 17081,
  "identify</w>": 20612,
  "identifying</w>": 47967,
  "identity</w>": 16128,
  "ideological</w>": 47393,
  "ideology</w>": 38880,
  "ides</w>": 18020,
  "idi": 29761,
  "iding</w>": 24656,
  "idly</w>": 27822,
  "ids</w>": 20811,
  "ie": 2830,
  "ie</w>": 8445,
  "ied</w>": 7272,
  "ier</w>": 9542,
  "ies</w>": 1683,
  "iest</w>": 43776,
  "iety</w>": 13453,
  "iev": 7744,
  "if</w>": 1401,
  "iff</w>": 24994,
  "ig": 2046,
  "ig</w>": 41842,
  "ight</w>": 6194,
  "ign": 18303,
  "ign</w>": 7158,
  "igno": 28802,
  "ignor": 28358,
  "ignore</w>": 31180,
  "ignored</w>": 34297,
  "ii": 27160,
  "ii</w>": 7309,
  "iii</w>": 19220,
  "ik</w>": 40290,
  "il": 609,
  "il</w>": 4587,
  "ila</w>": 35140,
  "ile": 21863,
  "ile</w>": 1752,
  "iled</w>": 15952,
  "iler</w>": 32920,
  "ili": 4005,
  "ilian</w>": 47529,
  "iling</w>": 21445,
  "ilit": 30057,
  "ilities</w>": 9326,
  "ility</w>": 3086,
  "ill": 1805,
  "ill</w>": 1132,
  "illa</w>": 23261,
  "illance</w>": 22868,
  "ille</w>": 41276,
  "illed</w>": 11717,
  "illegal</w>": 15216,
  "illegally</w>": 48677,
  "illi": 24951,
  "illing</w>": 9881,
  "illino": 31414,
  "illinois</w>": 31620,
  "illness</w>": 35372,
  "ills</w>": 7976,
  "illu": 20854,
  "illustr": 39805,
  "illy</w>": 46762,
  "ils</w>": 15273,
  "ily</w>": 2921,
  "im": 1058,
  "im</w>": 9981,
  "imag": 8704,
  "image</w>": 6269,
  "images</w>": 9408,
  "imagination</w>": 46290,
  "imagine</w>": 15797,
  "imer</w>": 48658,
  "imf": 38714,
  "imf</w>": 18799,
  "img</w>": 33502,
  "imir</w>": 42740,
  "imm": 25572,
  "immedi": 9039,
  "immediate</w>": 23546,
  "immediately</w>": 11852,
  "immer": 34625,
  "immigr": 9878,
  "immigrant</w>": 42509,
  "immigrants</w>": 23927,
  "immigration</w>": 15863,
  "immune</w>": 40535,
  "imp": 7666,
  "impact</w>": 10117,
  "impacts</w>": 41990,
  "impe": 41180,
  "imperi": 28354,
  "imperial</w>": 43054,
  "impl": 8954,
  "implem": 14472,
  "implement</w>": 30520,
  "implementation</w>": 28204,
  "implemented</w>": 31491,
  "implic": 21743,
  "implications</w>": 36011,
  "import": 4447,
  "import</w>": 29817,
  "importance</w>": 23316,
  "important</w>": 5161,
  "importantly</w>": 34549,
  "impose</w>": 47151,
  "imposed</w>": 37078,
  "impossible</w>": 18061,
  "impres": 13483,
  "impressed</w>": 41929,
  "impression</w>": 39625,
  "impressive</w>": 25277,
  "impro": 6208,
  "improve</w>": 14771,
  "improved</w>": 21405,
  "improvement</w>": 29925,
  "improvements</w>": 30735,
  "improving</w>": 32665,
  "in": 419,
  "in</w>": 536,
  "ina</w>": 4401,
  "inal</w>": 33138,
  "inary</w>": 34038,
  "inated</w>": 20279,
  "ination</w>": 7654,
  "inations</w>": 26163,
  "inaug": 39883,
  "inbox</w>": 43606,
  "inc": 7324,
  "inc</w>": 20355,
  "incar": 44138,
  "ince</w>": 2863,
  "incen": 40146,
  "incenti": 42677,
  "inch</w>": 27801,
  "inches</w>": 35848,
  "inci": 8810,
  "incident</w>": 14076,
  "incidents</w>": 33052,
  "incin": 44900,
  "inclu": 2562,
  "include</w>": 7856,
  "included</w>": 10126,
  "includes</w>": 12025,
  "including</w>": 4040,
  "income</w>": 11198,
  "incorpor": 40910,
  "incre": 3620,
  "increas": 8256,
  "increase</w>": 8768,
  "increased</w>": 11682,
  "increases</w>": 22190,
  "increasing</w>": 17523,
  "increasingly</w>": 18492,
  "incredi": 15704,
  "incredible</w>": 26177,
  "incredibly</w>": 26703,
  "inct</w>": 43960,
  "ind</w>": 3418,
  "inde": 4891,
  "indeed</w>": 13807,
  "indepen": 8610,
  "independence</w>": 24865,
  "independent</w>": 12393,
  "index</w>": 18206,
  "indi": 3492,
  "india</w>": 10372,
  "indian</w>": 16348,
  "indiana</w>": 32231,
  "indians</w>": 46249,
  "indic": 8157,
  "indicate</w>": 29646,
  "indicated</w>": 29682,
  "indicates</w>": 37080,
  "indication</w>": 43513,
  "indigenous</w>": 38261,
  "individu": 6426,
  "individual</w>": 10571,
  "individuals</w>": 13222,
  "indones": 39419,
  "indu": 5434,
  "induc": 28636,
  "induced</w>": 48557,
  "industri": 13728,
  "industrial</w>": 21192,
  "industries</w>": 31583,
  "industry</w>": 7587,
  "ine": 6278,
  "ine</w>": 1516,
  "ined</w>": 6245,
  "inely</w>": 34039,
  "inequality</w>": 38195,
  "iner</w>": 29612,
  "ines</w>": 6462,
  "iness</w>": 20350,
  "inet</w>": 29376,
  "inev": 27600,
  "inevitable</w>": 42702,
  "inf": 6131,
  "infected</w>": 46642,
  "infection</w>": 41596,
  "infer": 43975,
  "infin": 28955,
  "infl": 6742,
  "inflation</w>": 30639,
  "influ": 9198,
  "influence</w>": 14601,
  "influenced</w>": 40852,
  "influential</w>": 43407,
  "info</w>": 20761,
  "inform": 4002,
  "information</w>": 4427,
  "informed</w>": 24850,
  "infr": 40850,
  "infra": 17196,
  "infrastructure</w>": 19135,
  "ing": 1224,
  "ing</w>": 498,
  "inge</w>": 35330,
  "inger</w>": 15907,
  "ingham</w>": 32453,
  "inging</w>": 14475,
  "ingly</w>": 6684,
  "ingness</w>": 44772,
  "ingredi": 29303,
  "ingredients</w>": 35721,
  "ings</w>": 1890,
  "ington</w>": 5667,
  "ingu": 22001,
  "inher": 24241,
  "inhi": 45086,
  "ini": 4420,
  "ini</w>": 25205,
  "inian</w>": 35989,
  "ining</w>": 13334,
  "inion</w>": 14677,
  "initi": 6800,
  "initial</w>": 16432,
  "initially</w>": 20204,
  "initiative</w>": 25312,
  "initiatives</w>": 47617,
  "inity</w>": 34372,
  "inj": 8176,
  "injured</w>": 21596,
  "injuries</w>": 22153,
  "injury</w>": 17058,
  "ink": 47618,
  "ink</w>": 2360,
  "inner</w>": 24875,
  "inning</w>": 10300,
  "innings</w>": 41900,
  "inno": 24347,
  "innocent</w>": 33477,
  "innov": 15716,
  "innovation</w>": 25794,
  "innovative</w>": 42531,
  "ino": 19386,
  "ino</w>": 13595,
  "input</w>": 23252,
  "inquiry</w>": 36047,
  "ins</w>": 4276,
  "insan": 37285,
  "insec": 47694,
  "inser": 31469,
  "insi": 10710,
  "inside</w>": 8351,
  "insider</w>": 47176,
  "insight</w>": 38597,
  "insisted</w>": 35195,
  "inson</w>": 36594,
  "inspec": 25063,
  "inspi": 16457,
  "inspir": 28340,
  "inspiration</w>": 38325,
  "inspired</w>": 21211,
  "inst": 5237,
  "instagram</w>": 34986,
  "install": 24928,
  "install</w>": 23205,
  "installation</w>": 42077,
  "installed</w>": 26983,
  "instance</w>": 15781,
  "instances</w>": 39436,
  "instant</w>": 38757,
  "instantly</w>": 46726,
  "inste": 5696,
  "instead</w>": 6064,
  "instein</w>": 40314,
  "institu": 7575,
  "institute</w>": 14238,
  "institution</w>": 33449,
  "institutions</w>": 21219,
  "instruc": 16633,
  "instructions</w>": 33343,
  "instrum": 22003,
  "instrument</w>": 47360,
  "instruments</w>": 46385,
  "insul": 20287,
  "insur": 11825,
  "insurance</w>": 15128,
  "int": 2231,
  "int</w>": 8468,
  "inte": 8786,
  "integr": 12099,
  "integrated</w>": 35313,
  "integration</w>": 33654,
  "integrity</w>": 36472,
  "intel": 8879,
  "intel</w>": 32129,
  "intell": 23668,
  "intellec": 25518,
  "intellectual</w>": 31554,
  "intellig": 9226,
  "intelligence</w>": 10625,
  "intelligent</w>": 39210,
  "inten": 8121,
  "intended</w>": 18236,
  "intense</w>": 31104,
  "intensity</w>": 45056,
  "intent</w>": 31216,
  "intention</w>": 36150,
  "inter": 1627,
  "inter</w>": 45818,
  "interact</w>": 45928,
  "interaction</w>": 36687,
  "interactions</w>": 42788,
  "interactive</w>": 41460,
  "intercep": 48120,
  "intere": 5934,
  "interest</w>": 7921,
  "interested</w>": 14748,
  "interesting</w>": 11163,
  "interests</w>": 17206,
  "interface</w>": 25418,
  "interior</w>": 30752,
  "intern": 40598,
  "internal</w>": 17759,
  "international</w>": 5947,
  "internet</w>": 8440,
  "interpre": 17409,
  "interpretation</w>": 37129,
  "interven": 19956,
  "intervention</w>": 33083,
  "interview</w>": 10063,
  "interviewed</w>": 39660,
  "interviews</w>": 29568,
  "inti": 44217,
  "intim": 43317,
  "into</w>": 1849,
  "intr": 40360,
  "intri": 43354,
  "intro": 8368,
  "introduc": 9992,
  "introduce</w>": 34156,
  "introduced</w>": 16727,
  "introducing</w>": 47679,
  "introduction</w>": 26590,
  "ints</w>": 38113,
  "intu": 42579,
  "inv": 2636,
  "invalid</w>": 41892,
  "invas": 28105,
  "invasion</w>": 35643,
  "inve": 6982,
  "invent": 39661,
  "invest": 8140,
  "invest</w>": 34219,
  "invested</w>": 42870,
  "investi": 5477,
  "investig": 5681,
  "investigate</w>": 31044,
  "investigated</w>": 43328,
  "investigating</w>": 32355,
  "investigation</w>": 10432,
  "investigations</w>": 33267,
  "investigators</w>": 27628,
  "investing</w>": 45290,
  "investment</w>": 13894,
  "investments</w>": 35480,
  "investor</w>": 47261,
  "investors</w>": 22494,
  "invited</w>": 31066,
  "invo": 45251,
  "invol": 5751,
  "involve</w>": 36849,
  "involved</w>": 9007,
  "involvement</w>": 30928,
  "involves</w>": 33167,
  "involving</w>": 25640,
  "iny</w>": 26857,
  "io": 16202,
  "io</w>": 13598,
  "ioc</w>": 36971,
  "ion": 22194,
  "ion</w>": 2217,
  "ional</w>": 32519,
  "ionally</w>": 35650,
  "ions</w>": 8904,
  "ior</w>": 8663,
  "ios</w>": 19362,
  "iot</w>": 15492,
  "ious</w>": 6551,
  "iously</w>": 15662,
  "iow": 26518,
  "iowa</w>": 27263,
  "ip": 5846,
  "ip</w>": 9049,
  "ipad</w>": 34595,
  "iphone</w>": 20990,
  "ipo": 43277,
  "ipo</w>": 27438,
  "iptv</w>": 41178,
  "ir": 1848,
  "ir</w>": 1257,
  "ira": 10468,
  "ira</w>": 33389,
  "iran</w>": 13439,
  "iranian</w>": 32077,
  "iraq</w>": 13592,
  "iraqi</w>": 32259,
  "ire": 19582,
  "ire</w>": 39126,
  "ireland</w>": 22392,
  "iring</w>": 26086,
  "irish</w>": 26172,
  "iron": 34380,
  "iron</w>": 23882,
  "irs</w>": 25829,
  "is": 638,
  "is</w>": 561,
  "isa</w>": 22799,
  "isation</w>": 19308,
  "isco</w>": 16938,
  "ise</w>": 2963,
  "ised</w>": 6606,
  "isely</w>": 35686,
  "iser</w>": 31225,
  "ises</w>": 15185,
  "ish": 2796,
  "ish</w>": 2885,
  "ished</w>": 4319,
  "isher</w>": 33784,
  "ishers</w>": 42865,
  "ishes</w>": 23140,
  "ishing</w>": 10378,
  "ishment</w>": 16549,
  "isi": 29335,
  "ising</w>": 12447,
  "ision</w>": 5072,
  "isis</w>": 8780,
  "isition</w>": 40744,
  "isl": 7255,
  "isla": 16136,
  "islam": 11760,
  "islam</w>": 24220,
  "islamic</w>": 15164,
  "island</w>": 13177,
  "islands</w>": 30641,
  "ism</w>": 3393,
  "isms</w>": 23752,
  "isn</w>": 6367,
  "iso": 9476,
  "iso</w>": 30893,
  "isol": 22565,
  "isolated</w>": 39146,
  "ison</w>": 11937,
  "isra": 6575,
  "israel": 13944,
  "israel</w>": 9523,
  "israeli</w>": 15815,
  "iss": 28688,
  "iss</w>": 15345,
  "issa</w>": 47666,
  "issu": 3541,
  "issue</w>": 6136,
  "issued</w>": 16021,
  "issues</w>": 7215,
  "ist": 6951,
  "ist</w>": 2029,
  "istan": 36347,
  "istan</w>": 12391,
  "istic": 38743,
  "istic</w>": 10494,
  "istics</w>": 28751,
  "ists</w>": 9245,
  "it": 538,
  "it</w>": 668,
  "ita</w>": 29888,
  "itable</w>": 16833,
  "itably</w>": 47687,
  "ital</w>": 4594,
  "itali": 22485,
  "italian</w>": 26886,
  "italy</w>": 25341,
  "itan</w>": 38232,
  "itarian</w>": 27785,
  "itation</w>": 12484,
  "itations</w>": 37072,
  "ite</w>": 1671,
  "ited</w>": 2632,
  "itely</w>": 13627,
  "item</w>": 19490,
  "items</w>": 15648,
  "iter": 7798,
  "ites</w>": 7552,
  "ith</w>": 6857,
  "iti</w>": 38580,
  "ities</w>": 24305,
  "iting</w>": 4252,
  "ition</w>": 13346,
  "itly</w>": 35929,
  "itor</w>": 9785,
  "itors</w>": 15953,
  "itory</w>": 46905,
  "its</w>": 1432,
  "itself</w>": 7688,
  "itt": 2978,
  "itten</w>": 9167,
  "itting</w>": 42233,
  "ity</w>": 1010,
  "itz</w>": 44415,
  "ium</w>": 20420,
  "ius</w>": 33194,
  "iv": 19930,
  "iv</w>": 24311,
  "ive</w>": 13405,
  "ived</w>": 19518,
  "ives</w>": 38607,
  "ix</w>": 17984,
  "iz": 2541,
  "iz</w>": 44112,
  "ization</w>": 15595,
  "ize</w>": 12932,
  "ized</w>": 9287,
  "izes</w>": 43900,
  "izing</w>": 23630,
  "j": 47,
  "j</w>": 284,
  "ja": 17754,
  "ja</w>": 23806,
  "jab": 47019,
  "jac": 18058,
  "jack": 13344,
  "jack</w>": 19004,
  "jackson</w>": 21431,
  "jail</w>": 22502,
  "jake</w>": 48456,
  "jam": 16455,
  "jam</w>": 45369,
  "james</w>": 10621,
  "jan": 7058,
  "jan</w>": 18619,
  "jane</w>": 43051,
  "january</w>": 9335,
  "jap": 8125,
  "japan": 15848,
  "japan</w>": 12769,
  "japanese</w>": 16255,
  "jar": 31922,
  "jason</w>": 26279,
  "jav": 14796,
  "java</w>": 26990,
  "javas": 29670,
  "javascript</w>": 30241,
  "jay</w>": 29324,
  "jaz": 32089,
  "jazz</w>": 46382,
  "je": 4823,
  "je</w>": 25414,
  "jean</w>": 33033,
  "jec": 15258,
  "ject</w>": 3817,
  "jected</w>": 15316,
  "jection</w>": 32367,
  "jective</w>": 25330,
  "jects</w>": 7969,
  "jeff": 27537,
  "jeff</w>": 24102,
  "jefferson</w>": 48422,
  "jen": 19121,
  "jer": 8942,
  "jeremy</w>": 37746,
  "jerry</w>": 38329,
  "jersey</w>": 22466,
  "jerus": 34539,
  "jerusalem</w>": 34779,
  "jes": 16219,
  "jesus</w>": 22363,
  "jet</w>": 32195,
  "jets</w>": 35735,
  "jewish</w>": 16373,
  "jews</w>": 22525,
  "ji": 15857,
  "ji</w>": 23780,
  "jiha": 44757,
  "jim": 26485,
  "jim</w>": 20888,
  "jimmy</w>": 39521,
  "jin": 34665,
  "jin</w>": 47745,
  "jing</w>": 30820,
  "jm": 46712,
  "jo": 1704,
  "jo</w>": 30559,
  "job</w>": 6375,
  "jobs</w>": 10205,
  "joe</w>": 16995,
  "joh": 41907,
  "john": 11589,
  "john</w>": 6110,
  "johnson</w>": 14567,
  "join</w>": 12987,
  "joined</w>": 14739,
  "joining</w>": 28937,
  "joint</w>": 21621,
  "joke</w>": 31975,
  "jokes</w>": 47096,
  "jon": 21682,
  "jon</w>": 30599,
  "jonathan</w>": 31984,
  "jones</w>": 15266,
  "jor": 18584,
  "jordan</w>": 26368,
  "jose": 22541,
  "jose</w>": 34213,
  "joseph</w>": 25219,
  "josh</w>": 31794,
  "jour": 6027,
  "journ": 11407,
  "journal</w>": 13866,
  "journalism</w>": 35043,
  "journalist</w>": 28067,
  "journalists</w>": 24429,
  "journey</w>": 22731,
  "joy": 48404,
  "joy</w>": 29815,
  "jp": 32853,
  "jp</w>": 34820,
  "jpëª¨": 49272,
  "jr</w>": 16828,
  "js</w>": 20113,
  "jt": 15531,
  "jtbc": 47509,
  "jtbc</w>": 21024,
  "ju": 2607,
  "ju</w>": 43918,
  "juana</w>": 14681,
  "jud": 13767,
  "judg": 21464,
  "judge</w>": 11952,
  "judges</w>": 32345,
  "judgment</w>": 35878,
  "judicial</w>": 37787,
  "juice</w>": 48795,
  "juli": 25959,
  "july</w>": 8429,
  "jum": 18923,
  "jump</w>": 20749,
  "jumped</w>": 40701,
  "jumping</w>": 49300,
  "jun": 13619,
  "jun</w>": 38670,
  "june</w>": 8151,
  "juni": 28059,
  "junior</w>": 31340,
  "jur": 25462,
  "jured</w>": 21167,
  "juris": 41009,
  "jurisdic": 43600,
  "jury</w>": 29044,
  "jus": 5949,
  "just</w>": 1742,
  "justi": 19123,
  "justice</w>": 8618,
  "justified</w>": 47562,
  "justify</w>": 41839,
  "justin</w>": 32131,
  "jw": 45972,
  "k": 48,
  "k</w>": 261,
  "ka": 12846,
  "ka</w>": 8339,
  "kab": 39928,
  "kai": 35433,
  "kai</w>": 41818,
  "kaist</w>": 40343,
  "kak": 42874,
  "kal": 30332,
  "kam": 30715,
  "kan": 35257,
  "kan</w>": 47265,
  "kans": 21724,
  "kansas</w>": 22440,
  "kar": 12494,
  "kar</w>": 48387,
  "karl</w>": 48976,
  "kas": 32425,
  "kat": 23395,
  "kb": 5795,
  "kb</w>": 32879,
  "kbo": 18483,
  "kbo</w>": 20545,
  "kboë¦¬ê·¸</w>": 32275,
  "kbs": 16329,
  "kbs</w>": 6763,
  "kbêµŃë¯¼": 21124,
  "kbêµŃë¯¼ìĿĢíĸī</w>": 48757,
  "kbê¸Īìľµ": 28679,
  "kcc": 30306,
  "kcc</w>": 43001,
  "kdb": 35039,
  "ke": 1644,
  "ke</w>": 1338,
  "keb": 33406,
  "ked</w>": 1872,
  "kee</w>": 36597,
  "keen</w>": 44399,
  "keep": 11665,
  "keep</w>": 5115,
  "keeper</w>": 38172,
  "keeping</w>": 15372,
  "keeps</w>": 27459,
  "keith</w>": 46378,
  "kel": 13867,
  "kel</w>": 33889,
  "keley</w>": 42155,
  "kelly</w>": 26019,
  "ken": 10914,
  "ken</w>": 7717,
  "kenne": 25752,
  "kennedy</w>": 31663,
  "kent": 35007,
  "kentucky</w>": 37991,
  "kept</w>": 13940,
  "ker": 12034,
  "ker</w>": 4978,
  "kernel</w>": 47412,
  "kerry</w>": 47526,
  "kers</w>": 12260,
  "kes": 9586,
  "kes</w>": 10972,
  "ket": 21035,
  "ket</w>": 4131,
  "kets</w>": 8521,
  "kev": 21039,
  "kevin</w>": 22511,
  "key": 15041,
  "key</w>": 4718,
  "keyboard</w>": 38728,
  "keys</w>": 24869,
  "kf</w>": 43855,
  "kg": 12636,
  "kg</w>": 10266,
  "kh": 25634,
  "kh</w>": 36499,
  "kha": 42008,
  "khan</w>": 36134,
  "ki": 3951,
  "ki</w>": 10752,
  "kia": 15236,
  "kia</w>": 14421,
  "kiaëĬĶ</w>": 35430,
  "kic": 21058,
  "kick": 26824,
  "kick</w>": 24719,
  "kicked</w>": 37667,
  "kickstarter</w>": 42464,
  "kid": 23711,
  "kid</w>": 20470,
  "kidn": 46992,
  "kids</w>": 10839,
  "kie": 47020,
  "kie</w>": 19246,
  "kies</w>": 34018,
  "kil": 15380,
  "kill": 5463,
  "kill</w>": 12981,
  "killed</w>": 9121,
  "killer</w>": 31609,
  "killing</w>": 16679,
  "kills</w>": 48522,
  "kilome": 47638,
  "kim": 24648,
  "kim</w>": 15959,
  "kin": 9438,
  "kin</w>": 18477,
  "kind</w>": 5677,
  "kinds</w>": 24501,
  "king": 16875,
  "king</w>": 1556,
  "kingdom</w>": 23132,
  "kings</w>": 19228,
  "kins</w>": 20359,
  "kir": 22131,
  "kis": 31675,
  "kiss</w>": 41199,
  "kit": 19368,
  "kit</w>": 26031,
  "kitchen</w>": 31602,
  "kj": 47342,
  "kk": 20770,
  "kkuk</w>": 38644,
  "kl": 25226,
  "kle": 37091,
  "kle</w>": 30189,
  "km": 12159,
  "km</w>": 6148,
  "kn": 31114,
  "kne": 24162,
  "knee</w>": 35119,
  "knew</w>": 10176,
  "kni": 22573,
  "knife</w>": 37446,
  "knight</w>": 34479,
  "kno": 3089,
  "knock</w>": 39764,
  "know</w>": 2763,
  "knowing</w>": 22835,
  "knowledge</w>": 13220,
  "known</w>": 4902,
  "knows</w>": 13768,
  "ko": 3953,
  "ko</w>": 12969,
  "kol": 41853,
  "kom": 39026,
  "kon": 33133,
  "kong</w>": 31696,
  "kor": 33597,
  "kore": 7719,
  "korea</w>": 11148,
  "korean</w>": 19622,
  "kov</w>": 48460,
  "kr": 22436,
  "kr</w>": 10609,
  "kri": 36116,
  "kru": 29233,
  "ks": 27553,
  "ks</w>": 1436,
  "kt": 4951,
  "kt</w>": 7640,
  "ktx": 32005,
  "ktx</w>": 23625,
  "ktê°Ģ</w>": 31683,
  "ktëĬĶ</w>": 16638,
  "ktìĻĢ</w>": 47336,
  "ktìĿĺ</w>": 33851,
  "ku": 15697,
  "ku</w>": 32949,
  "kum": 49106,
  "kur": 18676,
  "kurdish</w>": 43030,
  "kus": 40642,
  "kw": 37864,
  "kw</w>": 43706,
  "ky": 12757,
  "ky</w>": 7564,
  "kyle</w>": 43454,
  "kyo</w>": 35175,
  "kë¦¬ê·¸</w>": 13861,
  "këĬĶ</w>": 41972,
  "kíĮĿ</w>": 35626,
  "l": 49,
  "l</w>": 267,
  "la": 1414,
  "la</w>": 5535,
  "lab": 5248,
  "lab</w>": 22383,
  "label</w>": 25784,
  "labor": 29886,
  "labor</w>": 14593,
  "laboratory</w>": 37396,
  "labour</w>": 16264,
  "lac": 30856,
  "lack</w>": 11696,
  "lad": 10753,
  "laden</w>": 48061,
  "lady</w>": 25983,
  "lag": 41246,
  "lah</w>": 23651,
  "laid</w>": 28446,
  "lain</w>": 46936,
  "lake</w>": 18116,
  "lam": 15137,
  "lan": 3615,
  "lan</w>": 29465,
  "land": 12526,
  "land</w>": 3084,
  "landed</w>": 39778,
  "landing</w>": 32513,
  "lando</w>": 36724,
  "lands</w>": 13029,
  "landscap": 28896,
  "landscape</w>": 33508,
  "lane</w>": 25581,
  "lanes</w>": 49006,
  "lang</w>": 48797,
  "langu": 7869,
  "language</w>": 9404,
  "languages</w>": 28829,
  "lap": 22915,
  "lap</w>": 39777,
  "laptop</w>": 44713,
  "lar": 3121,
  "larg": 8156,
  "large</w>": 5675,
  "largely</w>": 16783,
  "larger</w>": 13511,
  "largest</w>": 12302,
  "larry</w>": 40553,
  "las": 48499,
  "las</w>": 26574,
  "laser</w>": 44162,
  "last</w>": 2507,
  "lasting</w>": 45696,
  "lat": 5630,
  "late</w>": 7154,
  "later</w>": 4567,
  "latest</w>": 10276,
  "latin</w>": 33380,
  "lations</w>": 48362,
  "latter</w>": 24151,
  "lau": 16857,
  "laugh": 23324,
  "laugh</w>": 38415,
  "laughs</w>": 46257,
  "laun": 7000,
  "launch</w>": 13559,
  "launched</w>": 16171,
  "launching</w>": 42507,
  "law": 5979,
  "law</w>": 4316,
  "lawmakers</w>": 26727,
  "lawrence</w>": 42627,
  "laws</w>": 10528,
  "lawsuit</w>": 23481,
  "lawyer</w>": 22168,
  "lawyers</w>": 26419,
  "lay": 13339,
  "lay</w>": 26192,
  "layer</w>": 27485,
  "layers</w>": 42631,
  "layout</w>": 44137,
  "lb</w>": 39295,
  "lcd</w>": 22808,
  "ld</w>": 968,
  "ldn</w>": 5916,
  "le": 756,
  "le</w>": 850,
  "lea": 7297,
  "lead": 3504,
  "lead</w>": 7526,
  "leader</w>": 8926,
  "leaders</w>": 10355,
  "leadership</w>": 15075,
  "leading</w>": 10220,
  "leads</w>": 20885,
  "leaf</w>": 48824,
  "leag": 5448,
  "league</w>": 6469,
  "leagues</w>": 19037,
  "leak</w>": 48359,
  "leaked</w>": 40207,
  "lean": 36166,
  "lean</w>": 42576,
  "leans</w>": 37193,
  "lear": 5106,
  "learn</w>": 10303,
  "learned</w>": 14772,
  "learning</w>": 13155,
  "least</w>": 5032,
  "leav": 9761,
  "leave</w>": 8562,
  "leaves</w>": 21841,
  "leaving</w>": 13881,
  "leban": 40170,
  "lec": 23113,
  "led": 22752,
  "led</w>": 2880,
  "lee</w>": 13515,
  "lef": 33981,
  "left</w>": 4235,
  "leg": 2956,
  "leg</w>": 27366,
  "legacy</w>": 26930,
  "legal</w>": 6357,
  "legally</w>": 25371,
  "legen": 17187,
  "legend</w>": 32477,
  "legendary</w>": 41007,
  "legi": 17707,
  "legis": 24665,
  "legisl": 14961,
  "legisla": 32206,
  "legislat": 25386,
  "legislation</w>": 15688,
  "legislative</w>": 32816,
  "legislature</w>": 36632,
  "legitim": 22615,
  "legitimate</w>": 29560,
  "legs</w>": 30795,
  "len": 15180,
  "len</w>": 37494,
  "leng": 14498,
  "length</w>": 18855,
  "lens</w>": 39700,
  "leon": 41499,
  "ler": 44494,
  "ler</w>": 6046,
  "lers</w>": 19607,
  "les": 18279,
  "les</w>": 3290,
  "less": 12542,
  "less</w>": 2985,
  "lessly</w>": 35003,
  "lesson</w>": 37138,
  "lessons</w>": 37489,
  "let": 31121,
  "let</w>": 3757,
  "lets</w>": 13158,
  "letter</w>": 11836,
  "letters</w>": 23976,
  "letting</w>": 33681,
  "lev": 23617,
  "level</w>": 5250,
  "levels</w>": 10874,
  "lever": 35832,
  "lewis</w>": 30325,
  "lex": 39743,
  "ley</w>": 5426,
  "lg": 2905,
  "lg</w>": 6697,
  "lgbt</w>": 32323,
  "lgê°Ģ</w>": 46340,
  "lgëĬĶ</w>": 24858,
  "lgìĥĿíĻľ": 42159,
  "lgìľł": 14539,
  "lgìľłíĶĮëŁ¬": 20349,
  "lgìľłíĶĮëŁ¬ìĬ¤</w>": 31293,
  "lgìľłíĶĮëŁ¬ìĬ¤ëĬĶ</w>": 33317,
  "lgìĿĺ</w>": 45055,
  "lgìłĦ": 11137,
  "lgìłĦìŀĲ</w>": 15489,
  "lgìłĦìŀĲê°Ģ</w>": 33751,
  "lgìłĦìŀĲëĬĶ</w>": 17672,
  "lgìłĦìŀĲìĿĺ</w>": 43447,
  "lgíĻĶíķĻ": 28226,
  "lgíĻĶíķĻ</w>": 29948,
  "lgíĻĶíķĻìĿĢ</w>": 47669,
  "lh": 19091,
  "lh</w>": 17719,
  "li": 723,
  "li</w>": 23403,
  "lib</w>": 43688,
  "liber": 6876,
  "liberal</w>": 16155,
  "liberals</w>": 32844,
  "libert": 33846,
  "libertarian</w>": 48710,
  "liberty</w>": 28230,
  "libr": 12868,
  "libraries</w>": 41531,
  "library</w>": 16689,
  "liby": 29609,
  "libya</w>": 37648,
  "lic": 9933,
  "lic</w>": 35979,
  "licen": 13370,
  "license</w>": 23177,
  "licensed</w>": 44883,
  "lie</w>": 12843,
  "lied</w>": 45035,
  "lies</w>": 17521,
  "life": 19096,
  "life</w>": 3329,
  "lifestyle</w>": 41971,
  "lifetime</w>": 36057,
  "lift</w>": 34351,
  "lifted</w>": 49068,
  "lig": 6475,
  "ligh": 7156,
  "light": 24212,
  "light</w>": 4606,
  "lighted</w>": 42836,
  "lighting</w>": 31159,
  "lightly</w>": 16042,
  "lightning</w>": 39006,
  "lights</w>": 16577,
  "lik": 4409,
  "like": 45960,
  "like</w>": 1592,
  "liked</w>": 27501,
  "likely</w>": 5097,
  "likes</w>": 24660,
  "lim": 3607,
  "limin": 43720,
  "limit</w>": 18539,
  "limitations</w>": 44909,
  "limited</w>": 10399,
  "limits</w>": 24606,
  "lin": 2947,
  "lin</w>": 12098,
  "lincol": 39046,
  "lincoln</w>": 40770,
  "lind": 45993,
  "line": 16212,
  "line</w>": 2927,
  "linear</w>": 42993,
  "lined</w>": 14794,
  "lines</w>": 8809,
  "lineup</w>": 38872,
  "ling": 43155,
  "ling</w>": 3840,
  "lining</w>": 31821,
  "link</w>": 12007,
  "linked</w>": 20658,
  "links</w>": 20547,
  "lins</w>": 30580,
  "linux</w>": 25153,
  "lion": 26965,
  "lion</w>": 3063,
  "lions</w>": 10456,
  "lip</w>": 42491,
  "lips</w>": 34154,
  "liqu": 20576,
  "liquid</w>": 31597,
  "lis": 39337,
  "lisa</w>": 48441,
  "lish</w>": 11087,
  "list": 9937,
  "list</w>": 5749,
  "listed</w>": 19944,
  "listen": 47185,
  "listen</w>": 18996,
  "listening</w>": 28424,
  "listing</w>": 46295,
  "lists</w>": 26603,
  "lit": 26131,
  "lit</w>": 41957,
  "liter": 11744,
  "literally</w>": 23267,
  "literature</w>": 30144,
  "litt": 4021,
  "little</w>": 4069,
  "lity</w>": 45211,
  "live": 43202,
  "live</w>": 5376,
  "lived</w>": 17291,
  "liver": 31532,
  "liverpool</w>": 33571,
  "lives</w>": 9106,
  "living</w>": 8498,
  "ll": 18581,
  "ll</w>": 1874,
  "lng": 32136,
  "lng</w>": 26147,
  "lo": 760,
  "lo</w>": 13285,
  "load</w>": 10476,
  "loaded</w>": 25187,
  "loading</w>": 28694,
  "loads</w>": 34888,
  "loan</w>": 27247,
  "loans</w>": 31694,
  "lob": 34784,
  "lobby</w>": 42736,
  "loc": 2214,
  "local</w>": 5639,
  "locate</w>": 45737,
  "located</w>": 16262,
  "location</w>": 12335,
  "locations</w>": 23951,
  "lock": 34073,
  "lock</w>": 11483,
  "locked</w>": 23714,
  "locks</w>": 43937,
  "log": 17167,
  "log</w>": 21976,
  "logic</w>": 27487,
  "logical</w>": 35371,
  "logo</w>": 35357,
  "lol</w>": 40148,
  "lon": 8373,
  "london</w>": 10151,
  "long": 6186,
  "long</w>": 3267,
  "longer</w>": 8313,
  "longest</w>": 46118,
  "longtime</w>": 44079,
  "loo": 1979,
  "look</w>": 3960,
  "looked</w>": 10932,
  "looking</w>": 5912,
  "looks</w>": 10047,
  "loop</w>": 32105,
  "loose</w>": 39643,
  "lor": 11736,
  "lor</w>": 21187,
  "lord</w>": 18270,
  "lords</w>": 47419,
  "los</w>": 11470,
  "lose</w>": 14109,
  "losing</w>": 18070,
  "loss</w>": 11770,
  "losses</w>": 28671,
  "lost</w>": 7498,
  "lot": 44024,
  "lot</w>": 3795,
  "lots</w>": 15349,
  "lou": 11962,
  "loud</w>": 33263,
  "louis</w>": 24072,
  "louisi": 41446,
  "louisiana</w>": 41919,
  "love</w>": 4798,
  "loved</w>": 20788,
  "loves</w>": 37073,
  "loving</w>": 42529,
  "low": 2317,
  "low</w>": 2554,
  "lower</w>": 8084,
  "lowest</w>": 32685,
  "lows</w>": 8706,
  "loy": 22023,
  "lp": 10697,
  "lp</w>": 38608,
  "lpg</w>": 41031,
  "lpga</w>": 24551,
  "ls": 17824,
  "ls</w>": 4555,
  "lt</w>": 36599,
  "ltd</w>": 39555,
  "lte": 46701,
  "lte</w>": 17301,
  "lu": 5849,
  "lu</w>": 44463,
  "luc": 12758,
  "luck</w>": 28172,
  "lucky</w>": 26059,
  "luke</w>": 41421,
  "lum": 29169,
  "lun": 14009,
  "lunch</w>": 36538,
  "lux": 28862,
  "luxury</w>": 40622,
  "lv": 46495,
  "lv</w>": 8036,
  "ly": 7483,
  "ly</w>": 680,
  "lying</w>": 17637,
  "lyn": 25154,
  "lyn</w>": 32565,
  "lynch</w>": 47770,
  "lywood</w>": 23256,
  "m": 50,
  "m</w>": 229,
  "ma": 1884,
  "ma</w>": 6548,
  "mac": 8857,
  "mac</w>": 23511,
  "mach": 8896,
  "machine</w>": 13207,
  "machines</w>": 26036,
  "mad": 11449,
  "mad</w>": 19873,
  "made</w>": 2825,
  "madison</w>": 47659,
  "madrid</w>": 44970,
  "mag": 5198,
  "magaz": 15593,
  "magazine</w>": 17764,
  "magic</w>": 16644,
  "magical</w>": 44564,
  "magne": 31205,
  "magnetic</w>": 40164,
  "magnit": 46599,
  "mah": 37429,
  "mai": 35209,
  "mail</w>": 15411,
  "main": 3858,
  "main</w>": 5273,
  "maine</w>": 41681,
  "mainly</w>": 27497,
  "mainstream</w>": 24126,
  "maintain</w>": 20947,
  "maintained</w>": 35947,
  "maintaining</w>": 39463,
  "maintenance</w>": 35493,
  "maj": 4308,
  "major</w>": 6115,
  "majority</w>": 10547,
  "mak": 8466,
  "make": 48400,
  "make</w>": 2402,
  "maker</w>": 22453,
  "makers</w>": 15455,
  "makes</w>": 6051,
  "making</w>": 4651,
  "mal": 7453,
  "mal</w>": 31768,
  "malay": 42646,
  "male</w>": 14410,
  "males</w>": 42293,
  "mall</w>": 40586,
  "mam": 44951,
  "man": 1274,
  "man</w>": 2006,
  "manag": 4807,
  "manage</w>": 24706,
  "managed</w>": 17015,
  "management</w>": 11537,
  "manager</w>": 11606,
  "managers</w>": 36188,
  "managing</w>": 32878,
  "manchester</w>": 28132,
  "mandate</w>": 43446,
  "mandatory</w>": 43525,
  "manhatt": 40128,
  "manhattan</w>": 40555,
  "mani": 15207,
  "mania</w>": 40919,
  "manipul": 26856,
  "mann</w>": 20410,
  "manner</w>": 24892,
  "manning</w>": 41623,
  "mans</w>": 37706,
  "manu": 11312,
  "manual</w>": 38706,
  "manufac": 12881,
  "manufacturer</w>": 47129,
  "manufacturers</w>": 37824,
  "manufacturing</w>": 26723,
  "many</w>": 2251,
  "map</w>": 11506,
  "maps</w>": 26168,
  "mar": 1353,
  "mar</w>": 29642,
  "marath": 46451,
  "marc</w>": 45390,
  "march</w>": 7444,
  "marco</w>": 46750,
  "mare</w>": 42018,
  "margin": 39902,
  "margin</w>": 21364,
  "mari": 10483,
  "maria</w>": 45762,
  "marijuana</w>": 14981,
  "marine</w>": 23171,
  "mario</w>": 39526,
  "mark</w>": 7655,
  "marke": 13637,
  "marked</w>": 26334,
  "market": 42639,
  "market</w>": 5828,
  "marketing</w>": 20203,
  "markets</w>": 17004,
  "marks</w>": 24341,
  "marri": 12911,
  "marriage</w>": 14429,
  "married</w>": 20568,
  "mars</w>": 29593,
  "marshall</w>": 42826,
  "mart": 44015,
  "mart</w>": 39447,
  "martin</w>": 16191,
  "marvel</w>": 29778,
  "mary</w>": 8508,
  "maryland</w>": 34603,
  "mas": 8674,
  "mas</w>": 16902,
  "mask</w>": 37387,
  "mass": 15624,
  "mass</w>": 11929,
  "massachus": 31022,
  "massachusetts</w>": 31142,
  "massive</w>": 14217,
  "master": 29415,
  "master</w>": 13877,
  "masters</w>": 39074,
  "mat": 2478,
  "match": 42218,
  "match</w>": 10149,
  "matched</w>": 47870,
  "matches</w>": 24591,
  "matching</w>": 48931,
  "mate</w>": 26207,
  "mater": 8353,
  "material</w>": 13168,
  "materials</w>": 20908,
  "mates</w>": 28152,
  "math</w>": 14049,
  "mathe": 27269,
  "mathema": 29591,
  "matic</w>": 24004,
  "mation</w>": 40960,
  "matt": 18009,
  "matt</w>": 20983,
  "matter</w>": 7234,
  "matters</w>": 20243,
  "matthe": 28064,
  "matthew</w>": 35809,
  "mature</w>": 37923,
  "max": 25131,
  "max</w>": 12952,
  "maxim": 17079,
  "maximum</w>": 23445,
  "may": 5566,
  "may</w>": 2469,
  "maybe</w>": 8684,
  "mayor</w>": 16790,
  "mb": 5716,
  "mb</w>": 21121,
  "mba</w>": 45701,
  "mbc": 18670,
  "mbc</w>": 7120,
  "mbly</w>": 23741,
  "mc": 4524,
  "mc</w>": 17479,
  "mcc": 21103,
  "mccain</w>": 29476,
  "mccar": 41258,
  "mcconnell</w>": 49210,
  "mcdonald</w>": 44829,
  "md": 27741,
  "md</w>": 24359,
  "me": 1162,
  "me</w>": 1120,
  "meal</w>": 35179,
  "mean": 6981,
  "mean</w>": 7513,
  "meaning": 29736,
  "meaning</w>": 14875,
  "meaningful</w>": 37386,
  "means</w>": 5913,
  "meant</w>": 14762,
  "meanwhile</w>": 16626,
  "meas": 7033,
  "measu": 36364,
  "measure</w>": 16400,
  "measured</w>": 33619,
  "measures</w>": 16912,
  "meat</w>": 24061,
  "mec": 11831,
  "mechan": 13311,
  "mechanical</w>": 43882,
  "mechanics</w>": 45704,
  "mechanism</w>": 33075,
  "mechanisms</w>": 45368,
  "med": 6436,
  "med</w>": 4133,
  "medal</w>": 47049,
  "medi": 3143,
  "media</w>": 4692,
  "median</w>": 46229,
  "medic": 10635,
  "medicaid</w>": 42804,
  "medical</w>": 8907,
  "medicare</w>": 42786,
  "medicine</w>": 22630,
  "medium</w>": 23919,
  "mee": 8135,
  "meet": 24703,
  "meet</w>": 11281,
  "meeting</w>": 9316,
  "meetings</w>": 26166,
  "meets</w>": 42151,
  "mega</w>": 44925,
  "mel": 10391,
  "melbourne</w>": 45351,
  "mem": 2556,
  "member": 19181,
  "member</w>": 5466,
  "members</w>": 5683,
  "membership</w>": 33198,
  "memo</w>": 46484,
  "memor": 33566,
  "memorial</w>": 34793,
  "memories</w>": 33891,
  "memory</w>": 13548,
  "men": 4816,
  "men</w>": 4485,
  "ment": 16696,
  "ment</w>": 1305,
  "mental</w>": 8094,
  "mentally</w>": 40519,
  "mented</w>": 48631,
  "mention</w>": 19745,
  "mentioned</w>": 15773,
  "ments</w>": 4137,
  "menu</w>": 27796,
  "mer": 5016,
  "mer</w>": 5791,
  "mere</w>": 33996,
  "merely</w>": 25624,
  "mers</w>": 18631,
  "mes": 26424,
  "mes</w>": 14420,
  "mess": 6730,
  "mess</w>": 36885,
  "message</w>": 10467,
  "messages</w>": 21457,
  "met": 21075,
  "met</w>": 10199,
  "meta</w>": 46427,
  "metab": 47833,
  "metal</w>": 18916,
  "metap": 42316,
  "mete": 45044,
  "meter</w>": 42585,
  "meters</w>": 37254,
  "meth": 46856,
  "metho": 8411,
  "method</w>": 13836,
  "methods</w>": 18959,
  "metr": 48172,
  "metro": 32842,
  "metro</w>": 32321,
  "metropol": 42709,
  "mex": 12549,
  "mexic": 12617,
  "mexican</w>": 32718,
  "mexico</w>": 16997,
  "mf</w>": 30266,
  "mg": 44256,
  "mg</w>": 21531,
  "mhz</w>": 39459,
  "mi": 1485,
  "mi</w>": 12684,
  "miami</w>": 24718,
  "mic": 4068,
  "mic</w>": 20223,
  "mice</w>": 30429,
  "micha": 10050,
  "michael</w>": 10477,
  "michel": 35503,
  "michi": 20892,
  "michigan</w>": 21368,
  "micro": 8614,
  "micro</w>": 37226,
  "microsoft</w>": 15334,
  "mid": 9691,
  "mid</w>": 14263,
  "midd": 7868,
  "middle</w>": 8471,
  "midnight</w>": 44944,
  "might</w>": 3991,
  "migr": 7304,
  "migrants</w>": 38458,
  "migration</w>": 39999,
  "mike</w>": 14004,
  "mil": 1916,
  "mile</w>": 29012,
  "miles</w>": 13799,
  "mili": 44125,
  "milit": 5572,
  "militants</w>": 40044,
  "military</w>": 6410,
  "milk</w>": 27968,
  "mill": 13154,
  "millenni": 39553,
  "miller</w>": 22984,
  "million</w>": 4083,
  "millions</w>": 14793,
  "mim": 44569,
  "min": 1424,
  "min</w>": 21663,
  "mind": 35437,
  "mind</w>": 7251,
  "minded</w>": 47272,
  "minds</w>": 29004,
  "mine</w>": 16702,
  "mines</w>": 48551,
  "ming</w>": 5766,
  "mini": 3644,
  "mini</w>": 25890,
  "minim": 12778,
  "minimal</w>": 46105,
  "minimum</w>": 20076,
  "mining</w>": 25789,
  "minister</w>": 7923,
  "ministers</w>": 38120,
  "ministry</w>": 20671,
  "minnes": 26395,
  "minnesota</w>": 26895,
  "minor</w>": 21574,
  "minority</w>": 25147,
  "mint</w>": 44593,
  "minu": 6193,
  "minute</w>": 15288,
  "minutes</w>": 8454,
  "mir": 13819,
  "mirac": 38988,
  "mirror</w>": 33102,
  "mis": 2332,
  "miss": 17871,
  "miss</w>": 15555,
  "missed</w>": 16401,
  "missil": 43012,
  "missile</w>": 28510,
  "missiles</w>": 43847,
  "missing</w>": 15658,
  "mission</w>": 8139,
  "missions</w>": 23068,
  "missis": 41107,
  "mississi": 43766,
  "mississippi</w>": 44642,
  "missouri</w>": 39172,
  "mist": 13871,
  "mistake</w>": 25035,
  "mistakes</w>": 33298,
  "mit": 6797,
  "mit</w>": 9286,
  "mitch": 40869,
  "mitchell</w>": 42832,
  "miti": 46395,
  "mits</w>": 29457,
  "mitt</w>": 43573,
  "mitted</w>": 13264,
  "mitting</w>": 40404,
  "mix": 22296,
  "mix</w>": 16351,
  "mixed</w>": 24263,
  "mixture</w>": 48585,
  "mk</w>": 28213,
  "ml": 14409,
  "ml</w>": 10743,
  "mlb</w>": 30618,
  "mls</w>": 36173,
  "mm": 13741,
  "mm</w>": 7126,
  "mma</w>": 44299,
  "mmor": 40071,
  "mnet</w>": 44226,
  "mo": 914,
  "mo</w>": 20662,
  "mob": 10496,
  "mobil": 43747,
  "mobile</w>": 12030,
  "mobility</w>": 47800,
  "mod": 13879,
  "mod</w>": 34505,
  "mode</w>": 16001,
  "model": 14038,
  "model</w>": 7948,
  "models</w>": 16921,
  "moder": 7561,
  "moderate</w>": 34977,
  "modern</w>": 10535,
  "modest</w>": 45722,
  "modi": 16596,
  "modi</w>": 41610,
  "modified</w>": 36619,
  "module</w>": 30314,
  "moham": 32168,
  "mol": 15823,
  "molec": 33505,
  "mom": 6312,
  "mom</w>": 26618,
  "moment": 34140,
  "moment</w>": 9306,
  "moments</w>": 23017,
  "momentum</w>": 39451,
  "mon": 1529,
  "mon</w>": 16141,
  "mond</w>": 22647,
  "monday</w>": 9067,
  "monetary</w>": 38975,
  "money</w>": 4591,
  "monit": 25735,
  "monitor</w>": 27445,
  "monitoring</w>": 31446,
  "mono": 35058,
  "mons</w>": 35939,
  "monster</w>": 29183,
  "monsters</w>": 45752,
  "mont": 39972,
  "mont</w>": 32189,
  "month</w>": 5922,
  "monthly</w>": 31380,
  "months</w>": 5783,
  "montre": 37319,
  "montreal</w>": 38387,
  "monum": 39044,
  "mony</w>": 25620,
  "moo": 41108,
  "mood</w>": 37520,
  "moon": 44983,
  "moon</w>": 18190,
  "moore</w>": 25723,
  "mor": 3601,
  "moral</w>": 19937,
  "more": 25422,
  "more</w>": 1296,
  "moreover</w>": 33532,
  "morgan</w>": 31815,
  "morning</w>": 9374,
  "morris</w>": 47471,
  "mortality</w>": 46981,
  "mortg": 33486,
  "mortgage</w>": 41411,
  "mos": 35303,
  "mos</w>": 46928,
  "mosco": 26490,
  "moscow</w>": 26836,
  "most</w>": 1876,
  "mostly</w>": 13756,
  "mother</w>": 9208,
  "mothers</w>": 42014,
  "motion</w>": 20541,
  "motiv": 20131,
  "motivated</w>": 40786,
  "motivation</w>": 46881,
  "motor": 23037,
  "motor</w>": 31481,
  "mou": 10848,
  "mou</w>": 19390,
  "moun": 9674,
  "mount</w>": 30240,
  "mountain</w>": 22411,
  "mountains</w>": 38611,
  "mounted</w>": 45159,
  "mour": 42060,
  "mouse</w>": 36334,
  "mouth</w>": 23421,
  "mouë¥¼</w>": 49033,
  "mov": 7081,
  "move</w>": 5365,
  "moved</w>": 8268,
  "movement</w>": 9478,
  "movements</w>": 30054,
  "moves</w>": 22779,
  "movi": 7728,
  "movie</w>": 10368,
  "movies</w>": 20358,
  "moving</w>": 10254,
  "mp": 8641,
  "mp</w>": 9411,
  "mph</w>": 39969,
  "mpic</w>": 32721,
  "mps</w>": 34834,
  "mr": 27906,
  "mr</w>": 4641,
  "mri</w>": 47433,
  "mrs</w>": 31590,
  "ms": 11626,
  "ms</w>": 2255,
  "msi</w>": 45238,
  "mt": 28339,
  "mt</w>": 34288,
  "mu": 2168,
  "much</w>": 2651,
  "mul": 4887,
  "multi": 7602,
  "multi</w>": 21667,
  "multiple</w>": 11158,
  "mun": 12765,
  "munici": 33934,
  "mur": 7392,
  "murder</w>": 17445,
  "murdered</w>": 44836,
  "murphy</w>": 43372,
  "murray</w>": 34371,
  "mus": 3459,
  "muscle</w>": 35230,
  "muse": 19036,
  "museum</w>": 20851,
  "music</w>": 6969,
  "musical</w>": 31325,
  "musli": 10336,
  "muslim</w>": 14873,
  "muslims</w>": 21206,
  "must</w>": 4876,
  "mutual</w>": 45766,
  "mv": 13857,
  "mv</w>": 45412,
  "mvp</w>": 23285,
  "mw": 30084,
  "mw</w>": 44886,
  "my": 5367,
  "my</w>": 1652,
  "mys": 49062,
  "myself</w>": 12420,
  "myster": 19724,
  "mysterious</w>": 42487,
  "mystery</w>": 33283,
  "myth": 44990,
  "myth</w>": 42169,
  "më¡ľ</w>": 22038,
  "mìĹĲ</w>": 32152,
  "mìĹĲìĦľ</w>": 40345,
  "mìĿ´</w>": 49261,
  "mìĿĢ</w>": 31258,
  "mìĿĺ</w>": 17518,
  "n": 51,
  "n</w>": 225,
  "na": 1836,
  "na</w>": 7839,
  "nab": 19396,
  "nad": 36391,
  "nag": 39616,
  "nai": 43233,
  "naked</w>": 42952,
  "nal</w>": 6022,
  "nam": 4880,
  "name</w>": 4565,
  "named</w>": 10369,
  "names</w>": 14101,
  "nan": 19635,
  "nan</w>": 39214,
  "nap</w>": 36002,
  "nar": 9195,
  "narrative</w>": 26090,
  "narrow</w>": 35873,
  "nas": 12524,
  "nasa</w>": 20164,
  "nasty</w>": 39070,
  "nat": 4226,
  "nate</w>": 26523,
  "nati</w>": 49177,
  "nation": 14190,
  "nation</w>": 7506,
  "national</w>": 2990,
  "nationally</w>": 38086,
  "nations</w>": 13727,
  "nationwide</w>": 41518,
  "native</w>": 10473,
  "nato</w>": 25295,
  "natur": 23518,
  "natural</w>": 9626,
  "naturally</w>": 29153,
  "nature</w>": 9112,
  "nau": 47932,
  "nav": 15045,
  "naval</w>": 42538,
  "naver</w>": 45122,
  "navi": 24688,
  "navy</w>": 24812,
  "naz": 41316,
  "nazi</w>": 36314,
  "nba</w>": 16905,
  "nbc</w>": 24101,
  "nc": 10195,
  "nc</w>": 14194,
  "ncaa</w>": 43630,
  "ncëĬĶ</w>": 40103,
  "nd</w>": 16059,
  "ne": 799,
  "ne</w>": 7283,
  "near": 22205,
  "near</w>": 7794,
  "nearby</w>": 22628,
  "nearly</w>": 8504,
  "nec": 4448,
  "necess": 8069,
  "necessarily</w>": 22074,
  "necessary</w>": 11423,
  "neck</w>": 30595,
  "ned</w>": 2256,
  "nee": 4504,
  "need": 35955,
  "need</w>": 3321,
  "needed</w>": 7792,
  "needs</w>": 7763,
  "negative</w>": 16165,
  "negl": 48686,
  "nego": 13718,
  "negoti": 13778,
  "negotiations</w>": 27875,
  "nei": 6985,
  "neigh": 9700,
  "neighb": 20826,
  "neighbor": 16032,
  "neighbor</w>": 49252,
  "neighborhood</w>": 23239,
  "neighborhoods</w>": 44512,
  "neighbors</w>": 37037,
  "neighbour": 46867,
  "neil</w>": 41334,
  "neither</w>": 18012,
  "nel": 29292,
  "nel</w>": 9160,
  "nell</w>": 36479,
  "nelson</w>": 38661,
  "neo</w>": 34747,
  "ner": 6095,
  "ner</w>": 3339,
  "ners</w>": 6452,
  "nership</w>": 17450,
  "nervous</w>": 42312,
  "nes": 14140,
  "nes</w>": 25455,
  "ness</w>": 4388,
  "nesses</w>": 45985,
  "nest</w>": 38373,
  "net": 4758,
  "net</w>": 4935,
  "netany": 44389,
  "netanyahu</w>": 44818,
  "netflix</w>": 32774,
  "nether": 41280,
  "netherlands</w>": 43098,
  "nett</w>": 31869,
  "network</w>": 7974,
  "networks</w>": 21679,
  "neu": 11316,
  "neur": 32173,
  "neuro": 22526,
  "neutr": 22146,
  "neutral</w>": 38579,
  "nev": 35143,
  "nevada</w>": 38251,
  "never": 30642,
  "never</w>": 3807,
  "nevertheless</w>": 35102,
  "new": 4726,
  "new</w>": 1537,
  "newly</w>": 27482,
  "news": 36395,
  "news</w>": 3870,
  "newsle": 20886,
  "newsletter</w>": 29042,
  "newsletters</w>": 42893,
  "newsp": 16603,
  "newspaper</w>": 21077,
  "newspapers</w>": 43382,
  "nex": 3513,
  "next</w>": 3681,
  "ney</w>": 5137,
  "neys</w>": 33419,
  "nfc</w>": 41670,
  "nfl</w>": 14585,
  "ng": 21022,
  "ng</w>": 14612,
  "nh": 8370,
  "nhl</w>": 25638,
  "nhn": 44920,
  "nhëĨįíĺĳ": 32667,
  "nhíĪ¬ìŀĲì¦Ŀê¶Į</w>": 46355,
  "ni": 1700,
  "ni</w>": 23681,
  "nia</w>": 8589,
  "nic": 10569,
  "nic</w>": 27162,
  "nice</w>": 12933,
  "nichol": 41076,
  "nick": 29458,
  "nick</w>": 22365,
  "nie</w>": 15876,
  "nifer</w>": 49175,
  "nific": 6756,
  "niger": 47250,
  "night": 24507,
  "night</w>": 4681,
  "nightmare</w>": 48455,
  "nights</w>": 39483,
  "nin": 38258,
  "nine</w>": 13649,
  "ning</w>": 2079,
  "nings</w>": 16231,
  "ninten": 32869,
  "nintendo</w>": 33127,
  "nis": 44089,
  "nis</w>": 27161,
  "nit": 18175,
  "nity</w>": 28728,
  "nm</w>": 33821,
  "no": 752,
  "no</w>": 1610,
  "nobody</w>": 19332,
  "node</w>": 30845,
  "noise</w>": 27803,
  "nom": 10953,
  "nominated</w>": 48924,
  "nomination</w>": 34031,
  "nomine": 25281,
  "nominee</w>": 29561,
  "non": 10799,
  "non</w>": 6125,
  "none</w>": 13433,
  "noneth": 43453,
  "nonetheless</w>": 43487,
  "nonprofit</w>": 49088,
  "noon</w>": 18072,
  "nor": 2909,
  "nor</w>": 14178,
  "norm": 9113,
  "normal</w>": 12518,
  "normally</w>": 26790,
  "north": 25893,
  "north</w>": 5919,
  "northern</w>": 15853,
  "northwest</w>": 48804,
  "norway</w>": 48956,
  "nose</w>": 37785,
  "not": 25692,
  "not</w>": 1047,
  "notable</w>": 35793,
  "notably</w>": 40511,
  "note": 46719,
  "note</w>": 8559,
  "noted</w>": 13587,
  "notes</w>": 13402,
  "nothing</w>": 6435,
  "noti": 25274,
  "notic": 18293,
  "notice</w>": 16368,
  "noticed</w>": 23241,
  "noting</w>": 32285,
  "notion</w>": 31389,
  "notor": 39976,
  "nov": 5907,
  "nov</w>": 26041,
  "novel</w>": 21556,
  "november</w>": 9430,
  "now": 17683,
  "now</w>": 1507,
  "nowhere</w>": 37606,
  "npc": 30821,
  "npc</w>": 43415,
  "npr</w>": 46159,
  "nr": 42220,
  "ns": 30517,
  "ns</w>": 2906,
  "nsa</w>": 27943,
  "nt</w>": 29085,
  "nu": 9207,
  "nuc": 10470,
  "nucle": 10882,
  "nuclear</w>": 11660,
  "null</w>": 36143,
  "num": 3057,
  "number</w>": 4096,
  "numbers</w>": 9698,
  "numerous</w>": 20762,
  "nur": 21493,
  "nutri": 27339,
  "ny": 11858,
  "ny</w>": 8303,
  "nyt</w>": 42926,
  "o": 52,
  "o</w>": 262,
  "oak": 31182,
  "oakland</w>": 36087,
  "ob": 2120,
  "ob</w>": 31980,
  "obam": 29318,
  "obama</w>": 5600,
  "obamacare</w>": 30841,
  "obe": 42578,
  "objec": 27870,
  "object</w>": 15044,
  "objective</w>": 32267,
  "objects</w>": 21670,
  "oblig": 28935,
  "obsc": 44769,
  "observ": 20473,
  "observations</w>": 45001,
  "observed</w>": 25002,
  "obst": 42555,
  "obtain</w>": 32776,
  "obtained</w>": 25998,
  "obvi": 9814,
  "obvious</w>": 17610,
  "obviously</w>": 15894,
  "oc": 1992,
  "occas": 14881,
  "occasion</w>": 43625,
  "occasional</w>": 41264,
  "occasionally</w>": 36308,
  "occasions</w>": 45168,
  "occu": 10573,
  "occup": 25121,
  "occupation</w>": 39846,
  "occupied</w>": 36485,
  "occupy</w>": 42300,
  "occur": 13847,
  "occur</w>": 27082,
  "occurred</w>": 20063,
  "occurs</w>": 39549,
  "oce": 16944,
  "ocean</w>": 21712,
  "oci": 32642,
  "oct</w>": 26720,
  "octo": 9300,
  "october</w>": 9593,
  "od": 13330,
  "od</w>": 7687,
  "odd</w>": 30826,
  "odds</w>": 35261,
  "oec": 15913,
  "oecd</w>": 18356,
  "of": 44090,
  "of</w>": 525,
  "off": 1717,
  "off</w>": 2934,
  "offen": 10022,
  "offense</w>": 22399,
  "offensive</w>": 17125,
  "offer</w>": 10157,
  "offered</w>": 14648,
  "offering</w>": 19906,
  "offers</w>": 15445,
  "offic": 6165,
  "office</w>": 5819,
  "officer</w>": 10633,
  "officers</w>": 10769,
  "offices</w>": 32441,
  "offici": 4183,
  "official</w>": 7986,
  "officially</w>": 25314,
  "officials</w>": 7169,
  "offseason</w>": 47011,
  "offset</w>": 47705,
  "often</w>": 5229,
  "og": 25617,
  "og</w>": 35198,
  "ogy</w>": 35136,
  "oh</w>": 10030,
  "ohi": 20294,
  "ohio</w>": 20815,
  "oid</w>": 42619,
  "oil</w>": 8640,
  "ok": 8547,
  "ok</w>": 12844,
  "okay</w>": 23866,
  "okla": 33435,
  "oklahoma</w>": 33909,
  "ol": 686,
  "ol</w>": 8281,
  "ola</w>": 23487,
  "old</w>": 1747,
  "older</w>": 16181,
  "oldest</w>": 44042,
  "olds</w>": 36228,
  "ole</w>": 5942,
  "oled</w>": 17716,
  "oles": 37552,
  "oli": 18376,
  "olic</w>": 17595,
  "oliver</w>": 48405,
  "olo": 2814,
  "olog": 6912,
  "ologi": 10826,
  "ological</w>": 9296,
  "ologies</w>": 19429,
  "ologist</w>": 25865,
  "ologists</w>": 31878,
  "ology</w>": 4503,
  "ols</w>": 6770,
  "oly": 29678,
  "olym": 32142,
  "olympic</w>": 33716,
  "olympics</w>": 42917,
  "om": 630,
  "om</w>": 20177,
  "oma</w>": 47484,
  "ome": 18529,
  "ome</w>": 2535,
  "omen": 23183,
  "oming</w>": 31400,
  "oms</w>": 11751,
  "on": 491,
  "on</w>": 507,
  "ona</w>": 14072,
  "onal</w>": 11801,
  "onau": 43448,
  "once</w>": 4725,
  "ond</w>": 2994,
  "one": 19048,
  "one</w>": 984,
  "oned</w>": 13635,
  "oner</w>": 36256,
  "ones</w>": 4734,
  "ong": 3378,
  "ong</w>": 1618,
  "ongoing</w>": 21554,
  "ongs</w>": 17176,
  "onia</w>": 42360,
  "onic</w>": 10996,
  "onics</w>": 38262,
  "oning</w>": 26115,
  "online</w>": 7408,
  "only</w>": 2005,
  "onom": 3683,
  "ons</w>": 1868,
  "ont": 26310,
  "ontario</w>": 34060,
  "onto</w>": 9923,
  "ony</w>": 8111,
  "onym": 19918,
  "oo": 978,
  "oo</w>": 37105,
  "ood</w>": 1928,
  "ook</w>": 2499,
  "ool</w>": 3516,
  "oom</w>": 34261,
  "oon</w>": 41876,
  "op": 1241,
  "op</w>": 9449,
  "ope": 34345,
  "opec</w>": 37578,
  "open": 22821,
  "open</w>": 5024,
  "opened</w>": 14740,
  "opening</w>": 13949,
  "openly</w>": 37853,
  "opens</w>": 35616,
  "oper": 4301,
  "operate</w>": 27382,
  "operated</w>": 41698,
  "operates</w>": 48568,
  "operating</w>": 17703,
  "operation</w>": 13902,
  "operational</w>": 45725,
  "operations</w>": 13783,
  "operator</w>": 38968,
  "operators</w>": 43737,
  "oph": 12269,
  "opho": 42051,
  "opini": 30611,
  "opinion</w>": 14816,
  "opinions</w>": 31852,
  "oppon": 14325,
  "opponent</w>": 24056,
  "opponents</w>": 24119,
  "opport": 8090,
  "opportunities</w>": 20741,
  "opportunity</w>": 11056,
  "oppos": 16425,
  "oppose</w>": 40525,
  "opposed</w>": 21008,
  "opposing</w>": 40431,
  "opposite</w>": 24030,
  "opposition</w>": 14229,
  "ops</w>": 11310,
  "opt</w>": 40278,
  "optim": 22966,
  "optimi": 35486,
  "option</w>": 11314,
  "options</w>": 13258,
  "or": 503,
  "or</w>": 600,
  "ora</w>": 30034,
  "oral</w>": 28536,
  "orange</w>": 23196,
  "oration</w>": 30203,
  "orbit</w>": 41088,
  "orche": 44960,
  "order</w>": 4837,
  "ordered</w>": 20758,
  "orders</w>": 18355,
  "ordin": 9496,
  "ordinary</w>": 20495,
  "ore": 21325,
  "ore</w>": 1163,
  "ored</w>": 19973,
  "oreg": 26505,
  "oregon</w>": 28638,
  "org</w>": 13380,
  "organ": 4364,
  "organic</w>": 30829,
  "organis": 41120,
  "organisation</w>": 34908,
  "organiz": 5579,
  "organization</w>": 10790,
  "organizations</w>": 17755,
  "organized</w>": 24964,
  "organizing</w>": 49359,
  "ori": 4898,
  "ori</w>": 44589,
  "orial</w>": 17505,
  "orientation</w>": 43308,
  "oriented</w>": 44330,
  "ories</w>": 12620,
  "orig": 5108,
  "origin": 5902,
  "origin</w>": 27899,
  "original</w>": 8079,
  "originally</w>": 17551,
  "origins</w>": 44744,
  "oring</w>": 11880,
  "orists</w>": 26058,
  "orith": 28314,
  "orities</w>": 10454,
  "ority</w>": 5508,
  "orlando</w>": 38288,
  "orleans</w>": 40564,
  "orly</w>": 45131,
  "orm": 25894,
  "ors</w>": 2037,
  "ort</w>": 3989,
  "ortho": 34068,
  "orthodo": 38621,
  "orthodox</w>": 44323,
  "ory</w>": 1871,
  "os": 6308,
  "os</w>": 4071,
  "osc": 32162,
  "oscar</w>": 47496,
  "osity</w>": 42556,
  "ost": 24899,
  "ost</w>": 18837,
  "ot": 21609,
  "ot</w>": 7259,
  "ota</w>": 18034,
  "other": 14291,
  "other</w>": 1482,
  "others</w>": 5741,
  "otherwise</w>": 15820,
  "otic</w>": 34136,
  "ots</w>": 20609,
  "ott": 24240,
  "ott</w>": 32850,
  "ottawa</w>": 39253,
  "ou": 500,
  "oud</w>": 9483,
  "ough": 6463,
  "ough</w>": 1585,
  "oughly</w>": 18507,
  "ought</w>": 3489,
  "oul": 16427,
  "oul</w>": 26154,
  "ould</w>": 1070,
  "ouldn</w>": 8748,
  "oun": 939,
  "ounce</w>": 47802,
  "ounced</w>": 37335,
  "ound</w>": 1625,
  "ounded</w>": 25435,
  "ounds</w>": 6973,
  "our": 1361,
  "our</w>": 1078,
  "oured</w>": 34365,
  "ours</w>": 5644,
  "ourselves</w>": 22307,
  "ous": 2751,
  "ous</w>": 1706,
  "ouse</w>": 47082,
  "ously</w>": 4481,
  "ousness</w>": 25026,
  "out": 2922,
  "out</w>": 949,
  "outcome</w>": 26850,
  "outcomes</w>": 40972,
  "outer</w>": 45934,
  "outing</w>": 35033,
  "outlets</w>": 38899,
  "output</w>": 22736,
  "outr": 36399,
  "outrage</w>": 49295,
  "outs</w>": 18778,
  "outside</w>": 7302,
  "outstanding</w>": 39084,
  "ov": 21994,
  "ov</w>": 33586,
  "over": 3406,
  "over</w>": 1971,
  "overall</w>": 11605,
  "overcome</w>": 38404,
  "overnight</w>": 43619,
  "overseas</w>": 33884,
  "oversight</w>": 42141,
  "overwhel": 24383,
  "overwhelming</w>": 40494,
  "ow": 4657,
  "ow</w>": 6114,
  "own</w>": 3405,
  "owned</w>": 18556,
  "owner</w>": 15653,
  "owners</w>": 16698,
  "ownership</w>": 30015,
  "owns</w>": 40010,
  "ox": 11960,
  "oxford</w>": 38501,
  "oxide</w>": 39169,
  "oxy": 34613,
  "oxygen</w>": 45115,
  "oz</w>": 39731,
  "p": 53,
  "p</w>": 292,
  "pa": 2560,
  "pa</w>": 10339,
  "pac": 27708,
  "pac</w>": 31390,
  "pace</w>": 25880,
  "paci": 20973,
  "pacific</w>": 23416,
  "pack": 10592,
  "pack</w>": 18025,
  "package</w>": 18887,
  "packages</w>": 39870,
  "packed</w>": 36665,
  "pad": 35519,
  "pad</w>": 40375,
  "pag": 17098,
  "page</w>": 7388,
  "pages</w>": 18818,
  "pai": 3790,
  "paid</w>": 9995,
  "paig": 4861,
  "pain": 10226,
  "pain</w>": 15903,
  "painful</w>": 43574,
  "paint</w>": 31355,
  "painted</w>": 43029,
  "painting</w>": 40709,
  "pair</w>": 14378,
  "paired</w>": 42683,
  "pairs</w>": 42329,
  "pak": 16399,
  "pakistan": 47945,
  "pakistan</w>": 21155,
  "pal": 6434,
  "pal</w>": 16464,
  "palace</w>": 40615,
  "palest": 14364,
  "palestini": 16598,
  "palestinian</w>": 22939,
  "palestinians</w>": 35517,
  "palm</w>": 46424,
  "pam": 46160,
  "pan": 6604,
  "pan</w>": 33718,
  "panel</w>": 18949,
  "panels</w>": 44314,
  "panic</w>": 30260,
  "pants</w>": 46369,
  "pap": 6838,
  "paper</w>": 9946,
  "papers</w>": 25835,
  "par": 1144,
  "par</w>": 47006,
  "parad": 26027,
  "parade</w>": 46737,
  "parag": 45857,
  "parallel</w>": 39358,
  "parame": 28178,
  "parameters</w>": 43075,
  "paren": 5371,
  "parent</w>": 26356,
  "parents</w>": 10374,
  "paris</w>": 18213,
  "park</w>": 8196,
  "parker</w>": 44780,
  "parking</w>": 25808,
  "parks</w>": 33371,
  "parli": 14988,
  "parliam": 37622,
  "parliament</w>": 19399,
  "parliamentary</w>": 43748,
  "part": 4123,
  "part</w>": 3254,
  "parti": 16094,
  "partial</w>": 42814,
  "partially</w>": 45344,
  "partic": 5936,
  "particip": 9292,
  "participants</w>": 22259,
  "participate</w>": 29260,
  "participating</w>": 43644,
  "participation</w>": 35015,
  "particles</w>": 44155,
  "particul": 10613,
  "particular</w>": 10506,
  "particularly</w>": 10916,
  "parties</w>": 14480,
  "partis": 27051,
  "partisan</w>": 29905,
  "partly</w>": 36723,
  "partner": 44022,
  "partner</w>": 17801,
  "partners</w>": 20976,
  "partnership</w>": 28277,
  "parts</w>": 10433,
  "party</w>": 4457,
  "pas": 13170,
  "pass": 5022,
  "pass</w>": 9440,
  "passage</w>": 36315,
  "passed</w>": 11835,
  "passeng": 21935,
  "passenger</w>": 40195,
  "passengers</w>": 32761,
  "passes</w>": 27283,
  "passing</w>": 19405,
  "passion</w>": 33522,
  "password</w>": 34691,
  "past</w>": 5279,
  "pat": 3822,
  "pat</w>": 39683,
  "patch</w>": 25623,
  "patent</w>": 38812,
  "path": 23831,
  "path</w>": 13271,
  "paths</w>": 49065,
  "pathy</w>": 34400,
  "pati": 8604,
  "patient</w>": 20768,
  "patients</w>": 14091,
  "patri": 19838,
  "patrick</w>": 25391,
  "patriots</w>": 41644,
  "patrol</w>": 41852,
  "patter": 13238,
  "pattern</w>": 21356,
  "patterns</w>": 27919,
  "paul": 46579,
  "paul</w>": 9243,
  "pav": 33585,
  "pay": 7708,
  "pay</w>": 6445,
  "paying</w>": 17846,
  "payment</w>": 23217,
  "payments</w>": 25351,
  "pays</w>": 47740,
  "pb": 36927,
  "pb</w>": 33818,
  "pc": 6290,
  "pc</w>": 8126,
  "pcë°©</w>": 39105,
  "pd": 8823,
  "pd</w>": 21664,
  "pdf</w>": 30603,
  "pdê°Ģ</w>": 47591,
  "pdëĬĶ</w>": 33416,
  "pe": 1060,
  "pe</w>": 2513,
  "peac": 25805,
  "peace</w>": 13567,
  "peaceful</w>": 39079,
  "peak</w>": 26642,
  "pear": 36172,
  "pec": 37598,
  "ped</w>": 4247,
  "pedi": 29675,
  "pedia</w>": 31747,
  "peer</w>": 37108,
  "peers</w>": 49219,
  "peg</w>": 42810,
  "pel": 15153,
  "pel</w>": 39577,
  "pen": 2648,
  "pen</w>": 28790,
  "penalties</w>": 47821,
  "penalty</w>": 27370,
  "pence</w>": 48634,
  "pending</w>": 34918,
  "penetr": 43430,
  "penn": 26400,
  "pennsylvania</w>": 30760,
  "pension</w>": 47067,
  "pent": 26600,
  "pentagon</w>": 36040,
  "peo": 1656,
  "people</w>": 1664,
  "peoples</w>": 48053,
  "pepper</w>": 47898,
  "per": 997,
  "per</w>": 3531,
  "perce": 28307,
  "perceived</w>": 37258,
  "percent": 18475,
  "percent</w>": 4515,
  "percentage</w>": 19881,
  "perception</w>": 35460,
  "perf": 8759,
  "perfec": 24264,
  "perfect</w>": 12272,
  "perfectly</w>": 26645,
  "perform</w>": 20843,
  "performan": 8029,
  "performance</w>": 8859,
  "performances</w>": 39978,
  "performed</w>": 21923,
  "performing</w>": 29824,
  "perhaps</w>": 8869,
  "peri": 3218,
  "perio": 28441,
  "period</w>": 9328,
  "periods</w>": 38615,
  "perman": 20069,
  "permanent</w>": 25493,
  "permission</w>": 28800,
  "permit</w>": 38389,
  "permitted</w>": 46977,
  "perpe": 29821,
  "perry</w>": 40028,
  "pers</w>": 30772,
  "persi": 24983,
  "persist": 41884,
  "person": 5167,
  "person</w>": 5320,
  "personal</w>": 8534,
  "personality</w>": 30175,
  "personally</w>": 23319,
  "personnel</w>": 27397,
  "persons</w>": 31961,
  "perspective</w>": 21050,
  "persu": 35605,
  "pes": 32144,
  "pes</w>": 6841,
  "pet</w>": 21847,
  "peter": 35981,
  "peter</w>": 16416,
  "peti": 25953,
  "petition</w>": 36675,
  "petro": 38923,
  "pets</w>": 44612,
  "pf</w>": 31736,
  "pg": 27147,
  "pg</w>": 14581,
  "pga</w>": 28980,
  "ph": 1756,
  "ph</w>": 12093,
  "pha": 38722,
  "pha</w>": 32273,
  "phan": 48701,
  "phar": 27381,
  "pharmac": 36676,
  "phas": 20052,
  "phase</w>": 21434,
  "phe": 30442,
  "phen": 20368,
  "phenomen": 24544,
  "phenomenon</w>": 35374,
  "phi": 13185,
  "phia</w>": 26251,
  "phil": 8543,
  "phil</w>": 39037,
  "philadel": 26321,
  "philadelphia</w>": 26578,
  "phili": 20402,
  "philip</w>": 44615,
  "philipp": 31145,
  "philippines</w>": 43678,
  "philos": 16156,
  "philosoph": 18988,
  "philosophy</w>": 26235,
  "pho": 3865,
  "phoenix</w>": 34623,
  "phone</w>": 5767,
  "phones</w>": 17193,
  "photo": 7077,
  "photo</w>": 7326,
  "photograph": 28621,
  "photograph</w>": 33467,
  "photographs</w>": 43293,
  "photography</w>": 46442,
  "photos</w>": 13449,
  "php</w>": 29943,
  "phr": 25320,
  "phrase</w>": 33878,
  "phy": 31038,
  "phy</w>": 25503,
  "phys": 7599,
  "physi": 48103,
  "physical</w>": 12344,
  "physically</w>": 36014,
  "physics</w>": 33271,
  "pi": 2382,
  "pi</w>": 24773,
  "pia</w>": 48826,
  "pic": 3755,
  "pic</w>": 13034,
  "pical</w>": 18560,
  "pically</w>": 19171,
  "pick": 44965,
  "pick</w>": 10731,
  "picked</w>": 21407,
  "picking</w>": 34653,
  "picks</w>": 32224,
  "pics</w>": 19560,
  "picture</w>": 12763,
  "pictured</w>": 45923,
  "pictures</w>": 18969,
  "pid</w>": 23254,
  "pie</w>": 39542,
  "piec": 7668,
  "piece</w>": 10703,
  "pieces</w>": 18656,
  "pied</w>": 29695,
  "pier": 33643,
  "pig": 40211,
  "pil": 12018,
  "pile</w>": 48891,
  "pill": 45863,
  "pilot</w>": 23993,
  "pin": 18893,
  "pin</w>": 28394,
  "ping</w>": 4724,
  "pink</w>": 32470,
  "pinterest</w>": 44464,
  "pion</w>": 21894,
  "pione": 40041,
  "pipe</w>": 46300,
  "pipel": 28058,
  "pipeline</w>": 32021,
  "pir": 21386,
  "pire</w>": 17905,
  "pit": 9815,
  "pit</w>": 32491,
  "pitch</w>": 24659,
  "pitt": 35221,
  "pitts": 37919,
  "pittsburgh</w>": 39261,
  "pix": 28387,
  "pizz": 32745,
  "pizza</w>": 39331,
  "pj": 41346,
  "pk": 36113,
  "pk</w>": 36864,
  "pl": 701,
  "pl</w>": 36847,
  "pla": 15267,
  "plac": 4968,
  "place</w>": 3630,
  "placed</w>": 10784,
  "placement</w>": 47477,
  "places</w>": 12552,
  "placing</w>": 44774,
  "plain": 37268,
  "plain</w>": 30214,
  "plainti": 49301,
  "plan": 4221,
  "plan</w>": 6499,
  "plane</w>": 18610,
  "planes</w>": 36497,
  "planet</w>": 16378,
  "planets</w>": 46565,
  "planned</w>": 15463,
  "planning</w>": 15520,
  "plans</w>": 9544,
  "plant</w>": 15158,
  "plants</w>": 20151,
  "plas": 36654,
  "plastic</w>": 26623,
  "plat": 9134,
  "plate</w>": 19261,
  "plates</w>": 40740,
  "platform</w>": 13623,
  "platforms</w>": 31788,
  "play": 2224,
  "play</w>": 3496,
  "played</w>": 7155,
  "player</w>": 5970,
  "players</w>": 5364,
  "playing</w>": 7355,
  "playo": 21412,
  "playoff</w>": 35542,
  "playoffs</w>": 35045,
  "plays</w>": 13764,
  "playstation</w>": 39304,
  "ple": 2819,
  "ple</w>": 1283,
  "pleas": 21363,
  "pleasant</w>": 46043,
  "please</w>": 9079,
  "pleased</w>": 38951,
  "pleasure</w>": 36896,
  "pled": 35752,
  "pled</w>": 28154,
  "pledge</w>": 41987,
  "plenty</w>": 19289,
  "ples</w>": 7705,
  "pli": 23411,
  "plic": 4568,
  "pling</w>": 31967,
  "plo": 3178,
  "plot</w>": 25066,
  "plu": 20133,
  "plug</w>": 43734,
  "plum": 48842,
  "plus</w>": 10880,
  "ply</w>": 5342,
  "pm": 38567,
  "pm</w>": 7245,
  "po": 855,
  "po</w>": 18714,
  "pocket</w>": 32487,
  "pod": 30134,
  "podcast</w>": 38351,
  "poe": 44540,
  "poin": 2515,
  "point": 20948,
  "point</w>": 3750,
  "pointed</w>": 12325,
  "pointing</w>": 24717,
  "pointment</w>": 32229,
  "points</w>": 6601,
  "pois": 46111,
  "pok": 34284,
  "pol": 1568,
  "poland</w>": 41100,
  "polar</w>": 48521,
  "pole</w>": 46559,
  "poli": 3365,
  "polic": 4670,
  "police</w>": 3749,
  "policies</w>": 14239,
  "policy</w>": 6155,
  "polish</w>": 42817,
  "political</w>": 4916,
  "politically</w>": 32968,
  "politici": 15370,
  "politician</w>": 42727,
  "politicians</w>": 20093,
  "politics</w>": 11410,
  "poll": 27345,
  "poll</w>": 18347,
  "polling</w>": 41637,
  "polls</w>": 25167,
  "pollution</w>": 36191,
  "poly": 23039,
  "poly</w>": 46309,
  "pom": 46986,
  "pon": 9367,
  "poo": 47512,
  "pool</w>": 14639,
  "poor</w>": 12097,
  "poorly</w>": 46965,
  "pop</w>": 13796,
  "pope</w>": 33276,
  "popul": 4611,
  "popular</w>": 9281,
  "popularity</w>": 34203,
  "population</w>": 9930,
  "populations</w>": 34257,
  "por": 1203,
  "porary</w>": 19571,
  "porn</w>": 46540,
  "port": 2701,
  "port</w>": 2413,
  "ported</w>": 31988,
  "porters</w>": 10380,
  "portfol": 46443,
  "portion</w>": 21349,
  "portland</w>": 33781,
  "portr": 30941,
  "ports</w>": 16897,
  "portu": 38393,
  "pos": 2030,
  "pos</w>": 39970,
  "pose": 35388,
  "pose</w>": 8046,
  "posed</w>": 5443,
  "posedly</w>": 43236,
  "poses</w>": 19434,
  "posi": 3626,
  "posing</w>": 41126,
  "position</w>": 5179,
  "positions</w>": 18197,
  "positive</w>": 12487,
  "poss": 29161,
  "possession</w>": 27185,
  "possib": 9589,
  "possibilities</w>": 43664,
  "possibility</w>": 18729,
  "possible</w>": 5021,
  "possibly</w>": 17511,
  "post": 13293,
  "post</w>": 4885,
  "posted</w>": 12360,
  "poster</w>": 46789,
  "posting</w>": 37469,
  "posts</w>": 18068,
  "pot": 5553,
  "pot</w>": 24735,
  "potential</w>": 8374,
  "potentially</w>": 19619,
  "pound</w>": 37323,
  "pounds</w>": 28118,
  "pover": 21601,
  "poverty</w>": 23582,
  "pow": 37344,
  "powder</w>": 46274,
  "power": 7819,
  "power</w>": 4012,
  "powered</w>": 26250,
  "powerful</w>": 12559,
  "powers</w>": 18831,
  "pp": 1915,
  "pp</w>": 10397,
  "pped</w>": 7044,
  "pper</w>": 12806,
  "ppers</w>": 42924,
  "ppi</w>": 35900,
  "pping</w>": 10230,
  "ppy</w>": 41101,
  "pr": 1599,
  "pr</w>": 17030,
  "prac": 6056,
  "practic": 39142,
  "practical</w>": 28915,
  "practice</w>": 10700,
  "practices</w>": 21811,
  "praise</w>": 45345,
  "praised</w>": 45052,
  "pray": 28587,
  "prayer</w>": 40325,
  "pre": 1006,
  "pre</w>": 12719,
  "pread</w>": 29900,
  "prec": 17016,
  "prece": 21144,
  "preci": 14650,
  "precise</w>": 44498,
  "precisely</w>": 36142,
  "predat": 37131,
  "predec": 46088,
  "predic": 10669,
  "predict</w>": 40775,
  "predictable</w>": 45733,
  "predicted</w>": 34917,
  "prefer": 34398,
  "prefer</w>": 28792,
  "preferred</w>": 37449,
  "pregn": 23086,
  "pregnancy</w>": 43953,
  "pregnant</w>": 38433,
  "prehen": 24948,
  "prelimin": 46772,
  "preliminary</w>": 48085,
  "premi": 11523,
  "premier</w>": 23418,
  "premiere</w>": 49193,
  "premis": 41380,
  "premium</w>": 29969,
  "prep": 27118,
  "prepa": 17981,
  "prepar": 21052,
  "preparation</w>": 44445,
  "prepare</w>": 29535,
  "prepared</w>": 19328,
  "preparing</w>": 35492,
  "pres": 1790,
  "prescri": 33302,
  "presence</w>": 16862,
  "present</w>": 10067,
  "presentation</w>": 35996,
  "presented</w>": 19136,
  "presents</w>": 38110,
  "preserve</w>": 42723,
  "presi": 2917,
  "presidency</w>": 32803,
  "president</w>": 3493,
  "presidential</w>": 11818,
  "presidents</w>": 47441,
  "press</w>": 5186,
  "pressed</w>": 23294,
  "pressing</w>": 34746,
  "pression</w>": 17856,
  "pressure</w>": 11903,
  "presum": 29214,
  "presumably</w>": 44379,
  "pretty</w>": 7662,
  "prev": 11701,
  "preven": 18690,
  "prevent</w>": 14955,
  "prevented</w>": 47647,
  "preventing</w>": 43174,
  "prevention</w>": 39476,
  "previ": 6502,
  "preview</w>": 42899,
  "previous</w>": 9938,
  "previously</w>": 12871,
  "pri": 2299,
  "pric": 24998,
  "price</w>": 8018,
  "prices</w>": 13864,
  "pricing</w>": 42720,
  "pride</w>": 30319,
  "primar": 22334,
  "primarily</w>": 25989,
  "primary</w>": 12866,
  "prime</w>": 10814,
  "prin": 5403,
  "princ": 41434,
  "prince</w>": 26572,
  "princess</w>": 45692,
  "princi": 11776,
  "principal</w>": 34364,
  "principle</w>": 27526,
  "principles</w>": 26458,
  "print": 42505,
  "print</w>": 14377,
  "printed</w>": 33564,
  "printing</w>": 40641,
  "prints</w>": 45249,
  "prior</w>": 16116,
  "priorities</w>": 46458,
  "priority</w>": 27032,
  "pris": 5197,
  "prise</w>": 13005,
  "prison": 21643,
  "prison</w>": 14078,
  "prisoners</w>": 34079,
  "priv": 5253,
  "privacy</w>": 17933,
  "private</w>": 8198,
  "privile": 26907,
  "privilege</w>": 41314,
  "prize</w>": 26820,
  "pro": 820,
  "pro</w>": 9419,
  "prob": 2944,
  "probability</w>": 48166,
  "probably</w>": 6795,
  "probe</w>": 38089,
  "proble": 4149,
  "problem</w>": 6066,
  "problems</w>": 8652,
  "proc": 4336,
  "proce": 11706,
  "procedure</w>": 34449,
  "procedures</w>": 36491,
  "proceedings</w>": 45859,
  "process</w>": 5722,
  "processes</w>": 28368,
  "processing</w>": 26589,
  "processor</w>": 43520,
  "produc": 3047,
  "produce</w>": 14264,
  "produced</w>": 13838,
  "producer</w>": 25882,
  "producers</w>": 33748,
  "produces</w>": 42079,
  "producing</w>": 27609,
  "product</w>": 10466,
  "production</w>": 8962,
  "productive</w>": 27546,
  "productivity</w>": 42249,
  "products</w>": 10928,
  "prof": 4117,
  "profes": 10491,
  "profession": 30051,
  "professional</w>": 14643,
  "professionals</w>": 38686,
  "professor</w>": 13601,
  "profile</w>": 16918,
  "profit</w>": 17101,
  "profits</w>": 29396,
  "progr": 7419,
  "program": 13955,
  "program</w>": 6382,
  "programm": 44917,
  "programme</w>": 31906,
  "programming</w>": 24495,
  "programs</w>": 13345,
  "progres": 27418,
  "progress</w>": 15373,
  "progressive</w>": 25398,
  "prohi": 22127,
  "projec": 38733,
  "project</w>": 5728,
  "projected</w>": 40912,
  "projects</w>": 13050,
  "proli": 45718,
  "promin": 23274,
  "prominent</w>": 28091,
  "promis": 7927,
  "promise</w>": 16962,
  "promised</w>": 20895,
  "promises</w>": 30506,
  "promising</w>": 31203,
  "promo": 9541,
  "promote</w>": 25532,
  "promoted</w>": 42484,
  "promoting</w>": 35528,
  "promotion</w>": 36405,
  "promp": 24506,
  "prompted</w>": 39719,
  "pron": 32234,
  "proof</w>": 20830,
  "propag": 26916,
  "propaganda</w>": 34281,
  "proper": 7528,
  "proper</w>": 23075,
  "properly</w>": 25565,
  "properties</w>": 23420,
  "property</w>": 11766,
  "proph": 39835,
  "propor": 34001,
  "proportion</w>": 47199,
  "propos": 13045,
  "proposal</w>": 19735,
  "proposals</w>": 34116,
  "proposed</w>": 15477,
  "prosecu": 15725,
  "prosecution</w>": 42174,
  "prosecutor</w>": 38308,
  "prosecutors</w>": 31217,
  "prosp": 20719,
  "prospec": 34851,
  "prospect</w>": 30356,
  "prospects</w>": 38326,
  "prostitu": 48080,
  "prot": 11427,
  "prote": 8287,
  "protec": 7110,
  "protect</w>": 12748,
  "protected</w>": 22572,
  "protecting</w>": 32154,
  "protection</w>": 14553,
  "protections</w>": 46302,
  "protein</w>": 30220,
  "protest</w>": 19407,
  "protesters</w>": 23160,
  "protests</w>": 23119,
  "proto": 16326,
  "protocol</w>": 34996,
  "prototype</w>": 39022,
  "proud</w>": 24018,
  "prove</w>": 19338,
  "proved</w>": 27456,
  "proven</w>": 29658,
  "provi": 3718,
  "provide</w>": 7596,
  "provided</w>": 11518,
  "provider</w>": 37590,
  "providers</w>": 31693,
  "provides</w>": 14950,
  "providing</w>": 17032,
  "provin": 32155,
  "province</w>": 24193,
  "provincial</w>": 45980,
  "provision</w>": 41792,
  "provisions</w>": 42617,
  "provo": 44365,
  "pru": 49280,
  "ps": 10158,
  "ps</w>": 1778,
  "pse": 45986,
  "pse</w>": 32132,
  "pson</w>": 25812,
  "psy": 8890,
  "psych": 10389,
  "psychiat": 37412,
  "psycho": 40297,
  "psychological</w>": 33614,
  "psychology</w>": 36892,
  "pt": 5894,
  "pt</w>": 2864,
  "pted</w>": 36616,
  "ption</w>": 6823,
  "ptions</w>": 33079,
  "pts</w>": 43298,
  "pu": 1313,
  "pu</w>": 27606,
  "pub</w>": 45523,
  "publ": 3056,
  "publi": 3362,
  "public": 4269,
  "public</w>": 3376,
  "publication</w>": 30259,
  "publicly</w>": 22162,
  "publish</w>": 40542,
  "published</w>": 8649,
  "publisher</w>": 40199,
  "publishers</w>": 46959,
  "publishing</w>": 30444,
  "puer": 49000,
  "pul": 3219,
  "pull</w>": 19548,
  "pulled</w>": 20937,
  "pulling</w>": 36978,
  "pulse</w>": 43535,
  "pum": 30112,
  "pun": 8651,
  "punch</w>": 42072,
  "punishment</w>": 37482,
  "punk</w>": 43710,
  "pur": 4405,
  "purch": 11309,
  "purchase</w>": 19696,
  "purchased</w>": 32157,
  "pure</w>": 26912,
  "purple</w>": 37674,
  "purpose</w>": 15999,
  "purposes</w>": 26786,
  "pursu": 29186,
  "pursue</w>": 35584,
  "pursuit</w>": 49270,
  "pus": 7384,
  "pus</w>": 15177,
  "push": 12433,
  "push</w>": 14253,
  "pushed</w>": 23276,
  "pushing</w>": 23791,
  "put</w>": 3864,
  "putin</w>": 22877,
  "puts</w>": 20834,
  "putting</w>": 15296,
  "puzz": 33346,
  "pv": 22359,
  "pw": 39587,
  "px</w>": 13560,
  "py": 11814,
  "py</w>": 18458,
  "pyth": 28247,
  "python</w>": 30792,
  "pê°Ģ</w>": 35963,
  "pë¥¼</w>": 30975,
  "pëĬĶ</w>": 24316,
  "pìĿĺ</w>": 32455,
  "q": 54,
  "q</w>": 304,
  "qa": 32516,
  "qaeda</w>": 35325,
  "qi</w>": 26108,
  "ql</w>": 34780,
  "qm</w>": 48569,
  "qr": 37805,
  "qu": 1028,
  "quali": 13591,
  "qualified</w>": 35118,
  "qualify</w>": 47081,
  "quality</w>": 10013,
  "quan": 33698,
  "quanti": 26591,
  "quantum</w>": 38779,
  "quar": 7429,
  "quarter": 18420,
  "quarter</w>": 16987,
  "quarterback</w>": 25614,
  "quarters</w>": 23433,
  "que": 9660,
  "que</w>": 5895,
  "quebec</w>": 47744,
  "queen</w>": 23029,
  "quer": 46749,
  "query</w>": 38162,
  "ques": 3985,
  "ques</w>": 19385,
  "quest</w>": 25910,
  "question": 39771,
  "question</w>": 6532,
  "questioned</w>": 35805,
  "questioning</w>": 46057,
  "questions</w>": 8623,
  "qui": 10465,
  "quick": 8986,
  "quick</w>": 14788,
  "quickly</w>": 10046,
  "quie": 37114,
  "quiet</w>": 28607,
  "quietly</w>": 46158,
  "quin": 38511,
  "quir": 27793,
  "quiry</w>": 34525,
  "quit</w>": 38947,
  "quite</w>": 7803,
  "quo": 12367,
  "quote</w>": 27742,
  "quoted</w>": 35006,
  "quotes</w>": 45651,
  "r": 55,
  "r</w>": 264,
  "ra": 1096,
  "ra</w>": 9796,
  "rab": 21374,
  "rac": 6093,
  "race</w>": 9056,
  "races</w>": 31024,
  "racial</w>": 25438,
  "racing</w>": 27852,
  "racism</w>": 31326,
  "racist</w>": 28532,
  "rad": 11194,
  "radar</w>": 39248,
  "radi": 8433,
  "radiation</w>": 38703,
  "radical</w>": 24984,
  "radio</w>": 12875,
  "raft</w>": 27656,
  "rag": 45664,
  "rage</w>": 34353,
  "rai": 22137,
  "raid</w>": 19778,
  "rail": 27955,
  "rail</w>": 30656,
  "rain": 32967,
  "rain</w>": 17717,
  "raise</w>": 13860,
  "raised</w>": 12357,
  "raises</w>": 38364,
  "raising</w>": 23227,
  "ral": 41160,
  "rally</w>": 23829,
  "ram": 8950,
  "ram</w>": 15539,
  "rams</w>": 42063,
  "ran": 5672,
  "ran</w>": 12795,
  "rand": 28342,
  "rand</w>": 46497,
  "random": 41455,
  "random</w>": 22347,
  "rang": 11271,
  "range</w>": 9346,
  "rangers</w>": 39377,
  "ranging</w>": 39075,
  "rank</w>": 27194,
  "ranked</w>": 27437,
  "ranking</w>": 33074,
  "rankings</w>": 49351,
  "ranks</w>": 33616,
  "rant</w>": 26524,
  "rap": 6741,
  "rap</w>": 25161,
  "rape</w>": 22395,
  "rapid</w>": 31228,
  "rapidly</w>": 30555,
  "rare</w>": 18124,
  "rarely</w>": 28161,
  "ras": 35523,
  "rat": 15932,
  "rat</w>": 47202,
  "rate</w>": 7989,
  "rated</w>": 29823,
  "rates</w>": 13032,
  "rather</w>": 6252,
  "rati": 22045,
  "rating</w>": 23399,
  "ratings</w>": 34847,
  "ratio</w>": 30211,
  "rational</w>": 33538,
  "rative</w>": 22529,
  "raw": 36563,
  "raw</w>": 23937,
  "ray": 35489,
  "ray</w>": 10417,
  "rays</w>": 45614,
  "rb</w>": 40692,
  "rc</w>": 38221,
  "rd</w>": 16589,
  "re": 459,
  "re</w>": 1443,
  "reach</w>": 12194,
  "reached</w>": 13720,
  "reaching</w>": 27750,
  "react</w>": 34421,
  "reaction</w>": 21788,
  "reactions</w>": 46425,
  "read": 2649,
  "read</w>": 4285,
  "reader</w>": 27359,
  "readers</w>": 21505,
  "reading</w>": 9434,
  "reads</w>": 22493,
  "ready</w>": 3837,
  "reagan</w>": 39219,
  "real": 11841,
  "real</w>": 4754,
  "realistic</w>": 35911,
  "reality</w>": 11092,
  "realize</w>": 22253,
  "realized</w>": 25008,
  "really</w>": 3333,
  "realm</w>": 47114,
  "rear</w>": 32804,
  "reas": 7421,
  "reason": 16148,
  "reason</w>": 7306,
  "reasonable</w>": 23286,
  "reasons</w>": 12432,
  "rebel": 24328,
  "rebel</w>": 38510,
  "rebels</w>": 35245,
  "rec": 1367,
  "recall</w>": 32094,
  "recalled</w>": 40914,
  "recei": 4669,
  "receive</w>": 12470,
  "received</w>": 8707,
  "receiver</w>": 32508,
  "receiving</w>": 23508,
  "recent</w>": 6266,
  "recently</w>": 7874,
  "recep": 26597,
  "recession</w>": 37673,
  "reci": 17261,
  "recipe</w>": 33050,
  "recipi": 45256,
  "reck": 34823,
  "reco": 7034,
  "recogn": 37753,
  "recogni": 10653,
  "recognition</w>": 28981,
  "recognize</w>": 25976,
  "recognized</w>": 28948,
  "recomm": 11673,
  "recommend": 27947,
  "recommend</w>": 28484,
  "recommendations</w>": 38660,
  "recommended</w>": 29973,
  "recor": 4354,
  "record</w>": 7538,
  "recorded</w>": 20028,
  "recording</w>": 25879,
  "records</w>": 12700,
  "recover</w>": 42743,
  "recovered</w>": 42895,
  "recovery</w>": 24605,
  "recre": 31970,
  "recru": 18549,
  "recur": 46732,
  "recy": 44165,
  "red": 14560,
  "red</w>": 1489,
  "redd": 23902,
  "reddit</w>": 27024,
  "redi": 26220,
  "reduc": 9575,
  "reduce</w>": 15637,
  "reduced</w>": 20340,
  "reducing</w>": 29563,
  "reduction</w>": 28423,
  "ree</w>": 2036,
  "ref": 7738,
  "ref</w>": 33008,
  "refer": 8372,
  "refer</w>": 36018,
  "referen": 32896,
  "reference</w>": 19021,
  "references</w>": 27064,
  "referendum</w>": 33356,
  "referred</w>": 24382,
  "referring</w>": 30388,
  "refers</w>": 40627,
  "refl": 11931,
  "reflect</w>": 27877,
  "reflected</w>": 45976,
  "reflects</w>": 44662,
  "reform</w>": 17123,
  "reforms</w>": 35171,
  "refu": 14175,
  "refuge": 17566,
  "refugee</w>": 37385,
  "refugees</w>": 24321,
  "refuse</w>": 40610,
  "refused</w>": 20213,
  "reg": 3176,
  "regar": 10330,
  "regard</w>": 26258,
  "regarded</w>": 39605,
  "regarding</w>": 17779,
  "regardless</w>": 22658,
  "regi": 4881,
  "regim": 15819,
  "regime</w>": 19809,
  "region</w>": 11113,
  "regional</w>": 19763,
  "regions</w>": 25557,
  "register</w>": 26436,
  "registered</w>": 25627,
  "registration</w>": 35100,
  "regre": 34198,
  "regul": 7093,
  "regular</w>": 13132,
  "regularly</w>": 26853,
  "regulation</w>": 27605,
  "regulations</w>": 22858,
  "regulatory</w>": 34141,
  "reha": 44118,
  "reid</w>": 44114,
  "rein": 24710,
  "reject</w>": 46051,
  "rejected</w>": 26791,
  "rel": 4804,
  "rela": 4533,
  "related</w>": 7718,
  "relation": 8910,
  "relation</w>": 28258,
  "relations</w>": 17299,
  "relationship</w>": 11519,
  "relationships</w>": 23872,
  "relative</w>": 23876,
  "relatively</w>": 17708,
  "relatives</w>": 45038,
  "rele": 3704,
  "release</w>": 7372,
  "released</w>": 7313,
  "releases</w>": 33885,
  "releasing</w>": 41284,
  "relev": 17849,
  "relevant</w>": 20064,
  "reli": 4933,
  "reliable</w>": 30003,
  "relief</w>": 27434,
  "religi": 7543,
  "religion</w>": 16956,
  "religious</w>": 11778,
  "rell</w>": 42080,
  "reluc": 42548,
  "rely</w>": 7703,
  "rem": 31042,
  "remain": 6708,
  "remain</w>": 12079,
  "remained</w>": 20452,
  "remaining</w>": 20638,
  "remains</w>": 11612,
  "remar": 16102,
  "remark": 27896,
  "remarkable</w>": 35044,
  "remarks</w>": 31542,
  "remember": 36356,
  "remember</w>": 10536,
  "remembered</w>": 46480,
  "rement</w>": 17055,
  "rements</w>": 19769,
  "remin": 19168,
  "remo": 19394,
  "remote</w>": 26691,
  "remov": 33036,
  "removal</w>": 37372,
  "remove</w>": 18633,
  "removed</w>": 16917,
  "removing</w>": 38637,
  "ren": 1716,
  "ren</w>": 16203,
  "rence</w>": 28705,
  "render</w>": 36193,
  "rendered</w>": 48341,
  "reness</w>": 28015,
  "renew": 21880,
  "renewable</w>": 39565,
  "rent</w>": 19729,
  "rep</w>": 21766,
  "repair</w>": 39492,
  "repe": 9090,
  "repeal</w>": 41059,
  "repeat": 23734,
  "repeat</w>": 34103,
  "repeated</w>": 30414,
  "repeatedly</w>": 24516,
  "repl": 26984,
  "replac": 20628,
  "replace</w>": 21465,
  "replaced</w>": 23856,
  "replacement</w>": 32287,
  "replacing</w>": 44937,
  "replic": 33205,
  "replied</w>": 34774,
  "reply</w>": 38935,
  "repor": 3660,
  "report</w>": 4977,
  "reported</w>": 7019,
  "reportedly</w>": 21693,
  "reporter</w>": 22604,
  "reporters</w>": 20726,
  "reporting</w>": 19867,
  "reports</w>": 8761,
  "repres": 5610,
  "represent": 14289,
  "represent</w>": 20814,
  "representation</w>": 35906,
  "representative</w>": 24911,
  "representatives</w>": 26551,
  "represented</w>": 25262,
  "representing</w>": 32993,
  "represents</w>": 22803,
  "repu": 21605,
  "republic": 5532,
  "republic</w>": 21414,
  "republican</w>": 8289,
  "republicans</w>": 11345,
  "reputation</w>": 27492,
  "requ": 3214,
  "reque": 16080,
  "request</w>": 14191,
  "requested</w>": 35208,
  "requests</w>": 25255,
  "requi": 4984,
  "require</w>": 14546,
  "required</w>": 11189,
  "requirement</w>": 37774,
  "requirements</w>": 24490,
  "requires</w>": 16316,
  "requiring</w>": 38596,
  "rer</w>": 15382,
  "res": 35614,
  "res</w>": 2150,
  "resc": 18756,
  "rescue</w>": 28643,
  "resear": 4345,
  "research</w>": 5761,
  "researcher</w>": 40747,
  "researchers</w>": 12938,
  "resem": 35466,
  "reserve</w>": 25801,
  "reserved</w>": 36279,
  "reserves</w>": 49049,
  "resi": 6068,
  "residence</w>": 46485,
  "resident</w>": 30226,
  "residential</w>": 41115,
  "residents</w>": 14182,
  "resist</w>": 48833,
  "resistance</w>": 22653,
  "resolution</w>": 20010,
  "resolve</w>": 38732,
  "resolved</w>": 44317,
  "reson": 46934,
  "resort</w>": 39510,
  "resource</w>": 28296,
  "resources</w>": 12356,
  "resp": 3105,
  "respec": 12764,
  "respect</w>": 14561,
  "respected</w>": 44742,
  "respective</w>": 43200,
  "respectively</w>": 31502,
  "respon": 3724,
  "respond</w>": 19294,
  "responded</w>": 21265,
  "respondents</w>": 48070,
  "responding</w>": 43877,
  "response</w>": 8736,
  "responses</w>": 32959,
  "responsib": 15315,
  "responsibility</w>": 18254,
  "responsible</w>": 14120,
  "rest": 22666,
  "rest</w>": 6714,
  "restaur": 15426,
  "restaurant</w>": 21513,
  "restaurants</w>": 34258,
  "restor": 40911,
  "restore</w>": 40212,
  "restra": 43775,
  "restric": 15805,
  "restricted</w>": 38005,
  "restrictions</w>": 30067,
  "resul": 4034,
  "result</w>": 7168,
  "resulted</w>": 29050,
  "resulting</w>": 27245,
  "results</w>": 8209,
  "resur": 43345,
  "ret": 13053,
  "retail</w>": 27854,
  "retain</w>": 47958,
  "reti": 14339,
  "retired</w>": 28931,
  "retirement</w>": 32656,
  "retri": 44449,
  "retro": 43349,
  "return</w>": 7236,
  "returned</w>": 16135,
  "returning</w>": 26157,
  "returns</w>": 22433,
  "reu": 15731,
  "reuters</w>": 16798,
  "reve": 8673,
  "reveal</w>": 26487,
  "revealed</w>": 14578,
  "revealing</w>": 48148,
  "reveals</w>": 35494,
  "revel": 30569,
  "reven": 13547,
  "revenue</w>": 19195,
  "revenues</w>": 45292,
  "rever": 30949,
  "revers": 37921,
  "reverse</w>": 32524,
  "revi": 35665,
  "review</w>": 9936,
  "reviewed</w>": 39081,
  "reviews</w>": 28218,
  "revol": 10572,
  "revolution</w>": 18318,
  "revolutionary</w>": 32632,
  "reward</w>": 32359,
  "rewards</w>": 41794,
  "rey</w>": 21416,
  "rf</w>": 47674,
  "rhe": 25296,
  "rhetor": 32512,
  "rhetoric</w>": 37739,
  "rho": 41705,
  "rhy": 34486,
  "rhyth": 42703,
  "ri": 725,
  "ri</w>": 18098,
  "ribu": 6881,
  "ric": 3965,
  "ric</w>": 20868,
  "rice</w>": 26335,
  "rich": 27851,
  "rich</w>": 12247,
  "richard</w>": 17329,
  "rick</w>": 15102,
  "rics</w>": 40334,
  "ricul": 19614,
  "rid</w>": 23671,
  "ride</w>": 18567,
  "riders</w>": 43680,
  "ridge</w>": 47353,
  "ridic": 28327,
  "ridiculous</w>": 37974,
  "riding</w>": 32237,
  "rie</w>": 37664,
  "ried</w>": 8789,
  "rier</w>": 20567,
  "riers</w>": 31327,
  "ries</w>": 15191,
  "rif": 23710,
  "rifle</w>": 39058,
  "righ": 32261,
  "right</w>": 2493,
  "rights</w>": 6118,
  "ril</w>": 8478,
  "rim</w>": 45879,
  "rin": 49334,
  "ring</w>": 5641,
  "rings</w>": 42443,
  "rio</w>": 38838,
  "riot</w>": 46322,
  "ris": 3686,
  "ris</w>": 16647,
  "rise</w>": 11992,
  "rising</w>": 20357,
  "risk</w>": 8626,
  "risks</w>": 24510,
  "rison</w>": 33635,
  "rists</w>": 40054,
  "rit": 21444,
  "rival</w>": 32464,
  "rivals</w>": 43241,
  "river": 43597,
  "river</w>": 15197,
  "rivers</w>": 47102,
  "rix</w>": 39627,
  "ro": 569,
  "ro</w>": 12872,
  "road": 37815,
  "road</w>": 7473,
  "roads</w>": 25411,
  "rob": 12244,
  "rob</w>": 34106,
  "rober": 26754,
  "robert</w>": 14356,
  "roberts</w>": 43538,
  "robin</w>": 45602,
  "robinson</w>": 39560,
  "robo": 16211,
  "robot</w>": 29979,
  "robots</w>": 41580,
  "robust</w>": 43986,
  "roc": 10519,
  "rock</w>": 12480,
  "rocket</w>": 29107,
  "rockets</w>": 48453,
  "rocks</w>": 44128,
  "rod</w>": 42687,
  "rodri": 48091,
  "roe</w>": 47326,
  "rog": 43687,
  "roger</w>": 40113,
  "rogers</w>": 47362,
  "rol": 9964,
  "rol</w>": 36219,
  "role</w>": 7325,
  "roles</w>": 29771,
  "roll": 40289,
  "roll</w>": 13682,
  "rolled</w>": 31647,
  "rolling</w>": 24819,
  "rolls</w>": 41651,
  "rom": 19022,
  "roman": 19018,
  "roman</w>": 29885,
  "rome</w>": 42502,
  "romney</w>": 22167,
  "ron": 16858,
  "ron</w>": 14645,
  "roo": 4041,
  "roof</w>": 36722,
  "rookie</w>": 31306,
  "room</w>": 5890,
  "rooms</w>": 25690,
  "root</w>": 24085,
  "roots</w>": 27302,
  "ror</w>": 7987,
  "ros": 43122,
  "rose</w>": 18666,
  "ross</w>": 5464,
  "roster</w>": 27639,
  "rot": 37883,
  "rotation</w>": 44465,
  "rou": 12135,
  "rough</w>": 37164,
  "roughly</w>": 22235,
  "roun": 12854,
  "round</w>": 9550,
  "rounds</w>": 32769,
  "rout": 17288,
  "route</w>": 19469,
  "routes</w>": 40324,
  "routine</w>": 37776,
  "row": 36465,
  "row</w>": 6917,
  "rows</w>": 37909,
  "roy": 15565,
  "roy</w>": 33877,
  "royal</w>": 21805,
  "rp</w>": 44430,
  "rpg</w>": 30345,
  "rr": 37273,
  "rs</w>": 12274,
  "rt</w>": 31218,
  "ru": 1575,
  "rub": 38206,
  "rubio</w>": 43162,
  "ruby</w>": 13315,
  "rugby</w>": 45660,
  "rul": 6188,
  "rule</w>": 12242,
  "ruled</w>": 25905,
  "rules</w>": 9891,
  "ruling</w>": 20000,
  "rum": 19760,
  "rumors</w>": 44349,
  "run": 4593,
  "run</w>": 4910,
  "runner</w>": 37803,
  "running</w>": 7286,
  "runs</w>": 14843,
  "rup": 22014,
  "rural</w>": 29869,
  "rus": 4073,
  "rus</w>": 47761,
  "rush</w>": 25235,
  "russell</w>": 36017,
  "russi": 5204,
  "russia</w>": 8918,
  "russian</w>": 9645,
  "russians</w>": 42289,
  "ry": 8358,
  "ry</w>": 3394,
  "ryan</w>": 16486,
  "rying</w>": 18138,
  "s": 56,
  "s</w>": 227,
  "sa": 3483,
  "sa</w>": 8011,
  "sab": 25355,
  "sac": 15619,
  "sacred</w>": 47520,
  "sacrif": 41395,
  "sacrifice</w>": 43605,
  "sad": 19202,
  "sad</w>": 27465,
  "sadly</w>": 45853,
  "saf": 5286,
  "safe</w>": 11364,
  "safely</w>": 45899,
  "safer</w>": 47126,
  "safety</w>": 10579,
  "said</w>": 1260,
  "sain": 22763,
  "saint</w>": 36385,
  "saints</w>": 44705,
  "sake</w>": 41656,
  "sal": 5025,
  "salary</w>": 31711,
  "sale</w>": 17677,
  "sales</w>": 13031,
  "salt</w>": 26387,
  "salv": 38023,
  "sam": 7249,
  "sam</w>": 23796,
  "same</w>": 3187,
  "sample</w>": 22839,
  "samples</w>": 31443,
  "samsung</w>": 28338,
  "san": 10322,
  "san</w>": 9093,
  "sanc": 17614,
  "sanctions</w>": 28570,
  "sand": 9431,
  "sand</w>": 40432,
  "sanders</w>": 15039,
  "santa</w>": 29655,
  "sar": 12934,
  "sarah</w>": 32296,
  "sas": 40915,
  "sat": 6829,
  "sat</w>": 20522,
  "satell": 25451,
  "satellite</w>": 31850,
  "satis": 18289,
  "satisfaction</w>": 48222,
  "satisfied</w>": 42885,
  "satur": 9588,
  "saturday</w>": 10931,
  "sau": 13556,
  "sauce</w>": 44761,
  "saudi</w>": 21984,
  "sav": 9235,
  "save</w>": 11805,
  "saved</w>": 28632,
  "saving</w>": 29159,
  "savings</w>": 33973,
  "saw</w>": 7660,
  "say</w>": 3252,
  "saying</w>": 6669,
  "says</w>": 3129,
  "sb</w>": 42574,
  "sbs": 26114,
  "sbs</w>": 9159,
  "sc": 1719,
  "sc</w>": 18476,
  "scal": 46147,
  "scale</w>": 12473,
  "scan": 45317,
  "scand": 23554,
  "scandal</w>": 31929,
  "scap": 23002,
  "scar": 25824,
  "scared</w>": 41897,
  "scary</w>": 46248,
  "scen": 6913,
  "scenario</w>": 28828,
  "scene</w>": 11290,
  "scenes</w>": 24615,
  "sch": 2381,
  "sch</w>": 47592,
  "scha": 41296,
  "sche": 20027,
  "sche</w>": 41270,
  "schedul": 18042,
  "schedule</w>": 22155,
  "scheduled</w>": 22193,
  "schem": 17100,
  "scheme</w>": 24332,
  "scho": 10185,
  "schol": 18782,
  "scholar</w>": 43830,
  "scholars</w>": 44306,
  "school": 41685,
  "school</w>": 4658,
  "schools</w>": 12138,
  "sci": 3716,
  "sci</w>": 33633,
  "science</w>": 7423,
  "sciences</w>": 34882,
  "scienti": 7572,
  "scientific</w>": 16810,
  "scientist</w>": 31237,
  "scientists</w>": 13994,
  "sco": 4766,
  "scoo": 48247,
  "scope</w>": 25610,
  "scor": 43416,
  "score</w>": 15396,
  "scored</w>": 22576,
  "scores</w>": 28232,
  "scoring</w>": 26627,
  "scot": 17175,
  "scotland</w>": 26175,
  "scott</w>": 16343,
  "scottish</w>": 35242,
  "scp</w>": 42061,
  "scrap": 39825,
  "scrat": 36629,
  "scre": 6268,
  "screen": 28547,
  "screen</w>": 11400,
  "screens</w>": 46416,
  "scri": 5976,
  "scrip": 22480,
  "script</w>": 17860,
  "scripts</w>": 45790,
  "scroll</w>": 48630,
  "scru": 26381,
  "scrutiny</w>": 45757,
  "scul": 42601,
  "sd": 18155,
  "sd</w>": 25223,
  "sday</w>": 9643,
  "se": 810,
  "se</w>": 1013,
  "sea": 38833,
  "sea</w>": 9739,
  "seal</w>": 46122,
  "sean</w>": 32488,
  "sear": 3403,
  "search</w>": 11019,
  "searching</w>": 36302,
  "seas": 15225,
  "seas</w>": 28262,
  "season</w>": 3825,
  "seasons</w>": 19402,
  "seat</w>": 19070,
  "seats</w>": 26898,
  "seattle</w>": 21652,
  "sec": 1691,
  "sec</w>": 25815,
  "secon": 11948,
  "second</w>": 4167,
  "secondary</w>": 31537,
  "seconds</w>": 17367,
  "secre": 6172,
  "secret</w>": 12895,
  "secretary</w>": 11851,
  "secrets</w>": 42251,
  "section</w>": 11110,
  "sections</w>": 32964,
  "sector</w>": 18608,
  "secu": 10964,
  "secular</w>": 48227,
  "secur": 4790,
  "secure</w>": 18399,
  "secured</w>": 46129,
  "securities</w>": 48281,
  "security</w>": 5092,
  "secution</w>": 33135,
  "sed</w>": 3470,
  "see": 4323,
  "see</w>": 2500,
  "seed</w>": 32009,
  "seeds</w>": 42916,
  "seeing</w>": 13004,
  "seek</w>": 20288,
  "seeking</w>": 18179,
  "seeks</w>": 44062,
  "seem": 10816,
  "seem</w>": 10376,
  "seemed</w>": 13775,
  "seemingly</w>": 32535,
  "seems</w>": 7390,
  "seen</w>": 5427,
  "sees</w>": 21668,
  "seg": 25128,
  "segment</w>": 39888,
  "seized</w>": 40095,
  "sel": 1789,
  "sel</w>": 19914,
  "select</w>": 19159,
  "selected</w>": 24091,
  "selection</w>": 23136,
  "self</w>": 2593,
  "sell</w>": 12042,
  "selling</w>": 16861,
  "sels</w>": 30511,
  "selves</w>": 6419,
  "sely</w>": 16895,
  "sem": 23051,
  "semi": 33140,
  "semi</w>": 32537,
  "semin": 36587,
  "sen": 2501,
  "sen</w>": 8573,
  "senate</w>": 10415,
  "senator</w>": 18160,
  "senators</w>": 31859,
  "send</w>": 12691,
  "sending</w>": 24744,
  "senior</w>": 11761,
  "sens": 20327,
  "sense</w>": 7450,
  "sensi": 20363,
  "sensitive</w>": 27046,
  "sensor</w>": 46496,
  "sent": 11771,
  "sent</w>": 7895,
  "sentence</w>": 23819,
  "sentenced</w>": 38785,
  "senti": 31026,
  "sentiment</w>": 48661,
  "seoul</w>": 40965,
  "separ": 9687,
  "separate</w>": 16031,
  "separated</w>": 45812,
  "separation</w>": 48983,
  "sept": 9372,
  "sept</w>": 31030,
  "september</w>": 9413,
  "sequ": 7316,
  "sequence</w>": 32946,
  "ser": 1513,
  "ser</w>": 10326,
  "serge": 43787,
  "serial</w>": 48099,
  "series</w>": 5627,
  "serious</w>": 11035,
  "seriously</w>": 19065,
  "sers</w>": 46904,
  "serv": 2735,
  "servation</w>": 47565,
  "serve</w>": 9239,
  "served</w>": 9138,
  "server</w>": 12982,
  "servers</w>": 25397,
  "serves</w>": 21262,
  "service</w>": 5557,
  "services</w>": 7202,
  "serving</w>": 18122,
  "ses": 8783,
  "ses</w>": 4756,
  "session</w>": 12943,
  "sessions</w>": 23052,
  "set": 17574,
  "set</w>": 3286,
  "sets</w>": 17009,
  "sett": 8814,
  "setting</w>": 15341,
  "settings</w>": 27447,
  "settle": 22169,
  "settle</w>": 42056,
  "settled</w>": 33246,
  "settlement</w>": 27704,
  "setup</w>": 34889,
  "seven": 31136,
  "seven</w>": 9882,
  "seventh</w>": 41123,
  "sever": 4476,
  "several</w>": 5227,
  "severe</w>": 24694,
  "sex": 6628,
  "sex</w>": 8906,
  "sexu": 27758,
  "sexual</w>": 10253,
  "sexuality</w>": 34179,
  "sexually</w>": 41192,
  "sey</w>": 13160,
  "sf": 34300,
  "sf</w>": 24687,
  "sh": 821,
  "sh</w>": 7806,
  "sha": 3561,
  "sha</w>": 43332,
  "shadow</w>": 27400,
  "shake</w>": 36584,
  "shall</w>": 16048,
  "sham": 42027,
  "shame</w>": 37568,
  "shape</w>": 18267,
  "shaped</w>": 36291,
  "shar": 11161,
  "share": 40574,
  "share</w>": 7391,
  "shared</w>": 15265,
  "shares</w>": 23064,
  "sharing</w>": 20118,
  "sharp</w>": 29113,
  "shaw</w>": 41739,
  "she": 10655,
  "she</w>": 1818,
  "shed</w>": 40186,
  "sheet</w>": 30147,
  "shel": 16071,
  "shell</w>": 25122,
  "shelter</w>": 40830,
  "sher": 16733,
  "sheriff</w>": 28737,
  "shi": 2329,
  "shi</w>": 37992,
  "shield</w>": 31028,
  "shift</w>": 18229,
  "shifting</w>": 48683,
  "shine</w>": 36066,
  "ship</w>": 3451,
  "shipping</w>": 32620,
  "ships</w>": 10689,
  "shir": 17803,
  "shire</w>": 24931,
  "shirt</w>": 27489,
  "shirts</w>": 46696,
  "shit</w>": 24129,
  "sho": 1782,
  "shock</w>": 27108,
  "shocked</w>": 38522,
  "shocking</w>": 45909,
  "shoes</w>": 36231,
  "shoo": 7592,
  "shoot</w>": 23011,
  "shooter</w>": 43041,
  "shooting</w>": 13277,
  "shop": 22478,
  "shop</w>": 15161,
  "shopping</w>": 31067,
  "shops</w>": 34387,
  "shor": 10003,
  "shore</w>": 29218,
  "short": 22943,
  "short</w>": 7369,
  "shorter</w>": 47683,
  "shortly</w>": 24026,
  "shot</w>": 7551,
  "shots</w>": 18787,
  "shoul": 23238,
  "should</w>": 2831,
  "shoulder</w>": 32000,
  "shouldn</w>": 21481,
  "show": 23875,
  "show</w>": 3968,
  "showed</w>": 11618,
  "showing</w>": 14937,
  "shown</w>": 12709,
  "shows</w>": 7832,
  "shr": 30064,
  "shu": 11815,
  "shut": 31632,
  "shut</w>": 21798,
  "si": 716,
  "si</w>": 14765,
  "sia</w>": 34289,
  "sib": 6343,
  "sible</w>": 3914,
  "sic</w>": 38890,
  "sick</w>": 27769,
  "side": 33255,
  "side</w>": 2792,
  "sidel": 46883,
  "sides</w>": 17775,
  "sie": 40845,
  "sie</w>": 39206,
  "sig": 2628,
  "sight</w>": 19415,
  "sign": 17247,
  "sign</w>": 8191,
  "signal</w>": 24006,
  "signals</w>": 37265,
  "signat": 47953,
  "signature</w>": 33645,
  "signed</w>": 9621,
  "signific": 6971,
  "significance</w>": 42676,
  "significant</w>": 9649,
  "significantly</w>": 20329,
  "signing</w>": 21686,
  "signs</w>": 18922,
  "sil": 6271,
  "silence</w>": 31457,
  "silent</w>": 33257,
  "silicon</w>": 43112,
  "silly</w>": 48737,
  "silver</w>": 22104,
  "sim": 3617,
  "simil": 6164,
  "similar</w>": 7288,
  "similarly</w>": 28270,
  "simon</w>": 33420,
  "simpl": 38684,
  "simple</w>": 9264,
  "simpli": 48142,
  "simply</w>": 7469,
  "simul": 18118,
  "simultan": 35796,
  "simultaneously</w>": 42017,
  "sin": 16060,
  "sin</w>": 17399,
  "since</w>": 3230,
  "sing": 4689,
  "sing</w>": 4287,
  "singapore</w>": 41702,
  "singer</w>": 31242,
  "singh</w>": 44603,
  "singing</w>": 44832,
  "single</w>": 6497,
  "sion": 6226,
  "sion</w>": 2093,
  "sional</w>": 9832,
  "sions</w>": 5068,
  "sir</w>": 30073,
  "sis</w>": 22924,
  "sist</w>": 23924,
  "sister</w>": 22720,
  "sisters</w>": 47124,
  "sit": 4888,
  "sit</w>": 18382,
  "site</w>": 7613,
  "sites</w>": 15881,
  "sits</w>": 39899,
  "sitting</w>": 18334,
  "situ": 7672,
  "situation</w>": 9614,
  "situations</w>": 27061,
  "sity</w>": 22248,
  "sive</w>": 3411,
  "sively</w>": 23982,
  "sives</w>": 43028,
  "six": 21146,
  "six</w>": 6585,
  "sixth</w>": 33274,
  "size</w>": 8749,
  "sized</w>": 33525,
  "sizes</w>": 46145,
  "siëĬĶ</w>": 41940,
  "sk": 1924,
  "sk</w>": 8040,
  "ske": 17348,
  "skep": 31360,
  "ski": 39988,
  "ski</w>": 16668,
  "skill</w>": 21216,
  "skilled</w>": 46318,
  "skills</w>": 17279,
  "skin</w>": 18330,
  "skins</w>": 49257,
  "skip</w>": 48907,
  "skir": 46113,
  "skt</w>": 33089,
  "sky": 19528,
  "sky</w>": 11365,
  "skë¸Įë¡ľëĵľ": 44625,
  "skëĬĶ</w>": 26701,
  "skìĿ´ëħ¸ë²łìĿ´": 25632,
  "skìĿĺ</w>": 48810,
[...]
